<unk>	0
<s>	0
</s>	0
[CLS]	0
[SEP]	0
[MASK]	0
<m>	0
</m>	0
।	-3.39117
ৰ	-3.55848
,	-3.8503
▁আৰু	-4.31035
’	-4.65737
ত	-4.71736
-	-4.7935
▁	-4.81011
▁এই	-5.01136
▁কৰা	-5.03663
ক	-5.11675
ে	-5.17957
▁পৰা	-5.28137
▁হ	-5.39753
▁কৰি	-5.41723
▁বাবে	-5.46833
▁হয়	-5.51708
'	-5.5223
▁কৰে	-5.53356
)	-5.57712
▁(	-5.6069
▁।	-5.61317
ব	-5.65013
ল	-5.66805
▁তেওঁ	-5.7682
▁হৈছে	-5.77499
ই	-5.8045
▁কৰিব	-5.81114
.	-5.88613
▁হৈ	-5.89652
▁যে	-5.93999
▁এটা	-5.97499
▁বুলি	-6.02659
▁এক	-6.09188
▁সেই	-6.10627
▁বা	-6.10693
লৈ	-6.11836
▁আছে	-6.14375
▁আছিল	-6.16739
▁থকা	-6.22089
▁ক	-6.25891
▁কিন্তু	-6.30409
▁হোৱা	-6.32011
▁তেওঁৰ	-6.34181
▁কৰাৰ	-6.36638
ো	-6.37051
▁কৰিছে	-6.37895
▁কৰিছিল	-6.38136
লে	-6.38411
৷	-6.38493
▁কথা	-6.40669
▁কৰিবলৈ	-6.4067
▁মই	-6.41279
▁‘	-6.43219
?	-6.4347
▁কোনো	-6.44342
▁“	-6.44432
▁নাই	-6.45083
ও	-6.46307
▁ইয়াৰ	-6.46629
য়ে	-6.49107
▁হৈছিল	-6.49598
:	-6.5257
▁আমি	-6.5524
▁সৈতে	-6.5873
▁দিয়া	-6.60227
▁মোৰ	-6.62046
▁তাৰ	-6.63329
▁পাৰে	-6.67129
▁লৈ	-6.69054
▁লগতে	-6.70029
;	-6.71848
▁চনত	-6.72346
▁আমাৰ	-6.72623
▁লাভ	-6.77471
▁নহয়	-6.7804
টো	-6.78142
▁কয়	-6.78173
▁-	-6.78418
▁অসম	-6.79992
▁নিজৰ	-6.80343
▁কাম	-6.80437
ী	-6.80948
▁বিভিন্ন	-6.81112
▁কৰিলে	-6.81602
▁সকলো	-6.82209
▁হিচাপে	-6.82287
▁এখন	-6.85274
া	-6.88184
▁ল	-6.88939
▁কি	-6.89769
▁"	-6.89871
▁আন	-6.90296
▁যায়	-6.9089
▁যি	-6.91143
▁সময়ত	-6.92591
▁৷	-6.92646
▁ই	-6.92881
ন	-6.93059
▁আপুনি	-6.93381
▁প্ৰকাশ	-6.93784
▁পিছত	-6.95438
▁লগত	-6.96322
ৰে	-6.97022
▁আৰম্ভ	-7.00602
▁নাম	-7.00767
▁এজন	-7.01465
▁গ্ৰহণ	-7.01744
▁মাজত	-7.01824
হে	-7.02146
▁ওপৰত	-7.02265
ম	-7.03489
▁ব্যৱহাৰ	-7.054
▁'	-7.07885
▁তথা	-7.0812
▁যদি	-7.08416
▁পোৱা	-7.089
▁এনে	-7.11939
!	-7.1243
েই	-7.12661
▁অসমীয়া	-7.12968
▁আজি	-7.13055
▁তেওঁলোকৰ	-7.14027
▁অসমৰ	-7.14132
▁চনৰ	-7.14964
কৈ	-7.15172
▁প্ৰথম	-7.16623
▁সৃষ্টি	-7.16747
▁তেওঁলোকে	-7.17895
▁গ	-7.18259
▁নতুন	-7.18299
"	-7.19548
▁দৰে	-7.1989
▁দেখা	-7.20027
▁কৰক	-7.20466
▁দি	-7.2088
▁প্ৰতি	-7.21005
▁ক্ষেত্ৰত	-7.21539
▁প্ৰদান	-7.22193
▁আদি	-7.25189
▁হোৱাৰ	-7.25299
কে	-7.25429
▁বিষয়ে	-7.25468
▁থাকে	-7.25494
ি	-7.25793
▁আপোনাৰ	-7.26739
েৰে	-7.27826
▁পাছত	-7.28338
ঃ	-7.28365
▁:	-7.29245
▁এতিয়া	-7.30295
▁প্ৰায়	-7.30488
▁উত্তৰ	-7.3084
বোৰ	-7.31007
▁নামৰ	-7.31736
▁অ	-7.33258
▁যোৱা	-7.33871
▁বহু	-7.34181
▁দ্বাৰা	-7.3611
▁অধিক	-7.36864
▁অহা	-7.36899
s	-7.37341
▁ৰ	-7.37763
▁ভাৰতীয়	-7.37908
▁ধৰি	-7.3833
▁তেতিয়া	-7.38461
বলৈ	-7.39255
▁ভিতৰত	-7.4006
▁১	-7.40104
...	-7.40235
▁দিয়ে	-7.40645
”	-7.41694
▁ভাল	-7.42248
▁অনুষ্ঠিত	-7.42727
তে	-7.44039
▁লোক	-7.47481
▁যদিও	-7.50147
▁দেশৰ	-7.50741
্	-7.5093
▁তেওঁক	-7.51258
▁দিব	-7.51899
▁লোৱা	-7.52162
ৰা	-7.52643
▁বিশেষ	-7.52786
▁বছৰ	-7.52871
▁ভাৰতৰ	-7.5394
▁লাগিব	-7.54398
▁জিলা	-7.55202
▁কোৱা	-7.57781
▁:⁠	-7.58074
▁অতি	-7.58219
▁লাগে	-7.58699
▁এ	-7.59473
▁লগে	-7.59883
▁চৰকাৰে	-7.60129
▁কাৰণ	-7.60198
▁মতে	-7.60416
তা	-7.60504
▁ফলত	-7.60624
▁হব	-7.62409
সমূহ	-7.62426
▁মন্ত্ৰী	-7.63491
▁তেন্তে	-7.64119
▁সময়	-7.64673
▁উপস্থিত	-7.64833
▁কাৰণে	-7.65101
▁নাছিল	-7.66089
খন	-7.66311
▁ছাত্ৰ	-7.67201
▁থাকিব	-7.6743
▁পুনৰ	-7.67993
▁বৃদ্ধি	-7.68068
▁শিক্ষা	-7.68652
▁টকা	-7.69005
▁,	-7.69069
▁উল্লেখ	-7.6907
▁২	-7.69873
ভাৱে	-7.70018
▁তথ্য	-7.70389
▁গৈ	-7.70512
▁আহি	-7.7094
▁বৰ	-7.71241
তো	-7.71895
▁ব্যৱস্থা	-7.7193
▁জিলাৰ	-7.72166
▁বিৰুদ্ধে	-7.72221
▁বি	-7.72255
▁কেৱল	-7.72807
ছ	-7.72999
▁জীৱন	-7.73117
লা	-7.73619
▁আহিছে	-7.7395
▁”	-7.7396
▁গৈছে	-7.74204
▁বন্ধ	-7.74781
▁কিছুমান	-7.74944
▁কিছু	-7.7532
▁ভাৰত	-7.76955
▁প্ৰধানমন্ত্ৰী	-7.77063
▁মানুহৰ	-7.77589
▁ৰাষ্ট্ৰীয়	-7.77643
▁সহায়	-7.78244
/	-7.78279
▁মোক	-7.78306
▁নে	-7.78902
িত	-7.79072
▁এগৰাকী	-7.79119
সকলৰ	-7.80061
▁যেতিয়া	-7.80351
▁চৰকাৰৰ	-7.80632
▁সংখ্যা	-7.80704
▁দিন	-7.80709
▁বৰ্তমান	-7.8081
(	-7.82279
▁পাৰি	-7.83158
▁দিলে	-7.84216
▁ঘোষণা	-7.84543
না	-7.85181
▁৫	-7.85222
টি	-7.85237
▁জন	-7.86068
▁ৰাজ্য	-7.8618
▁সৰু	-7.86272
▁কিয়নো	-7.8656
▁যাব	-7.86579
▁দুটা	-7.87278
▁বেছি	-7.87829
▁জন্ম	-7.87957
▁৩	-7.88081
▁ইয়াক	-7.88377
ীয়া	-7.88793
চ	-7.88897
▁তোমাৰ	-7.89345
▁মানুহ	-7.89544
▁যেন	-7.89658
▁চি	-7.89861
▁কেন্দ্ৰীয়	-7.89868
▁মৃত্যু	-7.9005
প	-7.91016
▁সেয়া	-7.91459
▁অনুসৰি	-7.91947
▁–	-7.91967
▁উচিত	-7.92869
|	-7.93025
▁সাধাৰণ	-7.93082
▁কম	-7.93093
▁সকলৰ	-7.93124
▁ন	-7.93363
▁১০	-7.93749
▁পালন	-7.93819
▁বিশ্ব	-7.94282
▁অংশ	-7.94452
▁পি	-7.94985
▁সেয়ে	-7.95275
▁মন	-7.953
▁নিৰ্মাণ	-7.9573
▁সাহিত্য	-7.95917
▁পৰে	-7.96239
▁সক্ষম	-7.97042
▁সকলে	-7.97091
সকলে	-7.97136
।”	-7.9727
▁মুখ্য	-7.97377
▁আই	-7.97544
▁কিয়	-7.97627
▁বঁটা	-7.98496
ীয়	-7.98637
▁নিজ	-7.98983
▁তুমি	-7.9916
▁হাতত	-7.9918
▁ইয়াত	-7.99448
▁পৰামৰ্শ	-7.99584
▁ডাঙৰ	-7.99603
বা	-8.00111
▁দাবী	-8.00385
▁সম্পূৰ্ণ	-8.00455
▁ছবি	-8.00844
য়	-8.01019
▁প্ৰধান	-8.01281
▁মূল	-8.02188
▁পানী	-8.02445
নে	-8.02496
ড	-8.0254
▁সি	-8.03115
▁তাক	-8.03356
▁৪	-8.03401
▁ভাষা	-8.03824
▁আনহাতে	-8.03925
টোৰ	-8.03936
▁তলত	-8.04046
▁যিহোৱাৰ	-8.04566
▁দুই	-8.04747
▁জানিব	-8.05328
▁গতিকে	-8.05418
▁পায়	-8.05534
▁সভাপতি	-8.05572
▁স্থাপন	-8.06155
▁প্ৰভাৱ	-8.06615
▁শেষ	-8.06639
▁ৰাজ্যৰ	-8.06841
▁কেনেকৈ	-8.0699
▁একো	-8.07104
▁লোকৰ	-8.07349
▁ধৰণৰ	-8.07735
িক	-8.08311
▁ড	-8.08321
▁৬	-8.08423
▁জৰিয়তে	-8.08789
এ	-8.08859
▁স্থান	-8.09062
▁ঈশ্বৰৰ	-8.09275
▁স	-8.09661
▁এটি	-8.1006
▁জড়িত	-8.10064
▁সমগ্ৰ	-8.10635
▁প্ৰয়োজন	-8.10676
লৈকে	-8.11009
নি	-8.11431
▁নহ	-8.11433
▁তেনে	-8.11595
টা	-8.11635
▁দল	-8.11814
▁মহিলা	-8.11817
▁যাতে	-8.11855
▁দিয়াৰ	-8.12295
▁লগা	-8.12712
▁চেষ্টা	-8.12713
▁পৰিছে	-8.12813
▁ৰাজনৈতিক	-8.12814
▁আমাক	-8.13262
▁টা	-8.13409
▁তেখেতে	-8.13453
▁সেৱা	-8.13461
জ	-8.13603
▁মুকলি	-8.13653
▁বুলিও	-8.13925
▁বিশ্বাস	-8.13946
তকৈ	-8.14139
হ	-8.14152
▁দলৰ	-8.14413
▁তেওঁলোকক	-8.14567
▁এইদৰে	-8.14753
▁উচ্চ	-8.15034
▁ত	-8.15613
▁ম	-8.15642
▁আকৌ	-8.16202
▁দিছিল	-8.1648
▁পথ	-8.16505
চি	-8.16585
জন	-8.16659
▁লাখ	-8.16697
▁গুৱাহাটী	-8.17061
▁যাৰ	-8.17394
▁আগত	-8.17544
কো	-8.17552
▁বিভাগৰ	-8.18052
▁তাত	-8.18448
▁অথবা	-8.18505
▁মান	-8.18508
▁আলোচনা	-8.18836
),	-8.18866
▁কুমাৰ	-8.19048
▁তেখেতৰ	-8.19506
▁ৰজা	-8.19836
▁১৫	-8.19952
▁অন্য	-8.19972
▁দিছে	-8.20215
▁স্বাস্থ্য	-8.20292
▁দ্বিতীয়	-8.20442
▁আৰক্ষী	-8.20492
অ	-8.20502
▁গৰাকী	-8.2057
▁সম্পাদক	-8.20805
▁য	-8.21012
▁মানুহে	-8.21223
▁|	-8.21368
▁হাজাৰ	-8.21494
▁লোকে	-8.21669
▁গঠন	-8.21794
▁অনুভৱ	-8.21831
সমূহৰ	-8.21902
▁মনত	-8.22411
▁পৰীক্ষা	-8.22534
▁লক্ষ্য	-8.22757
▁সিদ্ধান্ত	-8.22921
▁চলি	-8.23661
ৰো	-8.23838
বি	-8.24092
▁বিষয়	-8.2458
▁যিকোনো	-8.24609
▁চৰকাৰী	-8.24838
▁দক্ষিণ	-8.24935
▁পৰি	-8.25005
ট	-8.25086
▁পাব	-8.25213
▁অৱশ্যে	-8.25937
▁প	-8.26127
▁কৈছিল	-8.26221
▁অৰ্থাৎ	-8.26248
▁দিবলৈ	-8.26265
▁ঘটনা	-8.26613
▁তাই	-8.2678
▁যিহোৱাই	-8.26812
মান	-8.26842
▁পিতৃ	-8.26926
▁ডি	-8.27219
▁গুৰুত্বপূৰ্ণ	-8.27445
▁বহুতো	-8.2745
–	-8.27569
লি	-8.27717
▁শক্তি	-8.27896
▁৮	-8.28144
—	-8.28153
ং	-8.28228
▁৭	-8.28435
▁স্থানীয়	-8.28864
▁অলপ	-8.28943
▁লয়	-8.29267
▁আশা	-8.29299
শ	-8.29312
▁এয়া	-8.29609
কা	-8.29615
▁পুত্ৰ	-8.29711
▁বিজ্ঞান	-8.29754
▁ধৰা	-8.3003
▁গীত	-8.30031
▁এন	-8.30047
▁ব	-8.31121
▁ঘৰ	-8.31358
▁দেশ	-8.31752
াৰ	-8.32013
▁মন্তব্য	-8.32298
▁ৰূপ	-8.32384
▁কোটি	-8.32426
▁জীৱনৰ	-8.32526
▁ধন	-8.32543
▁প্ৰ	-8.3256
▁মুঠ	-8.32775
▁বিষয়া	-8.32975
▁ছ	-8.33163
▁সু	-8.33163
্য	-8.33179
▁আগতে	-8.33418
স	-8.33631
▁চ	-8.33699
▁অসমত	-8.33801
▁সলনি	-8.34031
▁খবৰ	-8.34173
▁এইটো	-8.34263
▁উল্লেখযোগ্য	-8.34486
▁৯	-8.34554
▁আ	-8.34696
▁চৰকাৰ	-8.35263
▁ইতিমধ্যে	-8.35373
▁উপ	-8.35457
▁হে	-8.35504
▁১২	-8.35505
▁আহে	-8.3569
▁জনা	-8.35819
ছে	-8.36211
▁ৰখা	-8.36582
ৰপৰা	-8.3659
▁মাত্ৰ	-8.3692
▁ভাগ	-8.37006
ৱে	-8.37029
▁পাৰ	-8.37073
▁লিখা	-8.37515
▁ব্যক্তি	-8.37816
▁পূৰ্বে	-8.37981
▁তিনি	-8.38482
▁সন্দৰ্ভত	-8.38497
▁গৈছিল	-8.38719
▁অৰ্থ	-8.38966
▁নোৱাৰে	-8.38992
ু	-8.39114
▁প্ৰচাৰ	-8.39168
▁সদস্য	-8.39191
▁হাত	-8.39236
▁কৃষি	-8.39368
▁২০	-8.39488
▁দাস	-8.3957
▁সমস্যা	-8.39665
▁সুবিধা	-8.39671
▁সন্তান	-8.39693
▁কিবা	-8.39709
দ	-8.39963
▁খন	-8.40059
▁সমূহ	-8.40393
▁পৰিয়ালৰ	-8.40416
বোৰৰ	-8.40472
▁যেনে	-8.40512
▁সময়ৰ	-8.40692
▁চাই	-8.40803
▁চিকিৎসা	-8.40807
▁আৰক্ষীয়ে	-8.4096
▁পাৰিব	-8.40982
▁১৮	-8.41074
▁সামাজিক	-8.41349
তাৰ	-8.41386
▁অভিযোগ	-8.41603
মা	-8.42048
▁আহ্বান	-8.42214
▁দেখি	-8.42275
িং	-8.42317
▁অধিকাৰ	-8.42432
▁আইন	-8.42691
▁নেতা	-8.42713
▁সংবাদ	-8.42752
▁কৈ	-8.42991
▁ঘৰৰ	-8.43114
▁বিচাৰি	-8.43175
▁খাদ্য	-8.43318
▁বিজেপি	-8.43483
▁উক্ত	-8.43512
▁তেওঁলোক	-8.43655
▁নি	-8.43769
▁গুৰুত্ব	-8.43894
▁ঠাইত	-8.43894
▁এৰি	-8.44079
▁সংঘটিত	-8.44167
▁একে	-8.44525
▁মুখ্যমন্ত্ৰী	-8.4457
▁যথেষ্ট	-8.44683
▁এছ	-8.44837
▁পাইছে	-8.45181
▁বন	-8.457
গ	-8.4585
▁চিন্তা	-8.45917
▁নৰেন্দ্ৰ	-8.46277
▁ৰে	-8.46445
▁কৈছে	-8.46461
ণ	-8.46658
▁দেশত	-8.47134
▁পৰাই	-8.47134
ৱ	-8.4716
▁তাতে	-8.47291
▁ওলাই	-8.47397
▁শ্ৰী	-8.47406
▁অধীনত	-8.47514
সকলক	-8.47766
▁বিশ্বৰ	-8.47922
▁সকলোৱে	-8.48333
▁শব্দ	-8.48704
ঁ	-8.48734
▁জাতীয়	-8.48753
▁সময়তে	-8.48768
▁গৱেষণা	-8.48795
▁কিমান	-8.4926
▁কে	-8.49485
▁পাই	-8.49629
▁চাহ	-8.49738
▁শিক্ষক	-8.50081
▁বছৰৰ	-8.50153
▁কংগ্ৰেছ	-8.50185
টোৱে	-8.50669
▁থকাৰ	-8.50688
▁ভাৱে	-8.50809
▁আৰ	-8.5103
▁কেন্দ্ৰ	-8.51176
▁ৰাইজৰ	-8.51517
▁সন্মান	-8.51743
▁১৬	-8.51893
▁সকলক	-8.52053
▁ৰাখি	-8.52083
▁শিশু	-8.52135
▁ওচৰত	-8.52212
▁ও	-8.52235
▁ঈশ্বৰ	-8.52237
▁চলচ্চিত্ৰ	-8.52275
▁১৪	-8.52347
▁অন্যান্য	-8.5255
▁প্ৰাক্তন	-8.52581
▁বস্তু	-8.52698
▁টি	-8.52729
▁অনুষ্ঠানত	-8.53181
▁বৰুৱা	-8.53368
▁প্ৰশ্ন	-8.53744
▁১১	-8.53884
▁এম	-8.53897
▁ৰক্ষা	-8.54113
▁অৱস্থাত	-8.54258
পি	-8.54282
▁ইমান	-8.54396
▁অভিনয়	-8.54401
য়েই	-8.5463
▁গোটেই	-8.54719
▁অৱস্থিত	-8.54734
▁সাধাৰণতে	-8.54785
▁জনায়	-8.55079
▁সংগীত	-8.55259
▁কৰিম	-8.5559
▁লগ	-8.55826
▁কেতিয়াও	-8.55847
লো	-8.56208
▁গাঁৱৰ	-8.56405
▁নিৰ্বাচন	-8.56645
▁যিহেতু	-8.56777
▁জ্ঞান	-8.57237
▁১৭	-8.57363
▁এবাৰ	-8.5771
▁সভা	-8.5793
]	-8.57996
▁উদ্ধাৰ	-8.58061
▁এইবাৰ	-8.58077
▁তদুপৰি	-8.58082
▁অঞ্চলত	-8.58182
▁বহুত	-8.58252
▁শৰ্মা	-8.58314
▁এতিয়াও	-8.58359
▁ঘৰত	-8.58443
▁দিনা	-8.58547
▁হিন্দু	-8.58564
▁বৃহৎ	-8.58599
%	-8.58629
▁আজিৰ	-8.58787
▁সম্পৰ্কে	-8.58932
▁ঠিক	-8.59114
▁বিধায়ক	-8.59503
১৯	-8.597
▁পালে	-8.59785
▁কৰাটো	-8.60024
▁মে	-8.60066
▁ৰাজ্যিক	-8.60136
▁অনুষ্ঠান	-8.60259
▁প্ৰদৰ্শন	-8.60277
▁সমাজ	-8.60308
হি	-8.60409
▁ব্যক্তিগত	-8.60451
S	-8.60877
▁বাৰ্তা	-8.61354
ৰূপে	-8.61379
▁লোৱাৰ	-8.61591
▁মাহত	-8.61716
▁বাতৰি	-8.61741
▁দিনৰ	-8.61769
▁বিশ্ববিদ্যালয়ৰ	-8.61775
▁আটাইতকৈ	-8.61793
▁বেলেগ	-8.61801
▁নিজকে	-8.62019
▁নেকি	-8.62356
▁অনা	-8.62382
▁উল্লেখ্য	-8.62543
▁—	-8.62744
▁যোগ	-8.62929
▁দায়িত্ব	-8.63382
▁বহি	-8.63865
▁চন্দ্ৰ	-8.63908
▁প্ৰেম	-8.64124
▁ভাষাৰ	-8.6433
▁মাটি	-8.64525
▁আয়োজন	-8.64633
▁মানৱ	-8.64684
▁কেতিয়াবা	-8.64828
▁নীতি	-8.6499
▁ধৰ্ম	-8.65216
▁প্ৰস্তুত	-8.65292
▁উন্নয়ন	-8.65296
▁মা	-8.6539
▁তাইৰ	-8.65619
▁উপৰিও	-8.65633
▁নকৰে	-8.65692
▁১৩	-8.65704
▁বাবেই	-8.65723
জি	-8.6574
▁সভাত	-8.65908
▁গ্ৰন্থ	-8.66114
▁বিজেপিৰ	-8.66371
▁শতাংশ	-8.66669
▁জানিবলৈ	-8.66772
▁কৰাত	-8.66862
মি	-8.67105
▁ইংৰাজী	-8.67499
▁কৰ	-8.67508
▁মাৰি	-8.67707
▁বাকী	-8.67729
▁[	-8.6774
▁দলে	-8.67742
▁নামেৰে	-8.67753
▁প্ৰমাণ	-8.67942
▁ৰূপে	-8.6798
▁জি	-8.68132
▁খেতি	-8.68258
▁অধ্যয়ন	-8.68372
য়া	-8.6843
▁জাতি	-8.68724
▁অন্যতম	-8.68771
▁ঠাই	-8.68853
ভ	-8.68928
▁অভিযান	-8.69171
▁মাহৰ	-8.69277
▁হয়তো	-8.69399
ৰি	-8.69405
▁পিছতে	-8.69539
▁পাৰ্শ্ব	-8.69633
াই	-8.69674
▁নিয়ম	-8.69853
টোত	-8.69891
▁সাংস্কৃতিক	-8.70024
প্ৰতিক্ৰিয়া	-8.70042
▁অৱস্থা	-8.70257
▁দিৱস	-8.70391
মই	-8.70393
বলগীয়া	-8.70527
▁সম্পৰ্ক	-8.70532
▁৩০	-8.70585
▁বাস	-8.70978
y	-8.71361
▁পৃথিৱীৰ	-8.71411
▁অংশগ্ৰহণ	-8.71417
▁পৃষ্ঠা	-8.71504
▁আক্ৰান্ত	-8.716
লেও	-8.71619
▁হল	-8.71706
▁উঠি	-8.71738
▁মাজৰ	-8.71775
▁আহিব	-8.71849
সকল	-8.71858
▁অন্তৰ্গত	-8.72043
▁সংযোগ	-8.72068
▁খাই	-8.72095
▁ভাষাত	-8.72129
▁ফল	-8.72433
▁এবিধ	-8.72449
ফ	-8.72513
▁পৰিল	-8.7259
▁ৰোগৰ	-8.72602
⁠	-8.72813
▁কেনে	-8.73004
▁of	-8.73205
▁প্ৰতিবাদ	-8.73324
▁ৰচনা	-8.73331
▁জনপ্ৰিয়	-8.73355
▁লাহে	-8.7337
▁বেয়া	-8.73507
▁অঞ্চলৰ	-8.7356
▁ভাৰতত	-8.73683
চা	-8.73738
▁আদিৰ	-8.73739
▁কংগ্ৰেছৰ	-8.73757
১	-8.73758
▁না	-8.73838
▁মুক্তি	-8.73875
▁ভয়	-8.74063
▁নিজে	-8.74086
কাৰী	-8.74279
▁পৰিষদৰ	-8.74459
▁আহিছিল	-8.74703
▁বিশিষ্ট	-8.74804
▁সা	-8.75066
▁থাকি	-8.75075
▁২১	-8.75119
▁সভাৰ	-8.7519
▁চলাই	-8.7528
▁অৱ	-8.75282
▁আহিল	-8.75359
a	-8.75997
▁কৰে৷	-8.76071
▁সত্য	-8.76307
▁কাৰ্য	-8.76384
▁নিশা	-8.76798
এই	-8.76851
in	-8.76959
▁বিপৰীতে	-8.76975
▁ৰোগ	-8.77092
▁যুদ্ধ	-8.77265
▁নিশ্চিত	-8.77297
▁মূল্য	-8.77969
▁ৰাইজে	-8.78091
▁ঘৰলৈ	-8.78112
▁মৃত্যুৰ	-8.78226
°	-8.7829
▁বিয়া	-8.78471
▁ৰাজ	-8.78625
▁দিল্লী	-8.78633
▁প্ৰতিটো	-8.78658
▁পশ্চিম	-8.78796
▁ক্ষমতা	-8.78957
▁আনন্দ	-8.79082
▁বিকাশ	-8.79146
▁শ	-8.79148
▁২৪	-8.79151
জনে	-8.79311
▁অঞ্চল	-8.79638
▁গঢ়ি	-8.79775
▁প্ৰতিষ্ঠা	-8.79853
▁ধাৰণা	-8.79885
▁প্ৰেৰণ	-8.7994
▁এদিন	-8.80018
▁শিল্পী	-8.80444
কি	-8.806
▁বছৰীয়া	-8.80649
▁তিনিটা	-8.80795
▁যুৱ	-8.80961
▁মহিলাৰ	-8.80965
▁নিৰ্বাচিত	-8.81036
ভাবে	-8.81063
খিনি	-8.81153
।[1]	-8.81271
▁কালি	-8.81358
▁বৰা	-8.81412
▁সমাজৰ	-8.81604
▁সমষ্টিৰ	-8.81639
ষ্ট	-8.81649
▁সুৰক্ষা	-8.81734
▁কলা	-8.81747
A	-8.8176
▁সকলোৰে	-8.81765
▁খোৱা	-8.81773
▁চাৰি	-8.81964
▁বিগত	-8.81979
▁নিৰ্দেশ	-8.82019
▁উদ্যোগত	-8.82271
▁বিষয়ত	-8.82279
c	-8.82296
▁বিক্ৰী	-8.82559
▁সকল	-8.82719
▁ভূমিকা	-8.82848
▁সংখ্যক	-8.82966
▁?	-8.83017
▁আবেদন	-8.83184
▁২৫	-8.83305
▁কৃষক	-8.83492
▁পদক্ষেপ	-8.83784
▁আনকি	-8.83845
আ	-8.8385
▁অবিহনে	-8.83872
▁পূজা	-8.83897
▁প্ৰথমে	-8.83949
▁বিশেষকৈ	-8.8396
▁টকাৰ	-8.83985
▁সেইটো	-8.84116
▁ওচৰলৈ	-8.84128
▁১৯	-8.84265
▁ঘূৰি	-8.84328
▁সমূহৰ	-8.84387
▁আপোনালোকৰ	-8.84398
▁শক্তিশালী	-8.84431
▁যিটো	-8.84449
▁সাংবাদিক	-8.84467
০০০	-8.84479
▁উৎসৱ	-8.84687
২	-8.84766
▁জে	-8.84791
▁পৰিচয়	-8.84984
▁কাহিনী	-8.85028
▁সমিতিৰ	-8.85069
▁চাকৰি	-8.85117
▁সদায়	-8.85137
▁ভাবে	-8.85227
▁লোকসকলৰ	-8.85264
▁জ	-8.85272
মূলক	-8.85374
▁নোৱাৰি	-8.85533
▁সামগ্ৰী	-8.85675
ডি	-8.85869
▁গণ	-8.85961
▁তোমালোকে	-8.86028
▁ভিডিঅ	-8.86354
▁ডেকা	-8.86398
▁তৃতীয়	-8.86554
▁সফল	-8.86625
জা	-8.86626
▁থিয়	-8.8669
▁কোন	-8.8671
▁ৰাতি	-8.86725
▁ভুল	-8.86726
▁উদ্দেশ্য	-8.86886
▁উন্নত	-8.86998
▁সম্ভৱ	-8.87011
▁তৈয়াৰ	-8.8704
ইংৰাজী	-8.87094
▁হত্যা	-8.87169
▁ৰাম	-8.87389
▁কৰোঁ	-8.87407
▁পাঁচ	-8.87413
▁প্ৰকাশিত	-8.87433
▁কু	-8.87665
▁তুলি	-8.87708
▁যোৱাৰ	-8.87815
▁তোমালোকৰ	-8.87889
▁ইত্যাদি	-8.87903
▁ফালে	-8.88259
▁ফ	-8.88313
▁দিনত	-8.88451
▁এনেদৰে	-8.88659
▁মানে	-8.88831
▁দ	-8.89003
▁কৰ্ম	-8.8926
▁ডিগ্ৰী	-8.8949
▁জানো	-8.89527
▁আৰক্ষীৰ	-8.89621
▁যোগদান	-8.89707
▁ৰাজহুৱা	-8.89709
▁হওক	-8.89769
েও	-8.898
▁নালাগে	-8.89815
▁গুৱাহাটীৰ	-8.89957
▁খ	-8.89982
▁চকু	-8.90073
▁)	-8.90108
▁লোকক	-8.90231
▁দুখন	-8.90298
▁পিছে	-8.90331
▁প্ৰয়োজনীয়	-8.90447
উ	-8.90707
▁তাৰিখে	-8.90713
▁পুৰণি	-8.90721
▁গা	-8.90741
▁প্ৰকৃত	-8.9087
▁পৰিষদ	-8.90879
▁নগৰ	-8.90921
ছা	-8.90996
▁গৃহ	-8.91058
▁আপোনালোকে	-8.91097
▁সুযোগ	-8.91639
▁তেখেত	-8.91831
▁সেইবোৰ	-8.91846
▁খেল	-8.91898
৫	-8.91952
▁যোৰহাট	-8.92018
▁জয়	-8.92122
য়ো	-8.92122
▁পৰ্যন্ত	-8.92202
▁প্ৰাথমিক	-8.92253
▁প্ৰৱেশ	-8.92325
নী	-8.92424
▁অধ্যক্ষ	-8.92547
▁প্ৰয়োগ	-8.92715
▁আগবঢ়োৱা	-8.92733
▁এইবোৰ	-8.92754
▁সম্ভাৱনা	-8.92811
▁পৰৱৰ্তী	-8.92896
থ	-8.92936
▁বিশ্ববিদ্যালয়	-8.92997
▁আধুনিক	-8.93014
▁ৰাখিব	-8.93027
▁শ্ৰেষ্ঠ	-8.93168
▁লোকসকলে	-8.93212
▁পৰিচালনা	-8.93214
কাৰ	-8.93251
▁ইচ্ছা	-8.93367
▁হয়৷	-8.93484
▁হ্ৰাস	-8.93575
▁ৰাষ্ট্ৰপতি	-8.93719
▁দেখিবলৈ	-8.93935
▁প্ৰকাশক	-8.93981
▁বজাৰ	-8.9399
▁লৈছিল	-8.94071
▁ৰূপত	-8.94083
▁৫০	-8.94257
▁কা	-8.94268
▁কাৰ্যসূচী	-8.94307
▁শান্তি	-8.94355
▁গগৈ	-8.94499
▁পাইছিল	-8.94579
▁সেয়েহে	-8.94601
▁P	-8.94695
▁অনেক	-8.94825
▁বিহু	-8.94947
▁নামত	-8.94979
▁মুক্ত	-8.95092
▁ধৰিলে	-8.952
▁অন্তৰ্ভুক্ত	-8.95275
▁মত	-8.95294
▁মহা	-8.95396
▁হাৰ	-8.95535
নৰ	-8.95594
n	-8.95607
▁সঠিক	-8.95789
▁আপোনাক	-8.95874
ছিল	-8.95912
▁মাতৃ	-8.96107
▁কাৰ্য্য	-8.9616
e	-8.96299
▁পুৰুষ	-8.96414
▁প্ৰাণ	-8.96471
▁লৈছে	-8.96512
দি	-8.96628
▁পৰিয়াল	-8.96757
1	-8.96772
▁পৃথক	-8.96788
▁হিচাবে	-8.96807
▁আনি	-8.96868
তেই	-8.96958
▁জনোৱা	-8.96989
▁অব্যাহত	-8.9699
▁স্থানত	-8.97147
▁পত্ৰ	-8.97168
u	-8.97176
▁আক্ৰমণ	-8.97447
▁তীব্ৰ	-8.97603
দা	-8.97633
▁উৎপাদন	-8.97761
▁নোহোৱা	-8.97927
▁মানি	-8.97946
▁উদ্দেশ্যে	-8.97963
▁অনুমতি	-8.97982
▁যীচুৱে	-8.98159
ায়	-8.98236
▁বিদ্যালয়	-8.98244
▁২২	-8.98348
▁কিতাপ	-8.98451
▁বুজি	-8.98532
‍	-8.98591
▁পদ	-8.98612
ীৰ	-8.98838
▁মাজতে	-8.98961
▁একেলগে	-8.99048
স্থিত	-8.99329
▁মোদীয়ে	-8.99344
▁পৰিৱেশ	-8.99353
▁ভৰি	-8.99502
▁পাতি	-8.99514
▁জানুৱাৰী	-8.99616
▁নাযায়	-8.99707
P	-8.99725
▁সংগ্ৰহ	-8.99924
▁%	-8.99956
▁পবিত্ৰ	-9.00005
▁যাবলৈ	-9.00117
▁হৈছে৷	-9.00126
▁দুয়ো	-9.00152
▁ত্যাগ	-9.00153
মে	-9.00166
▁থৈ	-9.00297
তি	-9.00305
▁কামত	-9.00424
▁নৃত্য	-9.00546
▁ইতিহাস	-9.00586
▁পৰিছিল	-9.00624
▁গছ	-9.00634
জনক	-9.00645
d	-9.00741
2	-9.00768
▁যাত্ৰা	-9.01046
▁জনাইছে	-9.01061
▁লাগি	-9.01188
▁ছোৱালী	-9.01196
▁অনুবাদ	-9.01229
▁নং	-9.0125
ৎ	-9.01417
▁1	-9.01505
▁সমাধান	-9.01755
▁A	-9.02121
▁সুন্দৰ	-9.02197
▁হিমন্ত	-9.02268
▁নিৰ্বাচনত	-9.02418
হা	-9.02449
খনৰ	-9.02653
▁চোৱা	-9.02717
▁ঈশ্বৰে	-9.02722
▁একমাত্ৰ	-9.02746
▁S	-9.0282
▁খুব	-9.02947
▁একেবাৰে	-9.02957
▁কবিতা	-9.03154
▁পৰিব	-9.0349
পা	-9.036
▁/	-9.03844
জনৰ	-9.03851
▁মাহ	-9.03942
▁ইফালে	-9.04025
▁বজাত	-9.04111
বোৰে	-9.04167
▁সদৌ	-9.04205
▁কবি	-9.04313
▁প্ৰক্ৰিয়া	-9.04316
▁পাৰোঁ	-9.04338
▁নিৰ্বাচনৰ	-9.04386
▁মুখ	-9.04492
▁বিবাহ	-9.04533
▁ক্ৰমে	-9.04643
▁বিৰোধী	-9.04694
▁ভিতৰতে	-9.04694
প্ৰ	-9.047
▁তোমাক	-9.04733
▁বৰ্ণনা	-9.04739
▁দখল	-9.0475
▁বন্ধু	-9.04767
▁চিকিতসক	-9.04772
▁গ্ৰেপ্তাৰ	-9.04799
▁উদাহৰণ	-9.04825
▁বাধা	-9.0485
▁সম্পন্ন	-9.04957
▁চুক্তি	-9.05072
▁সম্পাদনা	-9.05213
▁পোৱাৰ	-9.05227
▁স্বাধীনতা	-9.05248
ল৷	-9.05427
▁অনুমোদন	-9.05477
৩	-9.05489
▁গতি	-9.05565
▁মাজে	-9.05601
▁অনুসাৰে	-9.05606
▁অহাৰ	-9.05648
▁যোগাযোগ	-9.05884
▁প্ৰতিষ্ঠান	-9.05915
C	-9.05958
▁২৩	-9.06066
▁ৰোগীৰ	-9.06118
▁বাক্য	-9.06208
▁বাট	-9.06362
▁ব্যক্তিৰ	-9.06397
▁দিশত	-9.06433
ৱা	-9.06461
▁ফটো	-9.06608
▁পৰিকল্পনা	-9.0683
▁মাছ	-9.06974
বাৰ	-9.07311
▁কালত	-9.07327
▁ভূমি	-9.07362
▁ঘটনাৰ	-9.07433
al	-9.07434
▁যিয়ে	-9.07436
▁গৰাকীয়ে	-9.07461
▁স্কুল	-9.07702
▁আহোম	-9.07806
▁কথাটো	-9.07919
▁পঢ়া	-9.07935
▁B	-9.07987
পুৰ	-9.081
▁শুনি	-9.08111
▁আগৰ	-9.08329
▁উপযুক্ত	-9.08459
▁স্পষ্ট	-9.08479
▁কেইবাটাও	-9.08483
▁শৰ্মাই	-9.08573
▁পাবলৈ	-9.08672
লোঁ	-9.08722
▁শ্ৰেণীৰ	-9.08772
▁জীয়াই	-9.08939
গৰাকী	-9.09112
▁উপলব্ধ	-9.0918
▁বোলে	-9.09356
▁নম্বৰ	-9.09362
▁পত্নী	-9.09369
▁দুজন	-9.09436
▁পৰিৱৰ্তন	-9.09454
▁পঢ়ি	-9.09455
▁শাসন	-9.09757
সহ	-9.09917
▁ডাক্তৰৰ	-9.09951
▁খণ্ড	-9.09976
▁এনেকুৱা	-9.10007
▁শিৱসাগৰ	-9.10079
▁এল	-9.10164
তম	-9.10245
▁উভতি	-9.10591
▁বিবেচনা	-9.10622
খ	-9.10707
▁সম্পৰ্কীয়	-9.10773
ৰাম	-9.10795
▁উ	-9.10916
▁আঞ্চলিক	-9.10926
▁ৰাজধানী	-9.10969
▁দু	-9.10972
লী	-9.11005
▁গুণ	-9.11013
▁দিল্লীৰ	-9.11024
▁অধ্যাপক	-9.11159
▁বিধানসভা	-9.11175
▁কিলোমিটাৰ	-9.11297
▁দৃষ্টি	-9.11324
▁দূৰ	-9.11501
er	-9.11773
▁মন্দিৰ	-9.11862
▁ব্যৱহৃত	-9.11883
▁কাল	-9.11919
▁সাংসদ	-9.12058
▁পৰিস্থিতি	-9.12074
▁পুৱা	-9.12139
▁বৰ্ষৰ	-9.12183
▁সক্ৰিয়	-9.12211
▁সহজ	-9.12255
▁কৰিবলগীয়া	-9.12271
▁লেখক	-9.12305
▁যোগান	-9.12327
▁বোলা	-9.12337
▁ৰাজ্যত	-9.12383
▁নদী	-9.12485
▁পানীৰ	-9.12551
▁পৰিমাণ	-9.12589
▁পদ্ধতি	-9.12628
▁চে	-9.12672
▁জনাই	-9.12699
▁সকলোকে	-9.12862
▁বিচাৰে	-9.12894
▁ভিত্তিত	-9.12929
▁সন্থাৰ	-9.13212
আই	-9.13414
▁ফেব্ৰুৱাৰী	-9.13477
b	-9.13676
গৰাকীয়ে	-9.13684
▁আহত	-9.13916
▁দহ	-9.13981
▁ইস্ৰায়েলৰ	-9.14157
▁কাপোৰ	-9.14201
▁অনুৰোধ	-9.14204
▁তেল	-9.14221
বোৰত	-9.14311
▁বিদ্যালয়ৰ	-9.14442
▁নিৰ্দিষ্ট	-9.14465
▁H	-9.14697
ভি	-9.14718
▁গুৰুতৰ	-9.14773
▁সমৰ্থন	-9.14885
▁দা	-9.15229
▁১০০	-9.15229
▁যিহোৱা	-9.15269
▁উদ্যোগ	-9.15279
▁নদীৰ	-9.15329
নো	-9.15488
▁Assamese	-9.15596
▁গোট	-9.1563
▁আচলতে	-9.15646
চে	-9.157
▁মানুহক	-9.15703
▁ধৰে	-9.15735
▁গুৰু	-9.15738
▁শইকীয়া	-9.15995
▁সহ	-9.16159
▁বিদেশী	-9.16191
▁উঠা	-9.16193
▁ভাই	-9.16203
▁আঁচনি	-9.16284
▁বিখ্যাত	-9.1631
▁ভ্ৰমণ	-9.16423
▁মানসিক	-9.16589
▁এফ	-9.16594
▁ভিন্ন	-9.16658
▁যোগেদি	-9.16702
▁অনলাইন	-9.16852
r	-9.16975
▁নিৰ্বাচনী	-9.17144
▁প্ৰশিক্ষণ	-9.17154
▁দান	-9.17334
▁উপৰি	-9.1735
▁প্ৰবন্ধ	-9.17372
▁মি	-9.17401
▁সহায়ত	-9.17519
▁চিত্ৰ	-9.17585
▁লিখি	-9.17699
▁পিছলৈ	-9.18024
▁নৱ	-9.18068
▁প্ৰাচীন	-9.18162
▁আন্তঃৰাষ্ট্ৰীয়	-9.182
▁ইউ	-9.18306
▁এণ্ড	-9.18334
▁News	-9.18366
▁সমস্যাৰ	-9.18455
▁যিবোৰ	-9.18539
▁পৰিচালক	-9.19018
▁ৰং	-9.19029
▁ফোন	-9.191
িয়া	-9.19297
▁ভি	-9.19304
▁একাংশ	-9.19314
▁দাঙি	-9.19493
▁ৰাজ্যখনৰ	-9.19588
▁মাধ্যমিক	-9.19613
▁গণিত	-9.19832
▁মহাবিদ্যালয়	-9.19904
▁সংৰক্ষণ	-9.19913
▁সংস্থা	-9.19931
যুক্ত	-9.19954
▁বাৰে	-9.19995
▁অতিৰিক্ত	-9.20077
▁কোনেও	-9.20165
▁গৰু	-9.20223
▁নিয়ন্ত্ৰণ	-9.20287
▁তালিকা	-9.2042
▁দাখিল	-9.20479
▁অভিনেতা	-9.20566
▁ব্যাপক	-9.20583
▁অনুচিত	-9.2069
▁প্ৰস্তাৱ	-9.20765
▁সিং	-9.20881
▁বেছিভাগ	-9.21176
▁ধ্বংস	-9.21266
▁আৱশ্যক	-9.21322
▁ইণ্ডিয়া	-9.21423
▁C	-9.21579
▁নৱেম্বৰ	-9.21619
▁বিজ্ঞানৰ	-9.21628
সমূহত	-9.21632
▁বড়ো	-9.21706
▁নকৰিব	-9.21798
নাথ	-9.21818
▁জীৱনত	-9.21904
▁কৰো	-9.22005
▁চা	-9.22082
▁প্ৰাৰ্থী	-9.22106
▁যুৱক	-9.22253
▁থাকিবলৈ	-9.22295
18	-9.22355
▁পূৰ্ণ	-9.22356
▁দুখ	-9.22387
▁!	-9.22393
▁শিক্ষাৰ	-9.22428
▁কঠোৰ	-9.2259
p	-9.22596
▁২৬	-9.22711
▁আচৰিত	-9.22754
▁আছে৷	-9.22848
▁বিশাল	-9.22851
।[2]	-9.22915
▁উলিয়াই	-9.22966
▁সন্ধান	-9.23022
▁বিধান	-9.23098
▁প্ৰদেশ	-9.23333
▁নিচিনা	-9.23398
▁কৰিছে৷	-9.23398
▁কৰিলোঁ	-9.23494
ান	-9.23521
▁অৰ্থনৈতিক	-9.23528
t	-9.23555
গা	-9.2364
▁জীৱ	-9.23642
গৈ	-9.23644
▁সেনা	-9.23739
▁নিজেই	-9.23796
▁গাঁৱত	-9.23832
▁অৰ্জন	-9.23895
▁প্ৰাপ্ত	-9.24012
▁যিমান	-9.24015
▁গান	-9.24148
ভিড	-9.24186
▁ধৰ্মীয়	-9.24227
▁পদত	-9.24251
।"	-9.24318
▁শেষত	-9.24337
▁মাটিত	-9.24343
▁প্র	-9.24356
▁পাৰ্শ্চক্ৰিয়া	-9.24366
৪	-9.24367
▁উত্থাপন	-9.24475
▁বিমান	-9.24486
নাৰ	-9.24493
আমি	-9.24521
▁উপায়	-9.24764
▁প্ৰাৰ্থনা	-9.24778
▁তথাপি	-9.2481
o	-9.24822
▁কৰ্মী	-9.24881
▁পূব	-9.24881
▁মাজেৰে	-9.24888
▁২৮	-9.25006
▁গভীৰ	-9.25011
ঙ	-9.25084
▁নাথ	-9.2516
▁ভাষণ	-9.25177
▁আন্দোলনৰ	-9.25185
▁স্নাতক	-9.25255
▁ঐতিহাসিক	-9.25342
▁মাত	-9.25572
▁ব্ৰিটিছ	-9.25667
▁আগবঢ়াই	-9.25818
▁বিষ	-9.25888
▁দীঘল	-9.25889
▁সোমাই	-9.2594
▁লোকসকলক	-9.26048
▁আমেৰিকা	-9.26089
▁শতিকাৰ	-9.26144
i	-9.26234
▁ফুল	-9.26242
পৰা	-9.26287
▁আজ্ঞা	-9.26318
▁গণ্য	-9.26387
▁প্ৰশংসা	-9.26507
▁কৰিছো	-9.26693
▁গৌৰৱ	-9.26777
▁সপোন	-9.26877
▁সিহঁতৰ	-9.26922
▁বাদ	-9.26934
▁নেতৃত্বত	-9.27029
▁বয়স	-9.27048
▁আঁচনিৰ	-9.27106
▁পৰীক্ষাত	-9.27343
▁সাত	-9.27529
▁সন্মুখত	-9.27537
▁in	-9.27562
▁সংগঠন	-9.27619
▁গাড়ী	-9.27629
▁বাধ্য	-9.27704
▁দেৱী	-9.27739
▁মনৰ	-9.278
▁বিচৰা	-9.27811
▁সমালোচনা	-9.27888
▁বিচাৰ	-9.27907
▁বিভাগে	-9.27919
হীন	-9.27955
▁উত্তম	-9.27963
▁গাঁও	-9.28009
▁ভোট	-9.2813
▁নতুনকৈ	-9.28148
▁কঢ়িয়াই	-9.28185
বোৰক	-9.28443
▁পেলাব	-9.28878
▁২৭	-9.28889
▁সীমা	-9.28905
▁চৰিত্ৰ	-9.28919
▁উপলক্ষে	-9.28921
▁তথাপিও	-9.28949
▁জাতিৰ	-9.28999
▁নাৰী	-9.29135
▁আন্দোলন	-9.29146
▁ভাগত	-9.29212
মুখীন	-9.29311
ভা	-9.29413
▁সন্দেহ	-9.29445
মোৰ	-9.29879
▁হাঁহি	-9.29887
▁পৰিলক্ষিত	-9.30066
▁শেহতীয়াকৈ	-9.30279
▁শীৰ্ষক	-9.30286
র্	-9.3031
▁পদাৰ্থ	-9.30349
জে	-9.30449
▁সৰ্বানন্দ	-9.3047
গত	-9.3048
▁ডিজিটেল	-9.30503
চন	-9.30519
▁ৰজাৰ	-9.30626
▁ৰৈ	-9.30634
▁নিযুক্তি	-9.30659
▁স্বীকৃতি	-9.30719
▁নিৰ্মিত	-9.30756
▁নথকা	-9.30809
▁নাগৰিকত্ব	-9.30839
▁অনুগ্ৰহ	-9.30856
▁মিছা	-9.3089
▁দৰ্শন	-9.31115
▁স্ব	-9.31126
▁কেইটামান	-9.31356
▁(_	-9.31392
▁জিলাত	-9.31634
▁বান্ধি	-9.31699
▁বৈজ্ঞানিক	-9.31712
▁মাটিৰ	-9.31714
টোক	-9.31756
▁থোৱা	-9.31816
▁বিতৰণ	-9.31825
T	-9.31875
▁তাৰে	-9.32006
▁ব্যৱসায়	-9.32037
▁ভৰ্তি	-9.32039
▁অৱশেষত	-9.32044
▁মাক	-9.32298
▁চাব	-9.32669
▁বৈঠকত	-9.32746
খনত	-9.32814
3	-9.32821
▁মহান	-9.32878
▁প্ৰকল্প	-9.32895
▁নগৰৰ	-9.32949
▁প্ৰচেষ্টা	-9.32992
▁সম	-9.33027
▁সহযোগিতা	-9.33051
ষ	-9.33141
""	-9.332
▁কঠিন	-9.33224
▁পৰ্যায়ৰ	-9.33383
▁ভাবি	-9.33429
▁কামৰূপ	-9.33444
▁হিন্দী	-9.33472
▁সমান	-9.33611
▁পৰিচিত	-9.33666
▁পৰীক্ষাৰ	-9.33698
▁প্ৰচলিত	-9.33753
▁মূৰ	-9.33819
▁উপন্যাস	-9.34077
বিলাক	-9.34123
▁কাটি	-9.34179
▁ফাইল	-9.34434
▁যাক	-9.34438
পূৰ্ণ	-9.34446
▁তাইক	-9.34486
▁সংশোধন	-9.34524
▁কাষত	-9.34532
▁ডিব্ৰুগড়	-9.34616
?”	-9.34644
▁নগাঁও	-9.34649
ৌ	-9.34705
▁জ্ঞাপন	-9.34712
▁ইয়াৰে	-9.348
▁গঢ়	-9.3482
▁অক্টোবৰ	-9.34853
▁২০২০	-9.3489
▁...	-9.34921
▁চহৰ	-9.34922
▁প্ৰকাশন	-9.34934
▁চলোৱা	-9.34982
▁কোনে	-9.35006
▁৩১	-9.35022
্যা	-9.35025
▁খাবলৈ	-9.35031
▁প্ৰতিযোগিতা	-9.35076
ময়	-9.35123
▁বাহিৰে	-9.35125
▁তদন্ত	-9.35173
▁দিল্লীত	-9.35197
▁বজাই	-9.35205
▁অফ	-9.35237
▁আমেৰিকাৰ	-9.35324
▁কলেজ	-9.35324
▁জ্যেষ্ঠ	-9.35346
▁জমা	-9.3539
▁ভাঙি	-9.35391
▁উঠিছে	-9.35434
▁ক্ৰিকেট	-9.35446
▁হাজৰিকা	-9.35545
▁চলাব	-9.35646
▁পৰিবৰ্তন	-9.35678
0	-9.35686
▁একোটা	-9.35874
▁দিনে	-9.35892
▁দ্বাৰাই	-9.35946
▁পূৰণ	-9.36017
▁বছৰত	-9.36022
▁দেৱ	-9.36071
▁কন্যা	-9.36083
▁বৈ	-9.36083
▁গঠিত	-9.3612
▁কামৰ	-9.36165
▁পাছতে	-9.36248
▁নিৰ্ধাৰণ	-9.36291
▁গম	-9.36338
▁আগবাঢ়ি	-9.36416
▁ভূ	-9.36467
▁সম্পদ	-9.36542
▁বল	-9.36646
▁৪০	-9.36674
▁দিয়ক	-9.36675
▁মৌলিক	-9.36691
▁উৎস	-9.36849
▁ব্যাখ্যা	-9.36862
▁চহৰৰ	-9.37026
▁গান্ধী	-9.37124
▁বাৰু	-9.37167
▁এতিয়ালৈকে	-9.37197
▁পাপ	-9.37338
▁দৃশ্য	-9.37358
▁বেংক	-9.37374
▁নিয়মীয়া	-9.37459
▁M	-9.37488
▁ধৰ্মৰ	-9.37499
▁ড০	-9.37541
▁কম্পিউটাৰ	-9.37553
▁প্ৰতিক্ৰিয়া	-9.37554
_	-9.37578
▁শ্ৰমিক	-9.37637
▁২০১৬	-9.37643
▁প্ৰতিৰোধ	-9.37687
▁স্বামী	-9.37903
▁প্ৰতিশ্ৰুতি	-9.37969
▁সংস্কৃতি	-9.38012
▁সন্মুখীন	-9.38021
▁জল	-9.38021
▁পৰিস্থিতিৰ	-9.38086
m	-9.38202
▁মনে	-9.38256
▁সৰ্বাধিক	-9.38271
f	-9.38384
▁সেইদৰে	-9.38435
▁মহাবিদ্যালয়ৰ	-9.3845
▁উদযাপন	-9.38453
▁সমিতি	-9.38561
▁ধন্যবাদ	-9.38582
▁অনু	-9.38599
▁শুনা	-9.38622
▁পদক	-9.38838
▁যৌন	-9.38854
▁থাকিল	-9.39059
R	-9.39168
D	-9.3923
ীয়ে	-9.39329
▁আঁতৰি	-9.39345
▁কল	-9.39373
▁ইছলাম	-9.39388
▁কোনোবা	-9.39468
▁ডঃ	-9.39592
▁বিভাগ	-9.39597
▁ব্যৰ্থ	-9.39801
▁F	-9.39853
▁বৰ্তমানৰ	-9.39905
ed	-9.401
িকা	-9.40105
▁সঞ্চালক	-9.4018
▁G	-9.40203
▁প্ৰাকৃতিক	-9.40215
▁ব্যক্তিয়ে	-9.40228
▁উঠে	-9.4042
▁আটক	-9.40446
▁ভাইৰাছৰ	-9.40612
▁মাৰ্চ	-9.40628
▁গড়	-9.40734
কৰণ	-9.40787
ফা	-9.40835
▁নকৰিলে	-9.40882
B	-9.41037
▁+	-9.41053
▁ফলাফল	-9.41066
▁দত্ত	-9.41124
▁মিটাৰ	-9.41242
▁বে	-9.41251
▁চিনাক্ত	-9.41273
▁এইখন	-9.41351
▁প্ৰদেশৰ	-9.41402
▁তোলা	-9.41571
▁তলৰ	-9.41624
▁নিৰ্মাণৰ	-9.41672
▁ক্ৰীড়া	-9.41833
ing	-9.41954
▁the	-9.41956
▁প্ৰেছ	-9.41973
▁উপায়ুক্ত	-9.42045
▁দুয়োটা	-9.42197
▁মধ্য	-9.42288
▁নামি	-9.42336
▁থ	-9.42396
▁প্ৰত্যেক	-9.4241
।[3]	-9.42511
েশ্বৰ	-9.4253
▁ভাৱ	-9.42738
▁হৃদয়	-9.42838
▁দৰেই	-9.42899
▁ক্ষুদ্ৰ	-9.42955
▁একেই	-9.42977
▁কষ্ট	-9.43005
▁সুস্থ	-9.4304
▁সাহিত্যিক	-9.43074
ৰাজ	-9.43078
▁সকলোবোৰ	-9.43099
▁পৰিমাণে	-9.43107
▁পুৰস্কাৰ	-9.43123
▁অবৈধ	-9.43232
ছি	-9.43295
▁Rs	-9.43358
▁আদৰ্শ	-9.43377
▁চাবলৈ	-9.43508
▁দৈনিক	-9.43509
▁সময়ছোৱাত	-9.43525
▁ব্যস্ত	-9.43582
▁সাজু	-9.43626
▁২০১৯	-9.43637
I	-9.43666
x	-9.43687
▁বাবেও	-9.43716
▁নোৱাৰা	-9.43786
▁গছৰ	-9.43815
▁ৰঙা	-9.4388
▁পাত	-9.44042
▁চৰ্চা	-9.44046
▁সুখ	-9.44098
▁ভ	-9.44156
৬	-9.44176
▁ৰাখে	-9.44182
ণা	-9.44219
▁জাৰি	-9.44281
▁লগাই	-9.44309
▁গগৈয়ে	-9.44431
▁হোৱাত	-9.44466
g	-9.4464
▁D	-9.44694
▁জনে	-9.44782
▁দিশ	-9.44786
▁কোনোৱে	-9.44818
▁ৰাষ্ট্ৰ	-9.44854
ণ্ড	-9.44856
▁পেলাই	-9.44941
▁যন্ত্ৰ	-9.45068
▁গৰম	-9.45126
▁সন্ধিয়া	-9.45167
▁দিম	-9.45169
চৰ	-9.4519
▁ৰাখিছে	-9.45202
▁ফালৰ	-9.45348
▁পাঠ	-9.45475
▁জটিল	-9.45515
▁গল্প	-9.4554
▁দ্য	-9.45583
▁বিজয়	-9.45708
▁নিজা	-9.45722
▁ৰখাৰ	-9.45752
▁জানে	-9.45755
▁ডা	-9.45805
▁পূৰ্বৰ	-9.45939
▁ঋণ	-9.45956
▁নাইবা	-9.46055
▁পৰ্যায়ত	-9.46146
5	-9.46251
▁আগ	-9.46287
▁শোক	-9.46353
▁সিহঁতে	-9.46401
▁সাব্যস্ত	-9.46457
▁সহযোগত	-9.46462
▁আগন্তুক	-9.46469
▁পে	-9.46581
▁নিহত	-9.46581
▁মহিলাই	-9.46605
▁পতাকা	-9.46637
▁অন্ত	-9.46846
▁গোচৰ	-9.46946
▁কৰ্মচাৰী	-9.47173
▁পৰিণত	-9.47315
▁নাগৰিক	-9.47342
▁মুখত	-9.47405
▁Price	-9.4741
▁উঠিল	-9.47719
▁চতুৰ্থ	-9.47844
▁সমাজত	-9.47926
▁বধ	-9.47991
▁সম্প্ৰদায়ৰ	-9.48013
▁ছবিৰ	-9.4805
le	-9.48086
▁অনুমান	-9.48128
▁শব্দৰ	-9.48165
▁ভাইৰেল	-9.48305
৭	-9.48344
▁আইনৰ	-9.48425
▁২০১৭	-9.48457
▁সংশোধনী	-9.48508
▁ৱা	-9.48577
▁খণ্ডৰ	-9.48734
▁প্ৰভু	-9.48742
▁ঘটে	-9.48819
▁বৰুৱাই	-9.48832
▁নিশ্চয়	-9.48947
▁২০১১	-9.49044
▁লব	-9.49053
▁যিসকলে	-9.49098
▁ক্ষতি	-9.49129
▁উদ্বোধন	-9.49159
▁আহাৰ	-9.49174
▁ঔষধটো	-9.49244
▁বৰপেটা	-9.49276
▁সেইবাবে	-9.49292
▁চৰাই	-9.49307
▁আধ্যাত্মিক	-9.49363
▁প্ৰকাৰৰ	-9.49363
▁সামৰি	-9.49371
▁চলা	-9.49401
▁উপহাৰ	-9.49424
▁২০১৮	-9.49439
E	-9.49646
▁খেলুৱৈ	-9.49707
▁লওক	-9.49775
▁নাই৷	-9.49808
▁ৰাজনীতি	-9.49853
▁বিষয়ৰ	-9.49871
▁পিছতো	-9.49876
20	-9.4988
▁ৰাখিবলৈ	-9.49885
▁ঔষধ	-9.4997
▁চাওক	-9.50067
▁জ্যোতি	-9.50209
▁কলেজৰ	-9.50263
▁শস্য	-9.50451
▁খোজ	-9.50453
ঙ্গ	-9.50457
▁বৰুৱাৰ	-9.50463
▁আম	-9.50501
▁উন্নয়নৰ	-9.50585
৩০	-9.50589
৮	-9.50598
▁পৰিচালিত	-9.5061
▁৬০	-9.50755
▁অপৰাধ	-9.50798
▁সচেতন	-9.50819
▁মাধ্যমৰ	-9.50828
▁যুঁজ	-9.50875
ূ	-9.50898
▁উচ্চতৰ	-9.50917
িৰ	-9.51033
▁বন্দী	-9.51055
▁চীনৰ	-9.51093
▁ৰজাই	-9.51098
▁ঠাইৰ	-9.51129
ডাল	-9.51131
▁নাটক	-9.51153
l	-9.51183
▁ভেকচিন	-9.51223
▁ক্ষেত্ৰ	-9.51379
▁২০১৪	-9.51426
▁নিয়া	-9.51433
▁চাৰিটা	-9.51458
▁প্রতি	-9.51587
▁পদৰ	-9.5172
▁নাথাকে	-9.51786
ৈ	-9.51847
▁ছে	-9.51906
▁অৱস্থান	-9.51963
▁সচিব	-9.51997
▁সজাগতা	-9.5209
▁সৰ্বোচ্চ	-9.52111
▁দেহত	-9.52184
▁ধৰিছে	-9.52199
▁নিউজ	-9.52247
▁পথত	-9.52353
00	-9.52367
▁পা	-9.52465
ar	-9.52482
▁বয়সত	-9.52504
▁বাহিৰত	-9.52544
▁নকৰা	-9.52587
▁কোনোবাই	-9.52602
▁বহন	-9.52742
4	-9.52842
▁সোণৰ	-9.52855
▁স্বাভাৱিক	-9.52869
▁বলি	-9.52917
▁আসন	-9.52962
২০	-9.52977
▁খাব	-9.53056
এছ	-9.53146
▁নিৰাপত্তা	-9.53184
▁স্মৃতি	-9.53216
▁আঘাত	-9.53227
▁ৰি	-9.53231
▁বিষয়টো	-9.53336
▁a	-9.53343
▁চিহ্নিত	-9.53355
▁ভাৰতে	-9.53462
▁চৰকাৰক	-9.53564
▁মৃত	-9.53638
▁২৯	-9.53696
▁চু	-9.53713
▁জুন	-9.53739
▁উন্মোচন	-9.54028
পাৰ	-9.54064
▁দিনটো	-9.54179
▁গেছ	-9.54215
সা	-9.54221
▁আজিও	-9.5424
মন	-9.54251
▁বছৰে	-9.54339
কু	-9.54353
▁মৰা	-9.54399
▁সাহিত্যৰ	-9.54407
▁অভিনেত্ৰী	-9.54433
▁থাকিলে	-9.54445
এম	-9.54503
▁অভিজ্ঞতা	-9.54509
▁ব্যয়	-9.54604
▁প্ৰিয়	-9.54678
▁ডাঃ	-9.54714
▁তেজ	-9.54749
▁পিছৰ	-9.54782
▁বৰষুণ	-9.548
▁অভাৱ	-9.54808
▁ফুট	-9.54836
▁উদ্ভিদ	-9.54856
▁শুদ্ধ	-9.54891
▁মিলি	-9.54897
▁কিদৰে	-9.55023
▁যীচুৰ	-9.55043
▁প্ৰতিবেদন	-9.55044
on	-9.55058
▁আগষ্ট	-9.55067
▁নোৱাৰিলে	-9.55079
▁শ্ৰেণী	-9.5527
▁অন্তত	-9.55277
▁বাঢ়ি	-9.55305
▁দাম	-9.55383
▁পৃথিৱীত	-9.55395
▁নু	-9.55432
▁আহৰণ	-9.55456
▁কৃষ্ণ	-9.55541
▁লেখা	-9.55557
▁গাত	-9.55627
▁গোস্বামী	-9.55633
▁আৰ্থিক	-9.55638
▁উপাৰ্জন	-9.55654
▁শংকৰদেৱ	-9.5573
▁সুৰক্ষিত	-9.55917
▁অৰ্থে	-9.55945
▁আচৰণ	-9.55986
কেইটা	-9.56108
▁চিকিৎসক	-9.56173
▁তাকে	-9.56191
▁বগা	-9.56286
▁শাখা	-9.56344
▁আছিল৷	-9.56357
▁ভালদৰে	-9.56429
▁মোদীৰ	-9.56464
▁প্ৰতিবাদী	-9.56652
▁কোম্পানী	-9.56697
▁দলটোৱে	-9.56711
▁লাগিছিল	-9.56774
en	-9.56863
▁এজনে	-9.56897
▁গুৱাহাটীত	-9.57014
▁বিত্তীয়	-9.57042
▁লোকসভা	-9.57055
19	-9.57104
োঁ	-9.57135
▁ওচৰ	-9.57148
আৰ	-9.57186
h	-9.57189
▁জুই	-9.57243
বাদী	-9.57252
▁নিৰ্ণয়	-9.57276
▁স্বীকাৰ	-9.57285
ম্	-9.57355
পে	-9.57396
▁বিজয়ী	-9.57427
▁বিকাশৰ	-9.57455
▁কমি	-9.57456
▁ভাত	-9.57459
▁পাওঁ	-9.57532
▁Assam	-9.57537
▁শক্তিৰ	-9.57592
▁কৰোৱা	-9.57638
▁বিকল্প	-9.57756
▁আল	-9.57849
▁দাসে	-9.57887
▁তোলে	-9.57901
▁মাৰ	-9.57934
F	-9.57969
▁অনুযায়ী	-9.58006
▁আন্তৰ্জাতিক	-9.58024
▁পোহৰ	-9.58036
▁হলে	-9.58063
10	-9.5807
▁গো	-9.58118
▁কৰিছোঁ	-9.58156
▁বৰাই	-9.58177
ব৷	-9.58333
▁অৰুণাচল	-9.58416
▁ভালকৈ	-9.58513
▁এজনী	-9.5856
েল	-9.58574
▁অতিথি	-9.58715
▁মৰম	-9.58819
▁মুছলমান	-9.58875
01	-9.58912
▁মতা	-9.58937
k	-9.59051
ত্ব	-9.59077
▁কাৰ	-9.592
▁বিজেপিয়ে	-9.59285
▁চিনেমা	-9.59323
▁নিৰ্ভৰ	-9.59354
▁ডে	-9.59459
ধ	-9.59483
▁পথাৰত	-9.59494
▁অপেক্ষা	-9.59513
▁বিজ্ঞানী	-9.59533
▁নানা	-9.59673
▁ক্লিক	-9.59677
▁ব্যক্ত	-9.59688
▁বিদ্যুৎ	-9.59804
▁আগুৱাই	-9.59845
▁প্ৰযুক্তি	-9.59855
▁জগতৰ	-9.59892
▁ছয়	-9.5999
পত্ৰ	-9.59992
▁and	-9.60058
▁শিৱ	-9.60061
H	-9.60115
▁দুৰ্নীতিৰ	-9.60192
▁ছবিখন	-9.6025
▁শব্দটো	-9.60287
ুৱা	-9.60306
▁উত্তীৰ্ণ	-9.6031
খা	-9.60461
▁ৰাইজক	-9.60559
▁বজাৰত	-9.60617
▁শুভ	-9.60655
ছো	-9.60656
▁মেৰ	-9.60681
▁ৰূপায়ণ	-9.60703
▁লিখিছিল	-9.60716
▁আৱিষ্কাৰ	-9.60753
▁ধৰিব	-9.60785
▁বাতিল	-9.60996
▁সোণ	-9.61056
▁লগীয়া	-9.61094
লাৰ	-9.61302
▁গৰ্ভৱতী	-9.61327
ধৰ	-9.61328
▁টান	-9.61402
▁কাৰ্যকৰী	-9.61431
▁শৰীৰৰ	-9.6146
▁তালিকাত	-9.61489
▁সাহায্য	-9.61559
তকৈও	-9.61581
োৱা	-9.61661
▁মাতি	-9.61765
▁পান	-9.61838
▁বহুতে	-9.61861
য	-9.61863
▁নোৱাৰিব	-9.6188
▁টেষ্ট	-9.61918
▁মোদী	-9.62024
▁সমষ্টি	-9.62027
▁বিদ্যালয়ত	-9.62035
▁ওপৰৰ	-9.62039
▁ন্যায়	-9.62086
▁ভাইৰাছ	-9.62099
ইন	-9.62136
লু	-9.6219
▁=	-9.62222
▁ডিচেম্বৰ	-9.62225
▁পৰ	-9.6227
▁সম্পৰ্কত	-9.62273
▁মহাকাশ	-9.62303
▁আগেয়ে	-9.62337
▁সফলতা	-9.62369
▁ইন	-9.62392
▁সুৰ	-9.62442
্ব	-9.62444
ৰাই	-9.62499
▁চিৰ	-9.62562
▁খৰচ	-9.62634
ৰ্ট	-9.6282
▁ধৰণে	-9.62838
▁আকৰ্ষণ	-9.62852
▁২০১২	-9.62853
▁প্ৰাণী	-9.6298
▁ওখ	-9.63059
▁সংগ্ৰাম	-9.63078
▁বাহন	-9.63147
▁ঘটা	-9.6335
সমূহক	-9.63426
▁যুক্তি	-9.63437
▁শীৰ্ষ	-9.63486
▁এচ	-9.63592
▁নো	-9.63598
▁to	-9.63627
6	-9.6364
▁হাতী	-9.63716
▁আগে	-9.63824
▁কল্যাণ	-9.63848
▁শিল	-9.63893
▁ছাৰ	-9.63915
▁লোকসকল	-9.64095
▁ব্যৱস্থাৰ	-9.64152
বাদ	-9.64158
15	-9.64252
▁আলি	-9.64274
▁জুলাই	-9.64293
▁সূত্ৰ	-9.64294
▁বাস্তৱ	-9.64336
▁সংবিধান	-9.64464
▁পূৰ্ব	-9.64473
▁অনুষ্ঠানৰ	-9.64476
▁বৰ্গ	-9.64555
▁লক্ষণ	-9.64598
▁কথাও	-9.646
▁আনে	-9.64649
▁সাৰ	-9.64649
▁বিভাগত	-9.64931
▁তেনেকুৱা	-9.6495
▁দেখুৱাই	-9.64968
▁বিশ্লেষণ	-9.65004
▁আয়োজিত	-9.65008
▁অৱদান	-9.65056
▁গান্ধীয়ে	-9.65067
▁দৰৱৰ	-9.65067
▁পাছ	-9.65072
▁চক্ৰ	-9.65112
দাৰ	-9.65164
▁বঙালী	-9.65179
▁বাৰ্ষিক	-9.65315
or	-9.65362
▁কৰোঁতে	-9.65486
▁স্বাধীন	-9.65494
▁এডাল	-9.65563
▁জনক	-9.65607
▁T	-9.65663
শীল	-9.65699
▁মাধ্যমত	-9.65721
▁পিতৃৰ	-9.65757
▁আনিব	-9.65768
▁গাওঁ	-9.65773
▁যেনেকৈ	-9.659
▁তেনেহ	-9.65909
▁সংযুক্ত	-9.65926
▁আত্ম	-9.65975
▁এপ্ৰিল	-9.66066
▁সংস্কৃতিৰ	-9.66086
▁প্ৰকৃততে	-9.66127
▁কাৰ্বি	-9.66142
▁লে	-9.66277
▁কথাবোৰ	-9.66287
স্থ	-9.66421
▁আধা	-9.66583
▁নেতৃত্ব	-9.66635
▁খ্ৰীষ্টান	-9.66658
▁ক্ষমা	-9.66659
▁বাৰ	-9.66677
▁হোৱাটো	-9.6669
▁পৰিবেশ	-9.66708
ভাৰ	-9.66709
▁কলিতা	-9.66711
▁জনসাধাৰণৰ	-9.66907
{	-9.66969
▁বিল	-9.67017
▁তেনেকৈ	-9.67092
▁ৰায়	-9.67153
11	-9.67169
▁খালী	-9.67206
▁চীন	-9.67208
▁ক্ৰয়	-9.67227
▁পৰিৱৰ্তে	-9.67234
▁দৃঢ়	-9.67249
▁লা	-9.67294
▁উচ্চতম	-9.67373
▁সংৰক্ষিত	-9.67426
▁প্ৰয়াস	-9.67484
১৮	-9.67506
▁খনৰ	-9.67515
▁২০১৫	-9.67529
▁লাগিল	-9.67531
▁ভিত্তি	-9.67581
▁দেখিলে	-9.6762
03	-9.67624
▁বৈশিষ্ট্য	-9.67703
▁ৰোধ	-9.67731
L	-9.67816
▁সঁচা	-9.67892
▁ছবিখনৰ	-9.67905
us	-9.67984
02	-9.6806
▁মিল	-9.68081
▁অত্যন্ত	-9.68155
ৰূপ	-9.68156
▁কিছুদিন	-9.68185
▁বৰ্ষত	-9.682
▁ৰেল	-9.68202
▁K	-9.68225
12	-9.68236
▁চৌধুৰী	-9.68293
▁মিডিয়াত	-9.68392
▁বাহিৰ	-9.68393
▁ফুকন	-9.68429
▁এনেধৰণৰ	-9.68436
▁এতিয়ালৈ	-9.68445
▁অব	-9.68448
▁অংগ	-9.68464
▁প্ৰত্যক্ষ	-9.6855
▁ফুটবল	-9.68551
M	-9.68608
▁যোগে	-9.68681
▁কেন্দ্ৰৰ	-9.68721
▁বসবাস	-9.68746
▁নামে	-9.68805
▁গগৈৰ	-9.68966
▁একেটা	-9.69036
▁ভাব	-9.69041
▁শাস্তি	-9.69093
।[4]	-9.69261
চ্	-9.6927
▁প্ৰথমবাৰৰ	-9.69373
বেল	-9.69438
▁মূৰত	-9.69442
▁মু	-9.69487
▁নলবাৰী	-9.6954
▁তুলনাত	-9.69555
ছৰ	-9.69566
▁ধান	-9.69584
▁সদৰ	-9.69621
▁বুক	-9.69631
▁তেনেহলে	-9.69677
▁সংস্থাৰ	-9.6974
▁খোলা	-9.69742
▁সংস্কৰণ	-9.69764
▁কাৰ্ড	-9.69847
▁চাউল	-9.69862
▁আগবঢ়ায়	-9.69886
▁তোমালোকক	-9.69897
▁প্ৰতিজন	-9.69983
▁পুনৰাই	-9.70151
▁ছা	-9.7017
▁স্তন্যপায়ী	-9.70195
▁সংস্কৃত	-9.70234
▁অঞ্চলটোৰ	-9.70313
▁দেখুওৱা	-9.70367
▁Home	-9.70375
▁প্ৰকল্পৰ	-9.70425
িন	-9.70456
▁শৰীৰ	-9.70467
▁কৌশল	-9.70469
▁ট	-9.7047
re	-9.70494
▁জনসংখ্যা	-9.70566
▁""	-9.70815
▁বিষয়ক	-9.70825
14	-9.70828
▁মাধ্যম	-9.7084
▁আছোঁ	-9.70859
▁পৰম্পৰাগত	-9.70978
▁সংখ্যাৰ	-9.71017
▁প্ৰসাদ	-9.71062
N	-9.71116
▁দিৱসৰ	-9.71134
▁গণিতৰ	-9.71186
▁শাৰীৰিক	-9.71215
▁ভয়ংকৰ	-9.71235
▁শিল্প	-9.71261
▁টু	-9.71267
▁বাহিনীৰ	-9.71343
▁সাধন	-9.71384
▁পৰাকৈ	-9.71386
▁শপত	-9.71407
▁অৱগত	-9.71429
32	-9.71496
▁গুচি	-9.71525
▁অনুসন্ধান	-9.71649
▁নষ্ট	-9.71678
▁পাঁচনি	-9.717
▁পঞ্চম	-9.71854
▁খুলি	-9.71886
চু	-9.71947
▁স্বাক্ষৰ	-9.71998
▁সংক্ৰমণ	-9.72029
▁উন্নতি	-9.72178
▁সামগ্ৰীৰ	-9.72211
▁আৰোপ	-9.72367
▁চিকিৎসাৰ	-9.7238
▁মন্দিৰৰ	-9.72385
▁থানাৰ	-9.72399
▁অধিকাংশ	-9.724
আমাৰ	-9.72449
▁২০১৩	-9.7245
▁ভবা	-9.72477
▁চীনা	-9.72503
29	-9.72524
▁সৰ্ব	-9.72639
ra	-9.72709
G	-9.72796
▁মেলা	-9.72827
▁শৰ্মাৰ	-9.72875
▁ঐতিহ্য	-9.72907
মু	-9.72913
05	-9.72914
বিধ	-9.72934
▁জনৰ	-9.72943
কেই	-9.73049
▁প্ৰায়ে	-9.73055
▁পেলোৱা	-9.73059
▁ঘৰুৱা	-9.73187
▁সন্তানৰ	-9.73247
22	-9.73323
ুৰ	-9.7334
▁বৃদ্ধিৰ	-9.73432
7	-9.73433
▁শাক	-9.7344
▁গণনা	-9.73561
04	-9.73571
▁গু	-9.73605
▁ব্ৰহ্মপুত্ৰ	-9.73615
▁পৰিমাণৰ	-9.73669
▁অকল	-9.73709
▁তাৰপিছত	-9.73713
▁পাৰ্থক্য	-9.73779
▁আয়	-9.73793
95	-9.73808
ীত	-9.73845
▁দে	-9.73856
টে	-9.73873
▁পাম	-9.73896
তুমি	-9.73958
▁ৰা	-9.73984
▁গান্ধীৰ	-9.7399
▁প্ৰতীক	-9.74028
▁কেইটা	-9.74034
ur	-9.74043
▁কো	-9.7423
▁জিলাখনৰ	-9.74265
16	-9.74307
ৰু	-9.74391
▁কাঢ়ি	-9.74398
▁হাতৰ	-9.74458
8	-9.74461
▁উলিওৱা	-9.74492
নাম	-9.74504
▁ছি	-9.74509
▁পুথি	-9.74635
দৰ	-9.7464
▁তুলিছে	-9.74649
▁স্থায়ী	-9.74662
দু	-9.74709
17	-9.74725
▁সাক্ষাৎ	-9.74755
▁L	-9.7476
▁বাণিজ্য	-9.74813
▁পাত্ৰ	-9.74825
▁হাতে	-9.74915
▁পথৰ	-9.74931
▁পানীত	-9.75014
▁ধুবুৰী	-9.75031
মতে	-9.75045
▁সমূহত	-9.75051
▁গল	-9.75055
06	-9.75055
▁সাহস	-9.75063
▁ৰস	-9.75063
▁মৃতদেহ	-9.75075
▁কলে	-9.75128
▁চন	-9.75141
▁স্থিতি	-9.75141
ড়	-9.75259
▁সামান্য	-9.75287
▁দেওবাৰে	-9.75347
13	-9.75373
তাই	-9.75425
▁পঢ়িবলৈ	-9.75505
▁সেৱাৰ	-9.75528
60	-9.75572
▁কাঠ	-9.75575
▁জনতা	-9.75725
▁বীজ	-9.75769
▁প্ৰতিনিধি	-9.7579
▁দয়া	-9.75892
▁দলটোৰ	-9.759
▁ৰঙৰ	-9.76019
93	-9.76157
▁সোমবাৰে	-9.76167
চাৰ	-9.76172
▁কল্পনা	-9.76186
▁কাৰ্যালয়	-9.7622
▁ওচৰৰ	-9.7623
▁যুদ্ধৰ	-9.76241
▁হৈছিল৷	-9.76246
▁দুৱাৰ	-9.76366
39	-9.76391
জান	-9.76391
লেই	-9.76401
▁নামটো	-9.76414
▁প্ৰথমটো	-9.76426
ছন	-9.76431
▁বাইবেল	-9.76554
50	-9.7659
▁নিম্ন	-9.76598
▁তিনিজন	-9.76603
▁মঞ্চ	-9.76678
▁সোনকালে	-9.76751
▁বাহিনী	-9.76756
▁প্ৰথমখন	-9.77097
▁E	-9.77125
▁অভিহিত	-9.7713
▁খালে	-9.77138
ফি	-9.77152
▁অখিল	-9.77175
▁এপ	-9.77176
09	-9.772
▁কটা	-9.77205
99	-9.77266
▁একক	-9.77319
▁পৃথিৱী	-9.77327
▁বিজ্ঞাপন	-9.77331
▁পাহাৰ	-9.77375
64	-9.77397
▁বিস্তৃত	-9.77404
▁কেইবাখনো	-9.77406
▁অগ্নি	-9.77447
আৰু	-9.77466
▁নাট্য	-9.77551
▁গোপন	-9.77581
▁আকাৰ	-9.77643
▁সোণোৱাল	-9.77724
▁সুখী	-9.7775
▁জা	-9.77773
80	-9.77774
▁চূড়ান্ত	-9.77775
স্ক	-9.77813
▁প্ৰতিযোগিতাত	-9.77843
▁খায়	-9.77853
▁ইপিনে	-9.77888
▁বিশ্বনাথ	-9.77929
59	-9.78002
▁এশ	-9.78007
দিন	-9.78014
40	-9.7802
টোৱেই	-9.78028
ঠ	-9.78049
▁পশু	-9.78052
▁দোষ	-9.78086
▁সংগঠনৰ	-9.78099
চিয়েল	-9.78106
▁তৰুণ	-9.7815
▁মেচিন	-9.78154
▁আপোনালোকক	-9.782
▁কেইবা	-9.78209
▁সকলোতকৈ	-9.78264
▁সমষ্টিত	-9.78283
▁আনুষ্ঠানিক	-9.78286
ঞ্জ	-9.7831
▁অৱসৰ	-9.78337
▁সম্পূৰ্ণৰূপে	-9.78347
▁অতিক্ৰম	-9.78356
স্ত	-9.78379
▁বতৰ	-9.78446
87	-9.78455
23	-9.78468
▁চিকিৎসালয়ত	-9.78529
▁দিশৰ	-9.78537
▁মহন্ত	-9.78546
▁শিশুৰ	-9.78569
স্	-9.78582
▁অসুবিধা	-9.78662
24	-9.78679
যি	-9.78705
▁তোলাৰ	-9.78737
25	-9.78768
▁প্ৰেমৰ	-9.78778
42	-9.78787
▁বায়ু	-9.788
07	-9.78859
নু	-9.78933
86	-9.78963
▁ভে	-9.79012
30	-9.79047
47	-9.79083
▁যোগ্য	-9.79087
72	-9.79135
▁খাদ্যৰ	-9.79162
9	-9.79213
▁টোপনি	-9.79261
▁আৰম্ভণি	-9.79291
সমূহে	-9.7931
লাই	-9.79386
▁বুধবাৰে	-9.79394
▁2	-9.79395
▁পৰম্পৰা	-9.79399
▁জনাজাত	-9.79418
▁সাগৰ	-9.79421
▁শ্ব	-9.79425
▁সৰল	-9.79495
▁কলেজত	-9.79509
▁শাৰী	-9.79588
▁সেইদিনা	-9.79611
▁ক্ৰিয়া	-9.79627
জী	-9.79655
▁সুধিলে	-9.79748
45	-9.79763
52	-9.79786
33	-9.79806
▁বিৰোধিতা	-9.79915
▁হেতুকে	-9.79949
বাৰী	-9.79964
ঘৰ	-9.79969
▁কৰ্ম্ম	-9.79993
▁পিছ	-9.80001
▁আজিকালি	-9.80087
▁তেখেতক	-9.80133
41	-9.80159
54	-9.80195
49	-9.8024
▁চহৰত	-9.80244
▁দুখীয়া	-9.80249
38	-9.80266
▁নাপায়	-9.80324
▁বুকুত	-9.80355
▁বাহিৰলৈ	-9.80475
O	-9.80514
▁শিষ্য	-9.80517
▁মাংস	-9.80589
▁ধাৰা	-9.80646
96	-9.80684
▁সহজে	-9.80686
▁পিছতেই	-9.80748
▁প্ৰজাতিৰ	-9.80788
জ্যোতি	-9.80815
▁যোৰহাটৰ	-9.80823
88	-9.80828
55	-9.80835
▁বাছ	-9.80838
▁কৰিছিল৷	-9.80903
ক্	-9.80906
অসামৰিক	-9.80947
34	-9.80993
▁সহায়ক	-9.81002
94	-9.81007
বে	-9.81017
গৰাকীৰ	-9.81019
▁ধাৰণ	-9.8105
▁বেংকৰ	-9.81078
▁জনগোষ্ঠীৰ	-9.81095
▁বস্তুৰ	-9.81105
▁ক্ষেত্রত	-9.81134
ৰাৰ	-9.81265
▁গোৱা	-9.81267
এন	-9.81272
▁খেদি	-9.81277
▁২০২১	-9.81286
▁হেনো	-9.81344
▁আলী	-9.81348
▁দাসৰ	-9.8137
an	-9.81413
▁চিন	-9.81431
▁N	-9.81459
▁দুয়োখন	-9.81477
21	-9.81494
১৫	-9.81538
▁জগতত	-9.81542
▁বিষ্ণু	-9.8155
▁কেতবোৰ	-9.81553
63	-9.81581
▁পিছতহে	-9.8159
পাত	-9.81632
▁দূৰত্ব	-9.81638
58	-9.81655
▁]	-9.81727
▁ৰাতিপুৱা	-9.81751
▁পতা	-9.81769
▁লাগিছে	-9.81769
জাৰ	-9.81806
▁কৰিলো	-9.81815
▁শুভেচ্ছা	-9.81839
27	-9.81839
▁দৰিদ্ৰ	-9.81843
মেন	-9.81871
▁যুগ	-9.81875
থা	-9.81909
▁তই	-9.8193
97	-9.81971
48	-9.81971
▁প্ৰণালী	-9.81984
▁চিঠি	-9.81997
▁কামনা	-9.82048
▁অঞ্চলটোত	-9.82132
37	-9.82147
▁বীৰ	-9.82163
গু	-9.82192
▁পাছে	-9.82222
▁অন্তিম	-9.82243
75	-9.82285
▁ওপৰ	-9.82291
▁বিহুৰ	-9.82305
44	-9.82357
▁.	-9.82363
am	-9.82387
▁আঠ	-9.82408
77	-9.82417
26	-9.82471
জু	-9.82486
▁নিৰ্দেশনা	-9.82532
▁সম্প্ৰতি	-9.82546
▁নাট	-9.82569
36	-9.82587
▁বৃদ্ধ	-9.82605
▁স্কুলত	-9.82615
▁মহাত্মা	-9.82648
▁পাৰিম	-9.82674
▁অন	-9.82722
51	-9.82736
65	-9.82744
▁ৱ	-9.82814
পূব	-9.82816
▁আদেশ	-9.82847
70	-9.82898
ম্প	-9.82985
▁খোৱাৰ	-9.83001
▁ফে	-9.8301
▁বয়সৰ	-9.83052
28	-9.83122
‘	-9.83135
53	-9.83162
▁প্ৰথমতে	-9.83209
▁কাকত	-9.83281
08	-9.83312
▁চাৰিওফালে	-9.83498
চোন	-9.83518
▁শেষৰ	-9.83528
▁মুখৰ	-9.83618
ডা	-9.83621
▁সীমান্ত	-9.83638
▁বিধি	-9.8368
▁আলোচনী	-9.83684
▁গৱেষণাৰ	-9.83686
িষ্ট	-9.83722
▁আনন্দিত	-9.83733
81	-9.83735
▁19	-9.83742
▁ৰাইজ	-9.8378
90	-9.83804
46	-9.83805
56	-9.8384
▁ফেব্ৰুৱাৰীত	-9.8387
▁বহল	-9.83895
০	-9.83904
▁কথাই	-9.83918
com	-9.83926
▁দাবীত	-9.83938
ংগ	-9.83964
▁দোকান	-9.83993
▁ৰাভা	-9.83999
▁যা	-9.84019
it	-9.84057
জনিত	-9.84151
▁কব	-9.84174
বিলাকৰ	-9.84287
▁সেনাৰ	-9.84322
▁বিভক্ত	-9.84327
▁বিশ্ববিদ্যালয়ত	-9.8435
গো	-9.84375
▁আদায়	-9.8441
▁প্ৰশাসন	-9.84429
▁স্নাতকোত্তৰ	-9.84482
ক্স	-9.84499
▁আছো	-9.84518
▁হবলৈ	-9.84523
▁আখ্যা	-9.84612
98	-9.84629
▁জানুৱাৰীত	-9.84635
▁স্থানান্তৰ	-9.84646
31	-9.84724
▁নকৰাকৈ	-9.84769
▁পোষ্ট	-9.8485
এল	-9.84852
▁ৰাখিছিল	-9.84853
▁নিয়োগ	-9.84867
▁কোষ	-9.84878
▁নিযুক্ত	-9.84916
66	-9.84958
69	-9.85006
▁শুভাৰম্ভ	-9.8507
35	-9.85096
76	-9.85154
▁পু	-9.85157
▁প্ৰশ্নৰ	-9.85192
84	-9.85197
57	-9.85247
১০	-9.85283
ুল	-9.85316
▁জানি	-9.85402
য়াৰ	-9.85448
▁দেহ	-9.85478
91	-9.85481
67	-9.85526
68	-9.8553
▁স্বৰূপে	-9.85571
▁দেৱতা	-9.85609
▁সন্থাই	-9.8561
73	-9.85644
92	-9.85675
▁পিন্ধি	-9.85709
কাল	-9.85718
৯	-9.85739
▁বুঢ়া	-9.8578
89	-9.85984
▁ন্যায়ালয়ৰ	-9.86044
▁আহিবলৈ	-9.86049
62	-9.86077
▁চিহ্ন	-9.86099
▁পৰিগণিত	-9.86184
▁গৰাকীৰ	-9.86282
▁বুজিব	-9.86325
▁কেনেদৰে	-9.86388
▁আগতেই	-9.86514
▁সহকাৰী	-9.86549
হু	-9.86566
▁ঘূৰাই	-9.86574
▁নিষিদ্ধ	-9.86642
61	-9.86665
▁হা	-9.86716
▁কণী	-9.86766
▁যদিহে	-9.86769
71	-9.86794
▁কওঁ	-9.86804
▁মথি	-9.86837
▁যোহন	-9.86892
▁তিনিচুকীয়া	-9.86926
▁আমেৰিকান	-9.86948
▁কাষ	-9.86978
▁অস্ত্ৰ	-9.87078
▁উৎপন্ন	-9.87088
▁প্ৰচলন	-9.87092
▁সময়ে	-9.87096
▁চৰ	-9.87122
▁সম্বন্ধে	-9.87144
▁সিংহ	-9.87169
▁ৰোগত	-9.87191
▁পৰিধান	-9.87204
▁কাৰণত	-9.87206
▁সাজি	-9.87235
▁শনিবাৰে	-9.87241
▁কালৰ	-9.87254
43	-9.8736
▁আধাৰশিলা	-9.87394
▁পাহৰি	-9.87397
▁যত্ন	-9.87426
▁নথিপত্ৰ	-9.8749
▁ৰাহুল	-9.87529
▁প্রকাশ	-9.87535
▁ৰাণী	-9.87549
82	-9.87603
েন	-9.87652
▁অইন	-9.87692
▁চুটি	-9.8773
83	-9.8773
▁সংজ্ঞা	-9.87758
st	-9.87837
▁তাৰিখ	-9.87878
▁পলাই	-9.87957
▁আত্মা	-9.87968
ic	-9.87986
▁মালিক	-9.87992
▁কেতিয়া	-9.8801
▁ৰাজহ	-9.8807
85	-9.88117
▁ৰাজ্যখনত	-9.88209
পৰি	-9.88231
▁এনেকৈ	-9.88233
▁আধাৰত	-9.88241
▁ছাত্ৰী	-9.88295
▁ৱিকিপিডিয়া	-9.88307
▁কিশোৰ	-9.88313
▁কৃষকৰ	-9.88365
▁মেলি	-9.88401
▁কৰ্মৰত	-9.88407
দান	-9.88409
▁ব্যৱসায়িক	-9.88497
▁সংগীতৰ	-9.88505
ri	-9.88517
▁মেডিকেল	-9.88522
▁থলুৱা	-9.88524
▁শ্ৰেণীত	-9.88569
▁সূচনা	-9.88626
যোগে	-9.88635
▁স্থিৰ	-9.8867
78	-9.88683
74	-9.88686
▁৩৫	-9.88703
▁সমল	-9.88755
▁আশ্ৰয়	-9.88768
▁পাৰত	-9.88774
▁অভিযানৰ	-9.88782
▁তত্ত্ব	-9.88787
▁একাধিক	-9.88816
▁আগ্ৰহী	-9.88834
▁সজা	-9.88852
▁সং	-9.88881
ৃ	-9.88884
▁চকুত	-9.88926
▁সুৰক্ষাৰ	-9.88977
79	-9.89005
পৰ	-9.89011
es	-9.89069
▁পঞ্চায়ত	-9.89121
▁অথচ	-9.89152
ণ্ট	-9.89156
▁বৰদলৈ	-9.89194
▁জোৰ	-9.89232
▁বাহিৰৰ	-9.89259
▁উপভোগ	-9.89289
▁নকৰিবা	-9.89316
▁সংকলন	-9.89409
▁লিখিত	-9.8946
▁কৰিবা	-9.89559
z	-9.89571
▁ব্যক্তিক	-9.89624
▁দীঘলীয়া	-9.89724
▁তিনিখন	-9.89791
▁অধ্যয়নৰ	-9.89815
▁নিউ	-9.8984
▁য়ে	-9.89843
▁পাকিস্তানৰ	-9.89951
▁সহযোগী	-9.89983
▁সুখবৰ	-9.90001
ন্দ	-9.9006
▁অভিযুক্ত	-9.90078
▁পৃষ্ঠাৰ	-9.90138
▁আকাশ	-9.90153
▁মোবাইল	-9.90193
মাৰ	-9.90209
▁পেট্ৰ	-9.90213
▁জু	-9.90266
▁2020	-9.90273
▁হিচাপ	-9.90301
▁নকৰি	-9.90302
▁তুলিব	-9.90361
th	-9.90364
▁পূৱ	-9.90467
▁ব্যৱহাৰৰ	-9.90504
▁লি	-9.90544
▁ঠিকনা	-9.90555
▁৭০	-9.90582
▁মাতৃৰ	-9.90612
▁প্ৰজাতি	-9.90628
।[5]	-9.90692
▁শ্ৰীমন্ত	-9.90717
▁পাৰিলে	-9.90745
▁দেহৰ	-9.90766
=	-9.90869
▁খা	-9.90944
িয়ে	-9.91062
▁ভাতৃ	-9.91127
▁বিধেয়ক	-9.91139
কিন্তু	-9.91171
ation	-9.91193
▁বিচাৰিছে	-9.91218
▁সমিতিয়ে	-9.91231
▁মুদ্ৰণ	-9.9124
▁কোভিড	-9.91251
▁প্ৰস্তুতি	-9.91251
▁জনালে	-9.91345
▁জুৰি	-9.91346
▁ফেচবুক	-9.91361
▁আপ	-9.91399
▁ভোগ	-9.91465
▁বাঁহ	-9.91482
▁ভূপেন	-9.91495
কাজ	-9.9152
▁অলিম্পিক	-9.9153
▁হাই	-9.91537
▁ভিন	-9.91588
ঘ	-9.91589
▁তেঁও	-9.91602
▁উঠিব	-9.91609
▁চনলৈ	-9.9164
▁এইচ	-9.91647
▁প্ৰশাসনে	-9.91679
▁শাখাত	-9.91716
▁সম্পত্তি	-9.91749
টিক	-9.91772
▁গ্ৰাম	-9.91832
▁উদাহৰণস্বৰূপে	-9.91953
▁প্ৰত্যাহ্বান	-9.9201
ol	-9.9202
▁বিশেষজ্ঞ	-9.92095
▁ব্ৰহ্ম	-9.92157
যোগ্য	-9.92191
..."	-9.92197
U	-9.92216
গে	-9.92219
▁উপাদান	-9.92249
শ্ব	-9.92275
▁বৃহস্পতিবাৰে	-9.92281
▁পাল	-9.92407
ৰ্ড	-9.92463
▁অংশত	-9.9249
▁ঘৰে	-9.92497
ীক	-9.92523
▁বৰ্ণ	-9.92618
▁অতিশয়	-9.92735
▁ন্যায়াধীশ	-9.92746
▁ডিচেম্বৰত	-9.92755
▁শেহতীয়া	-9.92768
▁গীতৰ	-9.92791
▁আৰ্হি	-9.9285
পো	-9.92909
▁শতাধিক	-9.93097
▁বিয়াৰ	-9.93116
▁পাৰে৷	-9.93128
▁যুগৰ	-9.93182
টিৰ	-9.93256
▁দৰ্পণ	-9.93277
▁স্বৰূপ	-9.93301
▁সিঙে	-9.93333
বোধ	-9.93377
▁দুৰ্ঘটনা	-9.93437
টাৰ	-9.93508
w	-9.93508
▁গাখীৰ	-9.93544
▁মুদ্ৰা	-9.93545
▁২০০৮	-9.93602
▁যুদ্ধত	-9.93614
▁দক্ষতা	-9.93658
▁জব্দ	-9.93664
▁মাত্ৰা	-9.93674
▁গাই	-9.93674
সু	-9.9376
+	-9.93804
িয়	-9.93962
▁বিনিয়োগ	-9.93967
▁পোহৰলৈ	-9.94022
▁বিশ্বাসী	-9.94049
▁ৱিকিপিডিয়াৰ	-9.94084
▁মুম্বাই	-9.94113
▁ঘাই	-9.9424
K	-9.94295
▁পইচা	-9.94394
▁সৈন্য	-9.94407
▁চকুৰ	-9.94408
ন্ত	-9.94452
▁বিচাৰিছিল	-9.94465
▁এসময়ত	-9.94553
▁দিনটোত	-9.94554
▁তা	-9.94588
▁ইংৰাজ	-9.94618
▁উৎসাহিত	-9.94623
▁লাল	-9.94629
মৰ	-9.94641
▁তেজপুৰ	-9.9469
▁উদ্যান	-9.94705
▁চুলি	-9.94761
▁কথাত	-9.94791
▁I	-9.94848
ইউ	-9.94891
▁যায়৷	-9.94912
▁বিত্ত	-9.95007
il	-9.95034
▁ইণ্ডিয়ান	-9.95047
বান	-9.9514
▁ক্ষতিকাৰক	-9.95243
▁যাপন	-9.95308
হৰ	-9.95318
ক্ষ	-9.95342
নাই	-9.95398
িয়ান	-9.95539
▁এতেকে	-9.95573
▁দশকত	-9.95724
▁প্ৰসংগ	-9.95748
la	-9.95751
▁শতিকাত	-9.95788
▁কোৱাৰ	-9.95866
▁আটাই	-9.9589
▁উপনীত	-9.95949
▁বিনিময়	-9.95954
▁আপোনালোক	-9.95987
▁আৱদ্ধ	-9.96023
▁লিখিছে	-9.96183
▁দুৰ্নীতি	-9.96205
▁প্ৰখ্যাত	-9.96242
▁ৱেব	-9.96276
▁চলিত	-9.96282
বিদ	-9.96329
▁২০১০	-9.9635
▁কাৰো	-9.9635
▁অৱস্থাৰ	-9.96363
ছাত্ৰী	-9.96399
▁দেশে	-9.96433
▁কৰাই	-9.96493
▁তোৰ	-9.96619
▁p	-9.96643
▁ঘণ্টা	-9.96677
▁আক্ৰমণৰ	-9.96692
▁মূৰ্তি	-9.96772
▁চমুকৈ	-9.96805
▁বংশ	-9.96821
তাৰে	-9.9684
▁মিচৰ	-9.96896
ঙা	-9.96928
ণী	-9.96948
জনী	-9.9695
▁পুৰুষৰ	-9.96963
ন্	-9.9699
▁অসমলৈ	-9.97042
▁বালি	-9.97059
▁আলফা	-9.97067
▁শৰীৰত	-9.97199
▁সাক্ষী	-9.97201
▁চিনাকি	-9.97248
▁কৰিছিলোঁ	-9.97307
অসম	-9.97352
▁আহমেদ	-9.97361
াত	-9.97414
▁মাৰ্চত	-9.97441
▁উৎসাহ	-9.97464
▁তৰফৰ	-9.97472
পতি	-9.97503
▁মানৰ	-9.97715
▁ৰচিত	-9.97727
▁পাৰো	-9.97795
▁বক্তব্য	-9.97811
▁মহকুমা	-9.9789
▁সোঁ	-9.97912
ঙৰ	-9.97975
▁পৰিয়ালে	-9.98128
▁ভাস্কৰ	-9.98218
▁চালে	-9.98318
ta	-9.98353
▁শাসিত	-9.98398
▁অস্তিত্ব	-9.98405
▁যিসকল	-9.98417
▁ভোজন	-9.98459
ir	-9.98466
as	-9.9849
▁ত্ৰুটি	-9.98522
হী	-9.98548
িনী	-9.98576
ছোঁ	-9.98682
▁কৰিছিলো	-9.9869
▁মিডিয়া	-9.98703
সেই	-9.98712
▁হওঁক	-9.9875
▁স্তৰ	-9.98831
▁মিলিত	-9.98832
▁ষ্টাফ	-9.98836
৫০	-9.98893
▁অভিলেখ	-9.98952
▁বিয়পি	-9.98963
▁অমিত	-9.99045
▁যাম	-9.99079
ন্স	-9.99113
▁পৰিস্থিতিত	-9.99125
▁শ্বেয়াৰ	-9.99181
▁নোহোৱাকৈ	-9.99191
▁সোণোৱালে	-9.99223
▁ন্যায়ালয়ে	-9.99264
ন্ট	-9.99264
বন	-9.99282
▁২০০০	-9.99284
০০	-9.9932
▁নগা	-9.99325
▁৮০	-9.99332
▁উপদেশ	-9.99383
▁অনুসৰণ	-9.99409
▁ভগৱান	-9.99437
▁বিৱৰণ	-9.99441
▁সিদ্ধ	-9.99454
▁কোম্পানীৰ	-9.9953
▁পণ্ডিত	-9.99549
▁ষষ্ঠ	-9.99584
W	-9.99621
▁উদ্ভাৱন	-9.99625
▁অভ্যাস	-9.9966
▁মূলতঃ	-9.99693
▁কৰ্তৃপক্ষই	-9.9971
▁প্ৰতিদিন	-9.99747
▁ওলোৱা	-9.9975
▁বৌদ্ধ	-9.99771
▁ব্যৱসায়ী	-9.99833
▁পৰম	-9.99846
▁যুক্ত	-9.9986
কুল	-9.99912
▁অপ	-9.99985
▁পৌলে	-9.99992
▁কৰিলে৷	-10.0007
▁ঠাইলৈ	-10.0008
▁গধুৰ	-10.0014
▁তেতিয়াই	-10.0017
▁প্ৰতিষ্ঠানৰ	-10.0021
▁উপদেষ্টা	-10.0022
▁ডলাৰ	-10.0023
▁আদিত	-10.0026
▁পেলালে	-10.0027
▁অৰ্থনীতি	-10.0029
▁প্ৰভাৱিত	-10.0033
▁অল	-10.0041
▁প্ৰান্তৰ	-10.0045
▁সম্মুখীন	-10.0045
▁বোৰ	-10.0049
▁দুৰ্ঘটনাত	-10.005
▁আনটো	-10.0053
▁মনোনীত	-10.0068
▁ছবিত	-10.0069
ম্ব	-10.0069
▁আত্মাৰ	-10.0077
▁পাছতো	-10.008
▁ভা	-10.0081
▁প্ৰতিযোগিতাৰ	-10.0095
▁গম্ভীৰ	-10.0097
▁হুছেইন	-10.0107
▁বনৰীয়া	-10.0115
▁কাৰিকৰী	-10.0116
পাল	-10.0119
েৰী	-10.0119
▁s	-10.0121
১৬	-10.0124
▁ঘটিছে	-10.0129
▁নৈ	-10.0132
▁দিশে	-10.0135
▁শাখাৰ	-10.0138
▁ভাবুকি	-10.0139
▁ৰোগী	-10.014
▁নিব	-10.0141
▁ঘৰতে	-10.0142
▁বিষয়াৰ	-10.0145
▁চাইকেল	-10.0155
▁গ্ৰীক	-10.0157
▁এটাই	-10.016
▁ওপৰলৈ	-10.0167
▁পুলিচ	-10.0172
লোক	-10.0173
▁আগ্ৰহ	-10.0176
▁শ্বহীদ	-10.0177
▁লিখক	-10.0179
▁আয়োগৰ	-10.0179
▁প্ৰতিভা	-10.0183
▁নিদিয়ে	-10.0184
▁কেইজনমান	-10.0188
▁দেউতাক	-10.0189
▁ছাত্র	-10.0192
▁মুখ্যমন্ত্ৰীয়ে	-10.0193
▁গোলাঘাট	-10.0196
▁ৰেখা	-10.0199
▁আঁতৰাই	-10.02
▁হাজৰিকাই	-10.0211
▁ৰাজীৱ	-10.0212
▁খৰছ	-10.0213
▁দুগৰাকী	-10.0214
▁কৰোতে	-10.0216
াম	-10.0216
▁সঁহাৰি	-10.0233
V	-10.0234
et	-10.0237
▁‘‘	-10.024
▁উঠিছিল	-10.0242
▁সমস্ত	-10.0249
▁আনিছে	-10.0253
▁২০০৯	-10.0256
লিয়া	-10.0261
▁যান	-10.0264
▁ধাৰাবাহিক	-10.0267
▁হঠাৎ	-10.027
▁নথি	-10.0273
▁কমলা	-10.0274
▁আবদ্ধ	-10.0281
▁খনত	-10.0283
▁দৰমহা	-10.0292
▁শৈক্ষিক	-10.0294
▁পো	-10.0296
▁জলবায়ু	-10.03
▁আমন্ত্ৰণ	-10.0304
▁আশংকা	-10.0304
▁ছাগলী	-10.0306
▁লাজ	-10.031
▁ফুৰা	-10.0318
▁তথ্যৰ	-10.0318
▁পূৰ্বতে	-10.0322
▁দলত	-10.0326
te	-10.0328
▁বাঘ	-10.0339
▁ৰীতি	-10.0348
▁৩৭	-10.0353
▁শুই	-10.0356
▁ৰক্ত	-10.0359
▁মুৰব্বী	-10.0364
▁আনিবলৈ	-10.037
▁বিদ্যা	-10.0375
▁সংখ্যালঘু	-10.0376
▁প্ৰতিষ্ঠিত	-10.0377
▁বৰ্তমানে	-10.0377
▁ষ্ট	-10.0379
▁গুগল	-10.0386
▁বৈঠক	-10.0387
▁পেলায়	-10.0389
▁নিৰ্ধাৰিত	-10.0392
▁তাতেই	-10.0395
▁ছেপ্টেম্বৰ	-10.0396
▁ফলস্বৰূপে	-10.0401
▁উচ্চতা	-10.0401
▁ধুনীয়া	-10.0404
▁ভৱিষ্যত	-10.0407
নিয়া	-10.0411
▁হাৰত	-10.0411
▁৩২	-10.0419
▁ফি	-10.0421
সি	-10.0424
▁ভুৱা	-10.0426
▁বনাঞ্চল	-10.0429
▁প্ৰশাসনৰ	-10.043
▁খেলা	-10.0433
▁ঠাইতে	-10.0439
▁থাকোতে	-10.0444
▁অশোক	-10.0448
▁২০০	-10.0448
ৰ্ণ	-10.0451
▁গ্ৰাম্য	-10.0463
▁চাপ	-10.0467
▁V	-10.047
▁ক্ৰম	-10.0471
▁পিচত	-10.0473
▁বঞ্চিত	-10.0477
▁একেদৰে	-10.0479
▁চিকাৰ	-10.0483
▁প্ৰশাসনিক	-10.0488
▁স্কুলৰ	-10.049
▁মিলিয়ন	-10.051
▁R	-10.0513
▁৩৩	-10.0514
▁মৌ	-10.0514
▁যীচু	-10.0524
▁সমাধানৰ	-10.0529
▁বস্ত্ৰ	-10.0534
▁কিছুমানে	-10.0536
▁বেছিকৈ	-10.0536
▁তুলনা	-10.0537
▁প্ৰসাৰ	-10.0539
▁কাৰ্যবাহী	-10.0546
▁প্ৰতিনিধিত্ব	-10.0546
▁O	-10.0549
ডে	-10.0552
▁বংশৰ	-10.0554
ওঁ	-10.0558
el	-10.0558
▁এইক্ষেত্ৰত	-10.0562
▁গণিতজ্ঞ	-10.0562
▁স্মাৰক	-10.0562
▁পাঁচটা	-10.0569
▁অভিনন্দন	-10.057
▁ব্যৱস্থাপনা	-10.0578
▁অভিযন্তা	-10.0585
▁গ্রহণ	-10.0588
▁ভিতৰৰ	-10.0589
[	-10.0591
▁সুকীয়া	-10.0599
▁থাকোঁতে	-10.0604
▁সম্বৰ্ধনা	-10.0607
▁জনজাতীয়	-10.061
▁সপ্তম	-10.0611
▁সমাপ্ত	-10.0611
মুখী	-10.0612
▁খান	-10.0619
▁দ্ৰুত	-10.0621
▁উপস্থাপন	-10.0631
▁নাও	-10.0632
▁হু	-10.0645
▁গোৱালপাৰা	-10.0645
▁তেনেদৰে	-10.0651
▁বাসিন্দা	-10.0653
▁ৰূপৰ	-10.0657
ৱান	-10.0667
▁কথাখিনি	-10.0673
ro	-10.0675
▁ইয়ে	-10.0681
▁বাংলাদেশৰ	-10.0685
▁পালোঁ	-10.0688
▁শুনিবলৈ	-10.0689
▁মোহন	-10.0691
▁হৰি	-10.0692
▁চৰাইৰ	-10.0692
▁ভালেমান	-10.0695
▁কাৰক	-10.0698
▁আনুষ্ঠানিকভাৱে	-10.0699
▁প্ৰকৃতি	-10.0701
at	-10.0703
▁অধীক্ষক	-10.0705
▁পুতেক	-10.072
▁ধনৰ	-10.0725
▁কাগজ	-10.0731
▁পৰিৱেশন	-10.0731
▁মাল	-10.0732
।[6]	-10.0733
▁লকডাউন	-10.0737
▁চুক্তিৰ	-10.0738
কালত	-10.074
▁দুৰ্বল	-10.0743
▁আধাৰ	-10.0746
▁গাণিতিক	-10.0747
▁আনিলে	-10.0751
▁স্থানৰ	-10.0753
▁খেতিৰ	-10.0759
ch	-10.0759
▁বিপৰীত	-10.076
▁পৰাস্ত	-10.0761
▁লৰা	-10.0765
▁মহামাৰীৰ	-10.0767
▁আব্দুল	-10.0768
তেওঁ	-10.0775
▁তোমালোক	-10.0778
▁সিহঁত	-10.0782
▁স্পৰ্শ	-10.0789
▁পেলাইছে	-10.0789
▁কন	-10.0806
▁সূৰ্য	-10.0812
বিজ্ঞান	-10.0817
▁বক্তৃতা	-10.0818
▁বাইক	-10.082
▁চিনি	-10.0826
▁জুবিন	-10.0829
▁দশকৰ	-10.0833
▁দৈনন্দিন	-10.0855
▁কাৰ্যালয়ৰ	-10.0858
▁মাধ্যমেৰে	-10.086
▁স্বাৰ্থত	-10.0863
▁বিস্তাৰ	-10.0864
িম	-10.0878
▁ইয়াতে	-10.0879
▁শুকুৰবাৰে	-10.0881
▁সত্ৰ	-10.0881
্র	-10.0884
▁ইষ্ট	-10.0887
▁উজনি	-10.0889
জৰ	-10.089
▁বুজাবুজি	-10.089
..	-10.0892
▁আবেলি	-10.0894
▁কমল	-10.0899
▁সঁজুলি	-10.0905
▁মিনিট	-10.0906
▁পাহাৰৰ	-10.0906
▁সামৰিক	-10.0911
▁প্ৰকৃতিৰ	-10.092
▁সংক্ৰমণৰ	-10.0929
▁সামৰণি	-10.0931
▁তললৈ	-10.0932
▁সাধু	-10.0934
▁পৰাও	-10.0941
▁সম্বোধন	-10.0944
বিহীন	-10.0945
ল্ড	-10.0962
▁৪৫	-10.0964
ীন	-10.0969
▁প্ৰতিৰক্ষা	-10.0971
▁নাথাকিব	-10.0972
▁ওজন	-10.0972
▁সংগতি	-10.0972
▁পাছলৈ	-10.0973
▁আদিবাসী	-10.0978
▁শূন্য	-10.0978
▁খণ্ডত	-10.098
ণি	-10.098
▁সম্বন্ধ	-10.0985
▁মহানগৰ	-10.0985
▁মো	-10.0988
▁কিতাপখন	-10.0999
▁কিনি	-10.1
▁যাওঁতে	-10.1002
▁ৰহমান	-10.1005
▁গৱেষক	-10.1005
▁পুখুৰী	-10.1008
▁ভৰাই	-10.1019
▁ফৰ	-10.102
▁সংঘৰ	-10.1025
▁ডাক	-10.1026
▁উপলব্ধি	-10.1034
▁আশীৰ্ব্বাদ	-10.1037
▁বিন্যাস	-10.1042
▁হাজৰিকাৰ	-10.1045
▁অষ্টম	-10.1046
▁টে	-10.1046
▁উপাধি	-10.1047
▁ঘুৰি	-10.1047
▁নিৰীক্ষণ	-10.1054
▁লিংগ	-10.1055
▁লকডাউনৰ	-10.1056
▁নহওক	-10.106
▁পৰ্যটন	-10.1063
১৭	-10.1071
▁সীমিত	-10.1072
▁২০০১	-10.108
▁কোনোধৰণ	-10.1101
▁পৰিদৰ্শন	-10.1112
▁জনজাতি	-10.1112
▁বিনামূলীয়া	-10.1115
lo	-10.1116
▁সংস্থাপন	-10.1131
শ্যন	-10.1132
}}	-10.1136
▁ইতিহাসৰ	-10.1137
▁বান	-10.114
▁টাই	-10.114
▁কাইলৈ	-10.1141
▁কেই	-10.1142
াৱ	-10.1145
▁নীলা	-10.1147
▁জৰুৰী	-10.1149
▁লক্ষ্মী	-10.1166
▁পিঠা	-10.1173
▁চলিব	-10.1177
▁মাকৰ	-10.1178
▁পোৱালি	-10.1182
▁খু	-10.1186
স্বৰূপ	-10.1189
▁তাৰোপৰি	-10.1192
▁থকাটো	-10.1195
▁ভাৰ	-10.1198
▁ঘন	-10.1199
▁কংগ্ৰেছে	-10.1202
▁{	-10.1208
▁চো	-10.1209
ভাগ	-10.1212
▁মাৰ্ঘেৰিটা	-10.1215
▁চোৰাং	-10.1215
▁চলাচল	-10.1215
▁আছুৰ	-10.1219
▁আগবঢ়াব	-10.122
▁প্ৰমাণপত্ৰ	-10.122
▁ৰেকৰ্ড	-10.122
▁প্ৰসংগত	-10.1234
▁গুটি	-10.1237
▁জোৱান	-10.1238
▁হেৰুৱাই	-10.1241
▁পেট	-10.1251
▁ৰণ	-10.1255
ষ্ঠ	-10.1257
▁জ্ঞানৰ	-10.1263
ঠা	-10.127
▁জনাইছিল	-10.1271
id	-10.1276
▁শংকৰ	-10.1276
▁আগবঢ়াইছে	-10.1279
শা	-10.128
▁দৃষ্টিত	-10.1281
▁শাসক	-10.1283
য়েও	-10.1286
▁গে	-10.1288
▁হাতেৰে	-10.1289
▁কাষতে	-10.1289
▁ৰিপ	-10.1293
▁কৰিব৷	-10.1294
ৰিয়া	-10.1298
▁ডাল	-10.1299
▁অভি	-10.1301
▁পৰিশোধ	-10.1301
▁খ্ৰীষ্ট	-10.1303
▁সন্থা	-10.1306
▁উজ্জ্বল	-10.1311
▁কৃত্ৰিম	-10.1314
▁প্ৰান্তত	-10.1316
▁তৰা	-10.1317
▁প্ৰতিদিনে	-10.133
যা	-10.1331
▁অৱশিষ্ট	-10.1333
....	-10.1335
▁স্মৰণ	-10.1342
▁নাৰায়ণ	-10.1352
▁আগলৈ	-10.1357
ফালে	-10.136
▁অনন্ত	-10.1368
▁অনাৰ	-10.1371
▁ভৰা	-10.138
ুৱে	-10.1381
▁শীঘ্ৰে	-10.1382
বাই	-10.1384
▁আৰম্ভণিতে	-10.1385
▁বাণিজ্যিক	-10.1387
▁একত্ৰিত	-10.139
▁বেগ	-10.1391
িয়াৰ	-10.1392
▁মণ্ডল	-10.1395
সকলো	-10.1399
▁নাছিল৷	-10.1401
ac	-10.1408
▁বান্ধ	-10.1413
চন্দ্ৰ	-10.1414
▁নৱেম্বৰত	-10.1415
▁পদ্ধতিৰ	-10.142
▁বিশেষভাৱে	-10.1421
▁২০০৬	-10.1425
://	-10.1426
▁লিংক	-10.1427
▁কেবিনেট	-10.143
▁বিফল	-10.143
▁মতামত	-10.143
▁পিন্ধা	-10.1434
▁দণ্ড	-10.1434
দেৱ	-10.1437
▁ৰাজত্ব	-10.1437
প্র	-10.1443
▁কাৰ্যালয়ত	-10.1446
▁লবলৈ	-10.1446
▁সন্তুষ্ট	-10.1447
▁দেখুৱা	-10.1448
পাতি	-10.1459
▁পৰিবেশন	-10.1463
▁দশক	-10.1469
▁ভাৰতবৰ্ষৰ	-10.149
▁ৰাজনীতিৰ	-10.149
▁কেইবাজনো	-10.1495
▁সমূহে	-10.1505
▁নৈৰ	-10.1509
▁ধ্বনি	-10.1511
▁বুৰঞ্জী	-10.1513
▁অসীম	-10.1516
▁কটন	-10.1523
▁মণি	-10.1525
▁ৰাসায়নিক	-10.1526
▁মাজুলী	-10.1531
িছ	-10.1534
▁সেইবোৰৰ	-10.1536
▁সমদল	-10.1538
▁লগোৱা	-10.154
▁প্ৰদানৰ	-10.1545
▁খেলত	-10.155
▁চুৰি	-10.1555
▁বাংলা	-10.1555
ma	-10.1556
▁ভূঞা	-10.1557
▁গঠনৰ	-10.1558
▁প্ৰকাৰ	-10.1562
▁বৰষুণৰ	-10.1563
▁মানুহেই	-10.1565
▁দৰাচলতে	-10.1576
▁4.	-10.1581
▁মৃদু	-10.1584
ফে	-10.1593
▁আচল	-10.1594
জীৱন	-10.1595
▁যুটীয়া	-10.1597
▁হঠাতে	-10.1601
▁অস্বীকাৰ	-10.1601
▁পোন	-10.1613
▁আদৰণি	-10.1615
▁আখৰ	-10.1622
▁ৰাখিলে	-10.1623
▁মহাপুৰুষ	-10.1628
▁বৰঙণি	-10.1633
গড়	-10.1639
▁সিহঁতক	-10.1642
▁সদৰী	-10.1643
১২	-10.1645
▁জনপ্ৰিয়তা	-10.1651
াল	-10.1654
▁উৎপত্তি	-10.1655
▁Previous	-10.1655
▁নগদ	-10.1657
বিলাকে	-10.1661
▁নগ	-10.1665
ৱাৰ	-10.1666
াছ	-10.1669
▁Regular	-10.1669
▁প্ৰদৰ্শিত	-10.1669
▁কমেও	-10.167
▁পৰিবহন	-10.167
▁চলচ্চিত্ৰৰ	-10.167
▁ধনী	-10.1672
▁10	-10.1672
▁বিধ	-10.1678
▁গোহাঁই	-10.1683
▁চাহিদা	-10.1683
ড়া	-10.1689
জ্ঞ	-10.1695
▁বাহ	-10.1696
▁হাতীৰ	-10.1696
▁20	-10.1696
▁বিষয়বস্তু	-10.1702
হো	-10.1702
▁ৰয়	-10.1703
▁সেউজীয়া	-10.1706
২৫	-10.1707
▁প্ৰসিদ্ধ	-10.1707
▁২০০৭	-10.1708
▁Sale	-10.171
পাৰা	-10.1713
▁চোৰ	-10.1715
▁দলীয়	-10.1717
▁ঘটনাটো	-10.1719
▁টানি	-10.1727
▁বাছনি	-10.1731
▁নোৱাৰো	-10.1736
▁পাকিস্তান	-10.1736
▁কাৰ্যসূচীত	-10.1738
▁ৰেহাই	-10.1739
▁বুদ্ধি	-10.1741
ন্ধ	-10.1743
▁মাজেদি	-10.1743
▁অংক	-10.1744
ne	-10.1748
▁ৰঙ	-10.175
▁প্রথম	-10.1752
▁লুকাই	-10.1761
▁বুজ	-10.1764
▁তুলিবলৈ	-10.1766
▁খোজা	-10.1767
▁বৰাক	-10.1774
▁ইচ্ছুক	-10.1779
▁সপ্তাহত	-10.1779
▁সংৰক্ষণৰ	-10.1781
▁সাগৰৰ	-10.1785
▁নাপালে	-10.1791
ad	-10.1791
▁কৰিবলে	-10.1792
▁দেশখনৰ	-10.1795
▁অধিকাৰী	-10.1795
▁আহক	-10.1795
এক	-10.1798
▁ছাল	-10.1804
পানী	-10.1807
টু	-10.181
▁বাংলাদেশ	-10.1812
▁জয়ী	-10.1814
িঙৰ	-10.1814
▁লক্ষ্যৰে	-10.1817
▁হৃদয়ত	-10.1819
▁মহিলাসকলে	-10.182
মো	-10.1821
▁কাৰোবাৰ	-10.1822
▁উৎসৱৰ	-10.1824
▁জো	-10.183
▁কেন্দ্ৰত	-10.183
▁স্	-10.1833
▁ভংগ	-10.1833
▁পাৰিছিল	-10.1835
▁প্ৰযুক্তিৰ	-10.1835
▁হোম	-10.1836
বাসী	-10.1838
জেন	-10.184
▁জয়ন্ত	-10.1842
▁জাননী	-10.1846
▁দিনটোতে	-10.1846
▁ধাৰ	-10.1848
▁চৰম	-10.185
▁বাদে	-10.185
▁ট্ৰাক	-10.185
▁মাজ	-10.1857
▁সংশ্লিষ্ট	-10.1862
িতা	-10.1864
আপুনি	-10.1865
▁থানাত	-10.1866
▁চমু	-10.1869
▁ব্ৰহ্মপুত্ৰৰ	-10.187
▁3	-10.1871
▁ভেটি	-10.1875
▁মহাৰাষ্ট্ৰৰ	-10.1879
▁পৰিবহণ	-10.188
▁স্তম্ভ	-10.1887
▁শইকীয়াই	-10.1893
চী	-10.1893
▁জম্মু	-10.1894
গি	-10.1895
▁বৃত্তি	-10.1895
▁দুৰ্গা	-10.1895
▁ভু	-10.1898
▁সেৱক	-10.19
▁বসন্ত	-10.1905
▁ধৰিছিল	-10.1911
েন্স	-10.1916
▁হাইস্কুল	-10.1917
▁গণতন্ত্ৰ	-10.1925
▁5.	-10.1927
▁ক্ষেত্ৰতো	-10.1927
▁মৰ্যাদা	-10.1928
▁দেখুৱাব	-10.1932
▁গণতান্ত্ৰিক	-10.1933
▁নৰ	-10.1935
▁চলে	-10.1936
▁দশম	-10.1937
যোৱা	-10.1938
▁চিঞৰি	-10.1942
▁প্ৰজনন	-10.1946
▁পাতল	-10.1946
▁ৰূপায়ন	-10.1948
▁লিখিব	-10.1949
▁কপাহ	-10.1953
▁কাণ	-10.1958
▁কাৰ্য্যৰ	-10.1958
▁প্ৰচণ্ড	-10.196
১৪	-10.1971
na	-10.1973
▁তাপ	-10.1973
▁ইনষ্টিটিউট	-10.1975
টোও	-10.1978
▁হো	-10.1984
▁ক্ষেত্ৰৰ	-10.1989
মাই	-10.1991
▁ক্ৰোধ	-10.1992
▁পাছৰ	-10.1995
▁ঃ	-10.2002
▁বেচি	-10.2004
▁নামনি	-10.2005
▁সন্মানীয়	-10.2007
পদ	-10.201
▁পুৰোহিত	-10.2011
▁2.	-10.2013
▁মন্ত্ৰীগৰাকীয়ে	-10.2017
▁নহব	-10.2018
▁ভৱিষ্যতে	-10.2021
▁নহয়৷	-10.2022
▁এলেকাত	-10.2027
▁সাজ	-10.2031
ঙ্ক	-10.2032
▁এখনি	-10.2041
▁২০০৪	-10.2044
▁মন্দিৰত	-10.2044
▁অতুল	-10.2048
▁কাণ্ড	-10.2048
জাত	-10.2053
লীয়া	-10.2056
▁ধেমাজি	-10.2057
▁মহাবিদ্যালয়ত	-10.206
▁পথাৰ	-10.2061
▁বিদায়	-10.2063
▁মহম্মদ	-10.2063
▁অত্যাচাৰ	-10.2067
▁মুম্বাইৰ	-10.2068
ঞ্চ	-10.207
▁কলকাতা	-10.2072
▁নোপোৱা	-10.2079
▁The	-10.208
▁নক	-10.2083
▁আত্মহত্যা	-10.2086
▁ত্ৰি	-10.2089
▁তালৈ	-10.209
কান্ত	-10.2094
▁দৌৰি	-10.2095
▁গোটৰ	-10.2097
গাৰ	-10.2101
▁ৰঞ্জিত	-10.2111
স্ব	-10.2114
▁০	-10.2115
▁অক্টোবৰত	-10.2116
▁যাওঁ	-10.2121
▁আপত্তি	-10.2123
▁মঙলবাৰে	-10.2123
▁প্ৰৱন্ধ	-10.2134
▁W	-10.2136
সম	-10.2137
▁ভৱনত	-10.2137
েণ্ট	-10.2143
ছিলোঁ	-10.2145
জাতীয়	-10.2147
▁লিপি	-10.2151
”।	-10.2153
▁লিখিবলৈ	-10.2159
▁পৰিসংখ্যা	-10.216
▁পৰিষ্কাৰ	-10.216
▁দৈৰ্ঘ্য	-10.2164
▁পঢ়িব	-10.2166
▁বজাৰৰ	-10.2166
▁কৰিলেও	-10.2167
▁দূৰত	-10.2168
াে	-10.217
এফ	-10.2174
▁কামটো	-10.2175
▁উঠাই	-10.2176
▁নিদিলে	-10.218
▁জাৰ্মান	-10.2181
▁ফা	-10.2182
▁চুবুৰীয়া	-10.2187
ব্য	-10.2192
মী	-10.2192
▁এয়ে	-10.2192
▁টো	-10.2193
um	-10.2196
▁বুজা	-10.2201
▁কোচ	-10.2204
▁শ্ৰদ্ধা	-10.2206
▁লখিমপুৰ	-10.2207
নগৰ	-10.2216
▁বতাহ	-10.2216
▁আটাইবোৰ	-10.2217
▁চলিছে	-10.2227
▁প্ৰতিখন	-10.2228
▁বৰাৰ	-10.2228
▁এবছৰ	-10.2232
▁article	-10.2236
▁আলোচনাৰ	-10.2239
▁ঘটনাই	-10.2241
গ্ৰাম	-10.2253
▁বিভাজন	-10.2256
▁বাজেট	-10.2259
▁আপুনিও	-10.226
▁অৰ্ধ	-10.2265
▁শ্ৰমিকৰ	-10.2266
কাম	-10.2273
▁আয়ুক্ত	-10.2275
▁মাজতো	-10.2283
▁পৰিপ্ৰেক্ষিতত	-10.2289
▁জয়ন্তী	-10.229
▁দ্বীপ	-10.229
▁বিপদ	-10.2293
▁স্ত্ৰী	-10.2297
▁মনলৈ	-10.2304
▁২০০৫	-10.2306
▁খিলঞ্জীয়া	-10.2309
কাই	-10.2309
মণি	-10.231
যে	-10.2311
▁বিষয়াই	-10.2315
▁আন্তঃ	-10.2318
▁উভয়	-10.2324
▁শাসনৰ	-10.2329
▁মনোযোগ	-10.233
▁উপাসনা	-10.2332
▁নিমিত্তে	-10.2333
▁বিটিচি	-10.2334
তু	-10.2343
▁হেঁচা	-10.2344
▁উপস্থিতি	-10.2344
▁সমৃদ্ধ	-10.2347
▁প্ৰযোজ্য	-10.2348
▁প্ৰয়াত	-10.2348
▁৯০	-10.2348
▁জীৱিত	-10.2348
▁মটৰ	-10.2349
এতিয়া	-10.2356
ly	-10.2359
▁মাৰ্ক	-10.2359
▁ৰেডিঅ	-10.2364
▁দেশলৈ	-10.2368
▁কাকতি	-10.2369
▁3.	-10.2372
▁কাব্য	-10.2373
▁দৰ্শকৰ	-10.2373
▁সংঘ	-10.2375
▁বিন্দু	-10.2376
▁বু	-10.2377
▁ঘটিছিল	-10.2378
▁আমিও	-10.2383
▁দাদা	-10.2387
▁c	-10.2388
▁চুতীয়া	-10.2392
▁অস্থায়ী	-10.2392
▁গুৰি	-10.2392
থি	-10.2399
কথা	-10.2399
▁শিক্ষিত	-10.24
▁চলায়	-10.2413
▁সংহতি	-10.2414
▁জাক	-10.2417
▁ঐ	-10.2418
▁মাইল	-10.2418
text	-10.2421
▁প্রায়	-10.2422
▁ভক্তি	-10.2423
ৱৰ	-10.2423
▁অনুকৰণ	-10.2424
▁কাৰ্যসূচীৰ	-10.2424
▁জাতীয়তাবাদী	-10.2425
▁সেইখন	-10.2426
▁তল	-10.2429
।[7]	-10.2429
▁চেনেল	-10.2433
▁প্ৰচুৰ	-10.2437
▁ছচিয়েল	-10.244
▁অকলে	-10.244
▁ভ্ৰমণৰ	-10.2455
▁সন্মিলন	-10.2456
কী	-10.2467
▁মাস্ক	-10.2468
শক্তি	-10.2471
▁x	-10.2472
▁খং	-10.2475
▁স্থাপিত	-10.248
লাল	-10.2487
▁প্ৰাগজ্যোতিষ	-10.249
▁ব্য	-10.2494
▁যাওক	-10.2497
▁তামিল	-10.2502
▁হোজাই	-10.2504
▁সংসদ	-10.2506
▁বাচি	-10.2507
▁টিভি	-10.2508
▁নল	-10.251
▁আশ্বাস	-10.251
▁নোৱাৰোঁ	-10.2512
▁পৰিয়ালত	-10.2514
▁কার্য	-10.2514
▁সংকেত	-10.2516
হাৰ	-10.252
▁ছপা	-10.2522
▁সাপ	-10.2525
▁ঘ	-10.2527
▁জীৱনটো	-10.2529
▁উদ্ভৱ	-10.254
▁তাৰকা	-10.2546
সং	-10.2546
▁চৰ্ত	-10.2546
▁মদ	-10.2547
▁মৰি	-10.2549
un	-10.2562
▁একেৰাহে	-10.257
▁দায়ূদ	-10.2574
▁থাকক	-10.2574
▁পৰিষদে	-10.2576
▁জাহাজ	-10.2578
কৃত	-10.2584
▁বিশ	-10.2585
▁তলাবন্ধ	-10.259
▁উপস্থিতিত	-10.2598
▁কৰ্কট	-10.26
ষ্টাৰ	-10.26
▁জীয়ৰী	-10.2603
চনৰ	-10.2604
▁প্ৰবন্ধটো	-10.2606
is	-10.2609
▁পুঁজি	-10.2609
▁ধ্যান	-10.2615
▁প্ৰাৰম্ভিক	-10.2615
▁কোকৰাঝাৰ	-10.2619
▁কান্দি	-10.2623
▁শস্যৰ	-10.2632
▁ঈশ্বৰক	-10.2634
▁উপযোগী	-10.2645
▁কাঠৰ	-10.2652
▁অইল	-10.2654
▁বৰ্তমানলৈকে	-10.2654
▁সেৱন	-10.2659
▁উত্তোলন	-10.266
▁মনোবৃত্তি	-10.266
ংক	-10.2663
▁মহ	-10.2666
▁পোনে	-10.267
▁উলিয়াব	-10.2672
▁অৱতীৰ্ণ	-10.2675
▁সোধা	-10.2675
▁মুছলিম	-10.2682
▁সেইয়া	-10.2688
আপ	-10.2695
▁সীমান্তত	-10.2699
▁সতৰ্ক	-10.27
▁মেল	-10.2702
▁বয়সতে	-10.2704
অসমীয়া	-10.2705
sp	-10.2705
▁ৰাখা	-10.2707
▁দায়ূদে	-10.2719
▁ইয়াৰোপৰি	-10.272
▁ৰুজু	-10.2721
▁মহানগৰীৰ	-10.2722
▁ক্লাছ	-10.2725
ভে	-10.2725
▁জৈৱ	-10.2725
▁সম্বন্ধীয়	-10.2725
▁৫০০	-10.2725
▁মিলন	-10.2726
▁উত্তাল	-10.2736
▁স্বাস্থ্যৰ	-10.274
▁শত্ৰু	-10.274
▁নিয়াৰ	-10.2745
▁চাম	-10.275
▁মিচিং	-10.2752
▁সাম্প্ৰতিক	-10.2754
▁প্ৰমাণিত	-10.2756
▁থান	-10.2757
▁জাপি	-10.2757
▁সংস্কাৰ	-10.2758
▁দোষী	-10.276
▁আপোন	-10.2761
▁সমূহক	-10.2763
ত্ৰ	-10.2765
▁শুকান	-10.2766
▁তাতকৈ	-10.2767
▁গণেশ	-10.2768
ইয়াৰ	-10.2768
▁এপ্ৰিলত	-10.277
▁ভোটাৰ	-10.2771
ৰ্চ	-10.2777
▁প্ৰথা	-10.2778
ভিত্তিক	-10.2778
▁ৱিকি	-10.2778
▁নামকৰণ	-10.2781
▁পৰিক্ৰমা	-10.2781
▁সাম্প্ৰদায়িক	-10.2782
▁অনুদান	-10.2783
নত	-10.2783
▁পিচে	-10.2784
▁কিঃমিঃ	-10.2784
▁সংকট	-10.2785
পু	-10.2791
▁জিন	-10.2791
মূল	-10.2797
▁মহিমা	-10.2798
▁সাফল্য	-10.2807
▁কাৰ্যৰ	-10.281
▁কাষৰ	-10.2818
▁যুগত	-10.2819
▁স্বাধীনতাৰ	-10.2825
▁ছোৱালীৰ	-10.2827
▁কলিয়াবৰ	-10.2827
▁পাঠক	-10.2832
▁গ্ৰন্থৰ	-10.2832
▁দ্বি	-10.2834
▁যুক্তৰাষ্ট্ৰৰ	-10.2837
▁বাহিৰেও	-10.2839
▁জ্বলাই	-10.2843
▁শিক্ষকৰ	-10.2845
▁সংঘাত	-10.2845
▁নিজস্ব	-10.2846
▁পৰিপূৰ্ণ	-10.2849
▁জ্বলি	-10.2856
▁হকে	-10.2872
▁গুৰুতৰভাৱে	-10.2872
▁বিনষ্ট	-10.2874
▁অসম্ভৱ	-10.2875
▁ছু	-10.2875
▁বাছি	-10.2877
দ্য	-10.2886
▁কেঁচা	-10.2893
▁শ্ৰম	-10.2894
▁চাবি	-10.2895
me	-10.2896
▁মৰাণ	-10.2899
▁ভৰ	-10.2902
▁পৰিৱৰ্তনৰ	-10.2909
▁মায়া	-10.291
▁খেতিয়ক	-10.2914
ভূমি	-10.2918
▁ব্লক	-10.2924
▁মৰিগাঁও	-10.2928
ীকৰণ	-10.2935
▁বোজা	-10.2941
“	-10.2944
▁সে	-10.2945
▁Asomiya	-10.2951
▁আন্দোলনত	-10.2952
▁নৰ্থ	-10.2953
▁ভাষণত	-10.2953
▁এপ্লিকেচন	-10.2953
▁বিধানসভাৰ	-10.2954
▁সোঁফালে	-10.2957
▁বৃক্ক	-10.2964
▁চলোমন	-10.2966
▁আছিলোঁ	-10.2968
েন্দ্ৰ	-10.2973
▁নাৰীৰ	-10.2973
▁পৰ্বত	-10.2974
▁কথাষাৰ	-10.2975
▁মহামাৰী	-10.2978
▁উল্লেখনীয়	-10.298
▁চাকৰিৰ	-10.2981
▁দুষ্ট	-10.2982
▁মধ্যমীয়া	-10.2983
▁ৰত্ন	-10.2989
বাইল	-10.2995
▁অৱলম্বন	-10.2997
▁বিকশিত	-10.3
▁সজাই	-10.3008
▁নিৰ্ভৰশীল	-10.301
▁ছাঁ	-10.3017
▁ধ	-10.3017
▁সংবাদমেলত	-10.3019
▁মন্ত্ৰীয়ে	-10.303
▁মহোৎসৱ	-10.3031
▁ফেব্ৰুৱাৰীঃ	-10.3035
▁জী	-10.3038
▁মুৰ	-10.3038
মুক্ত	-10.3039
▁ইতিবাচক	-10.3044
▁মুখামুখি	-10.3044
▁অগপ	-10.3045
▁কৰ্মৰ	-10.305
▁ৰূপান্তৰ	-10.3051
▁পোহৰৰ	-10.3052
▁পাছতেই	-10.3057
গুণ	-10.3057
▁দিলোঁ	-10.3059
াং	-10.3061
▁1.	-10.3063
▁তামোল	-10.3066
▁সাৱধান	-10.307
▁f	-10.307
▁গ্ৰুপ	-10.3074
▁পালো	-10.3076
▁কোমল	-10.3076
▁সন্ধানত	-10.3077
ত্ত	-10.3078
▁এলেকা	-10.3082
ion	-10.3088
▁নাজানে	-10.3092
▁গাহৰি	-10.3092
▁দলং	-10.3094
▁সৃষ্টিৰ	-10.3096
▁নেতৃত্বাধীন	-10.3108
নিক	-10.3109
▁খাপ	-10.312
▁শ্বাহ	-10.3123
▁দাৰ্শনিক	-10.3123
▁ফুলৰ	-10.313
▁সন্মানিত	-10.3139
▁প্ৰতিজ্ঞা	-10.3139
▁নাছিলো	-10.3144
AR	-10.3145
▁ভৱন	-10.3147
৪০	-10.3149
▁আজিলৈকে	-10.315
ৰণ	-10.3152
}	-10.3154
▁পঠোৱা	-10.3155
▁আৰোগ্য	-10.3155
▁দৰকাৰ	-10.3162
▁হেজাৰ	-10.317
▁বাণী	-10.3171
▁প্ৰয়োজনীয়তা	-10.3172
▁মনটো	-10.3173
▁গৃহীত	-10.3174
মেণ্ট	-10.3175
▁যিহূদাৰ	-10.3177
▁কছাৰী	-10.318
▁b	-10.3181
▁জনসংখ্যাৰ	-10.3183
▁আলু	-10.3188
কালীন	-10.3189
▁তুলিছিল	-10.3194
▁কাপ	-10.3197
টাই	-10.32
▁আগষ্টত	-10.32
িচ	-10.3202
▁পঞ্জীয়ন	-10.3203
ভাৰত	-10.3206
ুন	-10.3207
ন্দা	-10.3208
▁আইনী	-10.321
to	-10.3213
▁ৰাজ্যপাল	-10.3218
▁ক্ষোভ	-10.3218
▁বোধ	-10.322
▁২০০৩	-10.3227
▁খিনি	-10.3236
[1]	-10.3236
ck	-10.3239
িব	-10.3239
▁ঘোঁৰা	-10.324
▁প্ৰদীপ	-10.3242
▁তৰ্ক	-10.3242
▁বান্দৰ	-10.3244
▁সঙ্গীত	-10.3245
▁দলক	-10.3247
পুৰুষ	-10.3251
দে	-10.3253
▁ধৰিবলৈ	-10.3258
▁নিৰ্	-10.326
▁বনোৱা	-10.3261
▁একাডেমী	-10.3264
▁অৰিহণা	-10.3266
▁ঠাণ্ডা	-10.3267
▁চাপি	-10.3269
▁স্বামীৰ	-10.3269
▁নাইকিয়া	-10.3272
লাখ	-10.3273
▁অৰণ্য	-10.3279
ফুল	-10.328
▁ৰাস্তা	-10.3282
▁ইয়াকে	-10.3282
াংশ	-10.329
▁সমন্বয়	-10.3291
▁পাৰা	-10.3292
▁থাকে৷	-10.3293
▁অধিবক্তা	-10.3299
▁অধ্যক্ষতা	-10.3299
▁গীতমালা	-10.33
lated	-10.3307
▁মেঘালয়	-10.331
▁নায়ক	-10.3311
▁প্ৰজন্মৰ	-10.3313
▁সমীক্ষা	-10.3313
▁পৰাজিত	-10.3317
▁হায়	-10.3324
▁টকাকৈ	-10.3328
▁যৌথ	-10.3331
▁ময়ো	-10.3331
▁অসমীয়াৰ	-10.3342
▁ধৰণ	-10.3344
ছাত্ৰীৰ	-10.335
▁সূত্ৰৰ	-10.3351
▁বিনিময়ত	-10.3353
):	-10.3353
দ্ৰ	-10.3354
সংখ্যক	-10.3359
বছৰ	-10.3359
▁কাৰ্য্যত	-10.3361
▁কৰিয়েই	-10.3361
▁অধিবেশন	-10.3363
▁পঞ্চায়তৰ	-10.3363
▁শিক্ষানুষ্ঠান	-10.3363
▁লাগিব৷	-10.3366
গাঁও	-10.3367
▁সপ্তাহ	-10.337
▁সহযোগিতাৰ	-10.3377
▁বাধ্যতামূলক	-10.3379
▁পৰিয়ালক	-10.3382
▁নগৰত	-10.3384
দল	-10.3384
ঘাট	-10.3389
▁নাজানো	-10.3394
▁দিয়াত	-10.3397
▁ৱেবছাইট	-10.34
▁আনিছিল	-10.3405
▁মোগল	-10.3406
▁প্ৰায়েই	-10.3412
▁আহিলে	-10.3414
▁গীতা	-10.3416
▁এছিয়াৰ	-10.3418
▁আকৰ্ষণীয়	-10.342
▁পঠিয়াই	-10.3421
▁নিচিনাকৈ	-10.3427
▁জাল	-10.3428
▁দৰং	-10.3429
চ্ছ	-10.3431
▁Re	-10.3432
▁আছিলো	-10.3433
▁সীমান্তৰ	-10.3435
▁আঁতৰ	-10.3438
ৱেই	-10.3442
▁সাক্ষ্য	-10.3445
প্ৰাপ্ত	-10.3445
▁সিমান	-10.3449
▁বুজায়	-10.345
▁ঘটনাস্থলীত	-10.3454
▁অৱদানৰ	-10.3462
চোৱা	-10.3462
▁বন্যপ্ৰাণী	-10.3464
▁ঘটনাত	-10.347
▁মূল্যৰ	-10.3471
▁ওলায়	-10.3473
▁খোজে	-10.3474
▁সংস্থাই	-10.3475
▁লৈকে	-10.3477
▁সবাতো	-10.3477
v	-10.3478
▁মানস	-10.3478
▁তেঁওৰ	-10.3479
▁টুইট	-10.348
▁১০০০	-10.3484
শি	-10.3485
▁ফিল্ম	-10.349
▁চিকিৎসকৰ	-10.3493
▁জনতাৰ	-10.3499
▁প্ৰধানমন্ত্ৰীৰ	-10.35
▁বুজাই	-10.3505
▁তো	-10.3507
▁ভায়েক	-10.3508
▁শ্ল	-10.3512
েশ	-10.3512
▁বিৰাট	-10.3514
▁তালিকাৰ	-10.3518
J	-10.3519
মৰা	-10.3524
▁বৰ্ষ	-10.3525
▁ইস্ৰায়েল	-10.3526
ফল	-10.353
▁দুটি	-10.3531
▁চাৰ	-10.3538
▁পূজাৰ	-10.3541
▁ব্ৰাহ্মণ	-10.3542
▁কিলোগ্ৰাম	-10.356
▁নিজক	-10.357
খনে	-10.357
▁এছিয়া	-10.3575
▁অৰ্থনীতিৰ	-10.3575
▁খেলৰ	-10.3578
▁মাহে	-10.3579
খোৱা	-10.358
▁শাস্ত্ৰীয়	-10.3582
▁উপকাৰ	-10.3586
▁ইন্দ্ৰ	-10.3589
▁উৎপাদনৰ	-10.3592
▁চাৰিজন	-10.3593
▁দমন	-10.3594
▁সংগঠনে	-10.3605
▁সোণালী	-10.361
▁হেৰাই	-10.3613
▁৩৪	-10.3613
▁মিত্ৰ	-10.3614
গৰ	-10.3616
▁মেঘালয়ৰ	-10.3618
▁চেক	-10.3619
▁কাৰ্যত	-10.3621
▁এৰা	-10.3621
▁ঢাকি	-10.3627
▁ছাৰে	-10.3628
▁পাৰ্টি	-10.3631
▁বেদ	-10.3637
▁মাই	-10.364
াচ	-10.3646
▁ঘাইপথ	-10.3647
▁ভৱিষ্যতৰ	-10.365
▁ইহুদী	-10.3657
প্ৰতি	-10.3667
▁দেউতাকৰ	-10.3668
▁কলিজা	-10.3676
▁বিপুল	-10.3678
পথ	-10.3678
▁উষ্ণতা	-10.3685
▁বিহাৰ	-10.3691
▁আকৰ্ষিত	-10.3693
▁তি	-10.37
▁চৰিত্ৰত	-10.37
▁সংবাদমেল	-10.3704
▁তৰোৱাল	-10.3705
▁টিকট	-10.3709
▁প্ৰদূষণ	-10.3712
▁আলোচনাত	-10.3717
▁মঞ্চত	-10.3726
▁স্বয়ং	-10.3726
▁ভট্টাচাৰ্য	-10.3729
▁কাকতৰ	-10.373
▁তেজৰ	-10.3731
▁ধৰ্ম্ম	-10.3733
▁ইয়ালৈ	-10.3735
▁অৰ্হতা	-10.3741
▁ইতিহাসত	-10.3745
লহেঁতেন	-10.3749
▁কৰ্তব্য	-10.3757
জিত	-10.3757
▁পৰ্যাপ্ত	-10.376
▁সোৱাদ	-10.376
▁ইমানেই	-10.376
▁অভিনয়ৰ	-10.3761
▁সংক্ৰান্ত	-10.3761
▁যিহোৱাক	-10.3762
▁টুকুৰা	-10.3764
▁প্ৰেৰণা	-10.3765
▁অভাৱত	-10.3771
▁দীৰ্ঘদিন	-10.3772
▁আগমন	-10.3774
▁6.	-10.3775
দেৱে	-10.3775
▁পুস্তক	-10.3775
▁কৰিন্থীয়া	-10.3776
▁আগশাৰী	-10.3777
▁আৰ্	-10.3777
▁স্বৰ্ণ	-10.3778
▁n	-10.378
▁বহা	-10.3784
▁বুলিয়েই	-10.3788
▁বেজবৰুৱা	-10.3789
▁বিবেচিত	-10.3793
▁হলেও	-10.3793
▁তাল	-10.3794
▁আহ	-10.3797
াৰ্ছ	-10.3798
কৰণৰ	-10.3819
▁বাই	-10.3827
▁নিবনুৱা	-10.3827
▁নেতাই	-10.3831
▁গ্ৰন্থখন	-10.3832
▁টুইটাৰ	-10.3833
মিটাৰ	-10.3836
নীতি	-10.3839
▁সেইখিনি	-10.3842
▁ওচৰতে	-10.3845
হাজাৰ	-10.3847
▁আকৃতি	-10.3847
▁ছবিখনত	-10.3848
▁কোঁৱৰ	-10.3848
▁ভিতৰলৈ	-10.3858
▁মেৰামতি	-10.3861
▁তেও	-10.3863
গৰাকীক	-10.3864
১১	-10.3869
েছ	-10.3875
ৱাই	-10.3876
▁উচ্চাৰণ	-10.3878
▁কেইখন	-10.3882
▁বাংলাদেশী	-10.3883
▁কৰ্ণাটক	-10.3883
▁সহযোগ	-10.3884
▁ইংলেণ্ডৰ	-10.3885
▁৩৬	-10.3887
▁জনাব	-10.3892
▁পৰিশ্ৰম	-10.3893
প্	-10.3893
চাই	-10.3894
▁যিদৰে	-10.3899
▁পলম	-10.39
▁হওঁ	-10.39
গান	-10.39
▁আয়োগ	-10.3908
▁স্তৰত	-10.3911
▁খেলি	-10.3911
▁সেনাপতি	-10.392
▁বৰ্ষীয়	-10.3926
▁মুক্তিৰ	-10.3927
▁অন্ততঃ	-10.3929
▁ইংগিত	-10.393
টন	-10.3937
▁বংগ	-10.3938
াক	-10.3939
▁প্রধানমন্ত্রী	-10.3945
▁মন্ত্ৰীৰ	-10.3946
▁পাৰ্টিৰ	-10.3946
ম্বা	-10.3946
▁বিয়লি	-10.3947
▁সালসলনি	-10.3947
▁পক্ষে	-10.3947
▁প্রদান	-10.3948
▁বেমাৰ	-10.395
▁অসংখ্য	-10.3954
▁মুঠতে	-10.3962
বলগা	-10.3965
▁যো	-10.3965
▁পদ্ধতিৰে	-10.397
▁আকাশৰ	-10.3971
▁মোলৈ	-10.3972
▁ৰাজা	-10.3982
▁'%	-10.3983
▁চেল	-10.3985
পশ্চিম	-10.3986
▁পাচ	-10.3987
েন্ট	-10.3992
শুনা	-10.3993
▁ভাগৰ	-10.3995
▁পাঠ্যক্ৰম	-10.3997
▁সঞ্জয়	-10.3998
▁বাঁহৰ	-10.4002
▁অধীন	-10.4006
▁জগত	-10.4006
সাৰ	-10.4013
ন্ন	-10.4013
▁দিওঁ	-10.4015
▁দায়িত্বত	-10.4015
▁বাবেহে	-10.4016
▁ক্ৰমান্বয়ে	-10.4016
se	-10.4016
▁সভাই	-10.4017
▁তেনেই	-10.4017
ve	-10.4018
▁বাগৰি	-10.4026
▁মঙ্গল	-10.403
▁অসুস্থ	-10.4031
▁Paper	-10.4033
▁অভিযানত	-10.4036
▁সাংবাদিকৰ	-10.4038
▁ইহঁতৰ	-10.4042
▁কাজিৰঙা	-10.4042
▁বেল	-10.4044
▁নোট	-10.4045
▁কী	-10.405
▁সমাজে	-10.4052
▁পাতে	-10.4053
▁অৰ্থত	-10.4055
▁এক্স	-10.4055
▁জনোৱাৰ	-10.4058
▁5	-10.4063
!”	-10.4064
▁বুজাবলৈ	-10.4065
ratidin	-10.4068
▁সবিশেষ	-10.4069
▁এইখিনি	-10.4073
▁ভাববাদী	-10.4082
▁ৱে	-10.4084
াৰী	-10.4085
▁হত্যাৰ	-10.4086
▁উপত্যকা	-10.4089
▁প্ৰেমিক	-10.4089
খি	-10.4094
নীয়	-10.4105
em	-10.4105
▁দো	-10.4107
ণৰ	-10.4111
▁অভিযান্ত্ৰিক	-10.4111
▁চিকিৎসালয়	-10.4113
▁সঁচাকৈ	-10.4119
▁নিয়োজিত	-10.412
লিন	-10.4126
▁পুত্র	-10.413
▁থিয়েটাৰ	-10.4134
▁Circu	-10.4137
▁অনুশীলন	-10.4138
▁গঁড়	-10.4139
▁ওলাব	-10.4139
▁উৰি	-10.414
ৱি	-10.415
▁যিহূদা	-10.4152
▁স্থাপনৰ	-10.4154
▁নীতিৰ	-10.4155
▁নগৰখন	-10.4164
জিৎ	-10.4164
▁এড	-10.4167
▁Portal	-10.4172
▁নিয়মিত	-10.4175
▁দেখোন	-10.4176
▁গণৰাজ্য	-10.4176
ডু	-10.4179
▁ৱি	-10.4182
▁কৃষকে	-10.4186
▁বৈদ্যুতিক	-10.4189
▁গাভৰু	-10.4191
ালী	-10.4193
▁ককায়েক	-10.4195
▁বিদ্ৰোহ	-10.4197
▁পাচত	-10.4197
▁নিয়ে	-10.4198
কলা	-10.42
ment	-10.4201
▁কাৰ্যকলাপ	-10.4208
▁বাজি	-10.421
▁জন্মৰ	-10.421
▁দুপৰীয়া	-10.4214
।[8]	-10.4221
▁ডাউন	-10.4221
▁নিবলৈ	-10.4223
▁ভাৰতলৈ	-10.4223
▁কপি	-10.4229
পন	-10.4231
▁শিৱসাগৰৰ	-10.4231
২২	-10.4235
▁বয়	-10.4236
▁সদৃশ	-10.4238
▁স্বচ্ছ	-10.424
গৃহ	-10.4241
▁বিলাক	-10.4241
▁শোণিতপুৰ	-10.4243
▁৭৫	-10.4245
▁মাধৱ	-10.425
▁জ্বৰ	-10.425
ছ্	-10.4251
j	-10.4258
▁লিটাৰ	-10.4259
▁নীল	-10.4263
▁পথাৰৰ	-10.4269
াৰে	-10.4277
▁ভাওনা	-10.4277
▁সজাগ	-10.4281
▁নকৰোঁ	-10.4281
২১	-10.4282
টৰ	-10.4284
▁জনগোষ্ঠী	-10.4284
▁গোস্বামীয়ে	-10.4286
▁লু	-10.4292
▁চালক	-10.4298
ানন্দ	-10.43
▁মাৰ্চৰ	-10.4304
▁পাতিলে	-10.4307
▁চৰণ	-10.4308
▁ক্ৰ	-10.4311
▁7.	-10.4313
▁দলটো	-10.4319
ho	-10.432
▁যিখন	-10.4321
▁পত্নীৰ	-10.4325
▁বেচৰকাৰী	-10.4328
▁তেতিয়াও	-10.433
▁দুবছৰ	-10.4332
▁সন্তোষ	-10.4333
▁প্ৰগতি	-10.4333
▁কমিটিৰ	-10.4334
ম্ভ	-10.4338
ধন	-10.4343
▁শিবিৰ	-10.4345
▁আমেৰিকাত	-10.4346
াহ	-10.4347
ighest	-10.4349
▁একাউণ্ট	-10.4352
▁আংলং	-10.4353
▁সাক্ষাৎকাৰ	-10.4354
▁চিকিতসকে	-10.436
▁এনেবোৰ	-10.4361
▁ৰাজবংশী	-10.4363
▁নেহৰু	-10.4365
ৱতী	-10.4365
▁বিভাগীয়	-10.4377
▁গালি	-10.4377
▁ভালপোৱা	-10.438
▁এইবোৰৰ	-10.4389
▁কাকো	-10.4391
▁উদয়	-10.4392
▁চিন্তাৰ	-10.4394
▁কাৰ্যসূচীৰে	-10.4395
▁সৎ	-10.4396
▁সূত্ৰই	-10.4398
ধান	-10.4401
▁বিশ্বত	-10.4404
▁উইকেট	-10.4408
▁J	-10.4413
▁৪৮	-10.4416
▁উত্তেজনা	-10.4421
▁বৃহত্তৰ	-10.4422
▁নিবাসী	-10.4423
▁মাথোঁ	-10.4423
li	-10.4425
▁আদিয়ে	-10.443
▁ষ্টেট	-10.4433
▁কৃতজ্ঞতা	-10.4434
▁গাড়ীৰ	-10.4436
▁ধাৰণাৰ	-10.4437
মাহ	-10.4439
▁লিপ্ত	-10.444
▁ভিৰ	-10.4443
শ্ৰী	-10.4446
▁প্ৰণয়ন	-10.4446
▁প্ৰজা	-10.4447
ষ্টি	-10.4454
▁অতিবাহিত	-10.4457
▁প্ৰতিফলিত	-10.4459
▁ডিভাইচ	-10.4461
▁m	-10.4461
▁খ্ৰীষ্টৰ	-10.4463
গুৰি	-10.4466
ha	-10.4471
টিন	-10.4472
▁দেখুৱালে	-10.4473
▁সভ্যতা	-10.4475
▁সুৰা	-10.4476
▁জাপানৰ	-10.448
বু	-10.4492
▁সমানে	-10.4492
২৪	-10.4505
াপ	-10.4507
▁বৰণ	-10.4508
▁মাকে	-10.4508
▁পৰেশ	-10.4509
▁চলাইছিল	-10.4523
▁বিবাদ	-10.4525
▁কয়লা	-10.4528
▁বৌদ্ধিক	-10.4535
▁17	-10.454
▁সাঁচ	-10.4545
▁গৰাকীক	-10.4553
▁কণ্ঠ	-10.4555
▁অভিধান	-10.4558
▁প্ৰদৰ্শনী	-10.4559
▁মিত্ৰতা	-10.4559
▁মূৰৰ	-10.4563
▁মন্ত্ৰ	-10.4565
▁দিলে৷	-10.4567
▁আকাৰৰ	-10.4569
▁বিতৰ্কিত	-10.457
▁ৰবি	-10.4572
▁আনৰ	-10.4573
▁লাইট	-10.4575
▁নাগ	-10.4576
▁পৌৰ	-10.4577
চিত	-10.4586
ধা	-10.459
▁মডেল	-10.4592
▁4	-10.4592
▁বতৰা	-10.4593
▁দ্ৰব্য	-10.4594
▁আচাৰ	-10.46
▁মূৰে	-10.46
▁18	-10.4607
▁শইকীয়াৰ	-10.4611
▁বৰ্মন	-10.4615
▁মেচ	-10.4618
▁প্ৰক্ৰিয়াৰ	-10.4619
▁আহিছে৷	-10.4622
▁ভূমিৰ	-10.4622
▁ডাক্তৰ	-10.4622
▁পছন্দ	-10.4625
▁সন্মিলনৰ	-10.4627
▁মালা	-10.4628
▁উৎসৰ্গ	-10.4636
▁মেট্ৰিক	-10.4647
▁চাল	-10.4652
▁ইঞ্জিন	-10.4652
▁ৰেচন	-10.4661
▁ড্ৰাগছ	-10.4664
▁প্ৰতিবাদত	-10.4679
▁সম্ৰাট	-10.468
▁উদ্	-10.4687
ধি	-10.4695
▁সম্পাদন	-10.4698
চনত	-10.4702
▁for	-10.4703
▁এয়াই	-10.4706
▁কৰিলা	-10.4712
▁স্বৰ্গীয়	-10.4712
▁পৰিৱেশৰ	-10.4713
▁জৈন	-10.4714
▁পূৰ্বেই	-10.4716
▁জৈৱিক	-10.4717
▁একপ্ৰকাৰ	-10.4722
জন্ম	-10.4725
▁সমীকৰণ	-10.4725
▁দিয়াটো	-10.4728
▁২০০২	-10.4729
▁থাকিলেও	-10.473
▁তম	-10.4731
▁কিতাপৰ	-10.4736
▁কুকুৰা	-10.4738
▁পুলি	-10.4745
▁এইবিধ	-10.4746
▁ৰাষ্ট্ৰৰ	-10.4746
▁খনন	-10.4748
▁যোজনা	-10.4749
▁অঙ্গ	-10.475
▁পদ্ম	-10.4751
▁খচৰা	-10.4752
▁ইণ্টাৰনেট	-10.4753
▁যাত্ৰী	-10.4754
▁মহকুমাৰ	-10.4757
▁মহিলাক	-10.4757
▁তেতিয়াৰ	-10.4758
▁টেগ	-10.4761
▁নৃত্যৰ	-10.4762
▁তেতিয়াহে	-10.4763
▁সম্পত্তিৰ	-10.4765
▁ঘটি	-10.4767
▁চনলৈকে	-10.477
▁তুলিলে	-10.4771
লেণ্ড	-10.4771
ডাৰ	-10.4775
▁১৫০	-10.4775
গণ	-10.4781
▁মন্ত্ৰালয়ৰ	-10.4784
▁প্ৰতিবাদকাৰী	-10.4788
▁য়ু	-10.4793
▁দাঁত	-10.4797
▁ক্ৰিকেটাৰ	-10.4801
▁ঠাকুৰ	-10.4808
▁শ্ৰীকৃষ্ণ	-10.4809
▁নাহে	-10.4816
▁আত্মীয়	-10.4816
বতৰা	-10.482
বিল	-10.4821
▁গোপাল	-10.4822
The	-10.4823
▁বিবাহৰ	-10.4825
▁কাজ	-10.4825
▁সদস্যৰ	-10.4825
▁Adhikar	-10.4825
▁বোকা	-10.4826
লে৷	-10.4827
▁ৰু	-10.4829
▁পৰামৰ্শৰ	-10.4841
▁চিকিৎসকে	-10.4842
▁Gana	-10.4845
▁কিহৰ	-10.4846
▁পিতৰ	-10.4846
▁আহিলা	-10.4848
▁স্বাৰ্থ	-10.485
▁ৰসায়ন	-10.4851
▁বহুতেই	-10.4852
▁ঘটিল	-10.4855
▁30	-10.4855
কাৰে	-10.4861
▁দৰ	-10.4862
▁আন্তৰিক	-10.4862
▁জুলাইত	-10.4863
▁পদত্যাগ	-10.4863
▁সমালোচক	-10.4865
▁পল	-10.4867
▁লাইন	-10.4868
▁শান্ত	-10.487
▁জান	-10.487
▁কুকুৰ	-10.487
▁হাঁহ	-10.4882
▁আৰক্ষীক	-10.4887
▁কাক	-10.4887
ত্য	-10.4889
▁মৃত্যুক	-10.4892
হৈ	-10.4899
▁গোষ্ঠী	-10.4903
▁ৰাজনীতিত	-10.4906
তহে	-10.4913
▁আয়োগে	-10.4915
▁কাহিনীৰ	-10.4917
▁উশাহ	-10.492
▁প্ৰব্ৰজন	-10.4921
▁নামভৰ্তি	-10.4929
েদি	-10.4936
▁যাদৱ	-10.4936
▁ক্ষতিগ্ৰস্ত	-10.4939
▁পাৰিছে	-10.494
▁মাৰে	-10.494
▁মৃত্যুত	-10.4941
▁শৃংখলা	-10.4944
▁হি	-10.4947
▁বনাই	-10.4948
▁সন্ত্ৰাসবাদী	-10.495
▁বিশ্বাসৰ	-10.4951
▁আগবঢ়া	-10.4952
▁শু	-10.4953
▁পেলাইছিল	-10.496
▁অত্যাৱশ্যকীয়	-10.496
▁প্ৰাক	-10.4961
▁সতে	-10.4964
ঢ	-10.4965
▁স্পষ্টকৈ	-10.4971
,"	-10.4971
▁সমুখত	-10.4971
ধু	-10.4974
▁বিহাৰৰ	-10.4976
▁ঠায়ে	-10.4977
▁সত্যজিৎ	-10.4978
যেনে	-10.4982
▁অন্ধ	-10.4983
ছু	-10.4987
▁শিলৰ	-10.4988
▁মাছৰ	-10.4988
▁জনসাধাৰণক	-10.4991
দ্	-10.4993
▁9.	-10.4994
▁জেনেৰেল	-10.4996
▁নগাঁৱৰ	-10.4998
▁বঙাইগাঁও	-10.4998
▁শতিকা	-10.4999
▁আগবঢ়াইছিল	-10.5
▁লাগে৷	-10.5
▁ৰহস্য	-10.5003
▁ছবিখনে	-10.5013
▁এইয়া	-10.5014
েজ	-10.5017
▁সংকটৰ	-10.5017
▁সফলতাৰ	-10.5022
▁পাহাৰীয়া	-10.5022
ছাৰ	-10.5023
ৰ্টাৰ	-10.5023
▁উত্তৰত	-10.5023
ফাই	-10.5026
ভাই	-10.5027
▁অধ্যায়	-10.5028
▁সমুদ্ৰ	-10.503
▁মাইকী	-10.5032
▁হৰণ	-10.5032
▁প্ৰৱৰ্তন	-10.5034
▁8.	-10.5034
ill	-10.5035
▁11	-10.5039
▁হোটেল	-10.504
▁অলপতে	-10.504
▁নৱম	-10.504
হঁতে	-10.5041
▁পেঞ্চন	-10.505
▁উৎপাদিত	-10.5054
▁ফৰাচী	-10.5055
▁তাৰিখৰ	-10.5064
▁সিঙৰ	-10.5066
▁নাগালেণ্ড	-10.5068
▁যুগুত	-10.5068
▁কুৰি	-10.507
ৰদ্বাৰা	-10.5072
▁প্ৰযোজনা	-10.5072
▁পাঠদান	-10.5074
▁দুদিন	-10.5076
▁মনোভাৱ	-10.5082
▁মিছন	-10.5083
▁দত্তই	-10.5086
▁মাৰিলে	-10.5087
▁চিকিৎসাধীন	-10.5092
▁গ্ৰহ	-10.5093
▁অধীনৰ	-10.5101
ফাৰ	-10.5109
▁দেখিলোঁ	-10.511
▁ইন্দিৰা	-10.5111
িজ	-10.5112
▁মাথো	-10.5118
মত	-10.5118
▁নাগৰিকৰ	-10.5121
▁জোখ	-10.5121
▁চলোৱাৰ	-10.5123
▁যাদু	-10.5125
▁প্ৰক্ৰিয়াটো	-10.5126
ধাৰী	-10.5129
▁খিতাপ	-10.513
▁শ্ৰদ্ধাঞ্জলি	-10.513
▁সম্প্ৰচাৰ	-10.513
▁ঢোল	-10.5136
েট	-10.5136
▁জনজাতিৰ	-10.5142
▁পাতনি	-10.5145
▁সদায়ে	-10.5146
▁বুজিবলৈ	-10.5149
াংগ	-10.5152
▁অনাগ	-10.5153
▁আনফালে	-10.5164
▁নাচ	-10.5168
▁উল্লিখিত	-10.5169
▁সঁচাকৈয়ে	-10.5169
▁এইখিনিতে	-10.5169
▁পৰ্যবেক্ষণ	-10.517
▁বলিদান	-10.517
▁ধৰাৰ	-10.5171
▁জনাইছো	-10.5172
▁সন্মতি	-10.5174
▁12.	-10.5176
▁কোঠা	-10.5176
▁পাক	-10.5178
▁ভাবিব	-10.5178
▁মণিপুৰ	-10.5186
im	-10.5186
▁দৰ্শনৰ	-10.5187
চিত্ৰ	-10.5187
▁সুনিশ্চিত	-10.5188
▁প্ৰতিষ্ঠাপক	-10.5189
▁সততে	-10.5189
ল্ল	-10.519
co	-10.5192
তঃ	-10.5195
▁বিষয়বোৰ	-10.5195
▁চকুৰে	-10.5199
ট্	-10.5199
▁অনুভূতি	-10.5207
▁তীমথিয়	-10.5207
▁মাৰিব	-10.5208
▁দীৰ্ঘ	-10.5209
▁পাখি	-10.521
ভাৱ	-10.5212
▁পৱিত্ৰ	-10.5212
▁ধাৰ্মিক	-10.5214
▁হেৰী	-10.5215
▁গায়ক	-10.522
▁সংগঠনটোৰ	-10.5224
জোৰা	-10.5226
▁শাস্ত্ৰ	-10.5227
▁পৰিত্ৰাণ	-10.5227
▁প্ৰকাৰে	-10.5229
▁পঢ়াৰ	-10.5231
▁ৰথ	-10.5235
আজি	-10.5237
▁নৌ	-10.5237
▁চুই	-10.5237
▁বোকাখাত	-10.5247
▁ফোল্ডাৰ	-10.5247
vi	-10.525
▁নিৰ্মান	-10.5251
▁উত্	-10.5253
▁পৃষ্ঠাত	-10.5253
▁নিযুত	-10.5254
ine	-10.5255
▁সৈনিক	-10.5259
ৱন	-10.5262
যোগ	-10.5262
▁সংযোজন	-10.5266
▁কবলৈ	-10.5267
▁গোন্ধ	-10.5267
▁মাজলৈ	-10.5268
▁ধুই	-10.5269
▁জুনত	-10.5269
১৩	-10.527
▁বহুল	-10.5277
▁জীৱিকা	-10.5279
▁সম্প্ৰদায়	-10.528
▁ইজনে	-10.5285
▁সংকল্প	-10.5286
▁ৰো	-10.5294
ক্ষণ	-10.5295
▁লেখিকা	-10.5298
▁সেনাই	-10.5299
▁বৈধ	-10.5299
▁বক্স	-10.5299
ভাষা	-10.5304
▁শীতল	-10.5306
▁10.	-10.5307
▁কেন্দ্রীয়	-10.5307
▁ভাগি	-10.531
▁অন্ধকাৰ	-10.5311
এটা	-10.5312
▁মংগল	-10.5321
▁অপমান	-10.5322
ৱেল	-10.5323
▁মিছ	-10.5325
▁সাপেক্ষে	-10.5333
▁১৯৯০	-10.5335
▁নিৰ্মাতা	-10.5335
▁লিখনি	-10.5335
▁সন্মিলিত	-10.5345
▁নেতাৰ	-10.5346
▁চাকি	-10.5351
▁আধাৰিত	-10.5352
▁সমাজকৰ্মী	-10.5358
hi	-10.5363
দাস	-10.5364
বােৰ	-10.5366
▁নিদিয়া	-10.537
▁লাগিলে	-10.5373
▁সৌন্দৰ্য	-10.5374
▁ওলাইছে	-10.538
▁আদালতে	-10.5382
▁দিলীপ	-10.5384
▁পুত্ৰৰ	-10.5387
▁শংকা	-10.5405
▁ওদালগুৰি	-10.5407
ানু	-10.541
▁টীয়ক	-10.5411
▁লেখকৰ	-10.5416
▁পঠিওৱা	-10.5424
▁পূৰ্বাঞ্চল	-10.5429
ড্	-10.543
▁চিকিৎসালয়লৈ	-10.5431
ট্ৰ	-10.5435
▁দিগন্ত	-10.5447
▁বাটত	-10.5448
▁মোডী	-10.5453
▁মচি	-10.5456
▁ৰঞ্জন	-10.5459
▁দেৱীৰ	-10.546
▁সন্দিকৈ	-10.5464
▁মনোনয়ন	-10.5464
▁মাতৃভাষা	-10.5465
▁বাওঁফালে	-10.5467
▁15	-10.547
জো	-10.5478
▁চাৰিখন	-10.5479
▁উদ্বোধনী	-10.548
▁আনক	-10.5481
▁ষড়যন্ত্ৰ	-10.5482
▁পজিটিভ	-10.5484
▁মুখ্যমন্ত্ৰীৰ	-10.5485
▁ঘটিব	-10.5486
ভাৰপ্ৰাপ্ত	-10.5487
খু	-10.5488
▁অৱসৰপ্ৰাপ্ত	-10.5489
▁বুটাম	-10.5494
▁সন্ধ্যা	-10.5501
▁যু	-10.5501
▁কেইজন	-10.5502
▁ৰান	-10.5503
▁অভিজ্ঞতাৰ	-10.5503
হঁতৰ	-10.5504
▁ফ্ল	-10.5507
▁ভঁৰাল	-10.551
বিৰোধী	-10.5516
▁ত্ৰিপুৰা	-10.5518
▁অনুপাত	-10.5519
▁বিৰল	-10.552
▁জন্মদিন	-10.5522
েড	-10.5523
িয়াই	-10.5525
▁দ্বাদশ	-10.5528
▁সম্ভৱতঃ	-10.5528
▁কমিটি	-10.5529
ut	-10.5533
▁চুৰ	-10.5537
▁বয়সীয়া	-10.5538
▁ৱিকিপিডিয়াত	-10.554
▁আঁত	-10.5543
প্ৰথম	-10.5543
▁চলাইছে	-10.5546
▁বিৰত	-10.555
▁হৈছো	-10.5553
দাই	-10.5553
দী	-10.5557
বী	-10.5557
▁বৰং	-10.5559
▁শিখ	-10.5561
▁ডেস্ক	-10.5562
▁বাদ্য	-10.5564
▁ব্যৱহাৰিক	-10.5565
্ত	-10.5571
▁খ্যাতি	-10.5573
▁দেশতে	-10.5577
ate	-10.5578
ধৰ্ম	-10.5579
▁চিকিৎসালয়ৰ	-10.5582
▁বৃহত্তম	-10.5585
▁ঢৌ	-10.5585
গাওঁ	-10.5587
▁বিশুদ্ধ	-10.5588
▁পুনঃ	-10.559
▁গ্ৰহন	-10.559
▁গাৰো	-10.5595
▁প্ৰবেশ	-10.5597
▁দিবা	-10.5599
▁পিছদিনা	-10.56
▁পালি	-10.5602
▁পাচলি	-10.5606
▁ব্যৱহাৰকাৰী	-10.5608
▁গংগা	-10.5616
▁জনগোষ্ঠীয়	-10.5618
▁সামগ্ৰিক	-10.562
▁সমস্যাটো	-10.5621
▁দেউতাকে	-10.5621
▁আশীৰ্বাদ	-10.5625
▁কোষৰ	-10.5626
▁মূখ্য	-10.5629
▁নেদেখিব	-10.563
▁থাকিম	-10.5631
▁পঞ্চ	-10.5631
▁স্বভাৱ	-10.5631
▁তিৰোতা	-10.5632
▁ভালে	-10.5635
▁মাইক্ৰ	-10.5637
▁টন	-10.5637
ঢ়	-10.564
▁বিচাৰিলে	-10.5644
▁সময়তো	-10.5649
▁শিক্ষাৰ্থী	-10.5649
▁সত্ৰৰ	-10.565
পূৱ	-10.565
▁সহায়ৰ	-10.5653
▁ষ্টেচন	-10.5654
▁চৌ	-10.5654
মাৰী	-10.5655
▁বিৰোধ	-10.5655
▁মিশ্ৰ	-10.5658
▁মণিপুৰৰ	-10.5662
▁অৱশ্যেই	-10.5663
▁দেশজুৰি	-10.5668
▁কলম	-10.5669
স্প	-10.5673
▁কাশ্মীৰ	-10.5675
▁উন্নতিৰ	-10.5677
",	-10.5678
েক্ট	-10.5678
▁নজনা	-10.568
▁সৰবৰাহ	-10.5681
্ম	-10.5683
▁বিমানবন্দৰ	-10.5683
▁হস্তক্ষেপ	-10.5686
▁ইন্ধন	-10.5686
▁মছজিদ	-10.5687
▁মহৎ	-10.5688
▁উপকৃত	-10.5689
▁অংকন	-10.569
ালি	-10.5694
▁১৯৮০	-10.5695
▁In	-10.5699
ity	-10.57
ak	-10.57
▁সবল	-10.57
▁নকৰাৰ	-10.5702
▁বিচাৰো	-10.5703
▁কাৰ্যনিৰ্বাহ	-10.5704
়	-10.5705
▁নতুবা	-10.5707
▁চিৰকাল	-10.5709
▁যত	-10.571
▁অংশৰ	-10.571
▁বোমা	-10.5711
▁$$	-10.5712
ul	-10.5713
াত্মক	-10.5718
৮০	-10.572
কৃষ্ণ	-10.5724
▁মহাৰাষ্ট্ৰ	-10.5734
▁ব্যৱসায়ৰ	-10.5735
মিন	-10.5735
▁স্তৰৰ	-10.5738
▁ভাগ্য	-10.574
▁প্ৰদৰ্শনৰ	-10.574
সংস্কৃতি	-10.574
▁ঘৰটো	-10.5741
▁ৰজাক	-10.5745
▁এলবাম	-10.5748
▁পৌল	-10.5748
▁কিশোৰী	-10.5749
▁নিশ্চয়কৈ	-10.575
▁বাসস্থান	-10.5755
▁12	-10.576
ল্লা	-10.576
▁বিবাহপাশত	-10.5768
▁আপলোড	-10.5768
▁আঙুলি	-10.5769
▁১৯৪৭	-10.5769
▁গৃহমন্ত্ৰী	-10.5769
▁জানিছিল	-10.5771
গীত	-10.5771
েচন	-10.5771
▁কণ	-10.5774
▁১৯৭১	-10.5775
▁নিজেও	-10.5783
▁ভাৰতক	-10.5786
▁ভঙা	-10.5787
di	-10.579
▁আদান	-10.58
ষা	-10.5801
▁ললে	-10.5801
▁তন্ত্ৰ	-10.5802
▁যিচয়া	-10.5802
ছাত্ৰীয়ে	-10.5805
▁পদ্ধতিত	-10.5807
বস্তু	-10.5808
▁যাত্ৰাৰ	-10.5808
▁বসতি	-10.5809
▁ভৰিৰ	-10.5809
▁মিহলি	-10.5809
▁বিচ্ছিন্ন	-10.5817
ia	-10.5828
▁লোকপিয়ল	-10.5831
▁জীয়েক	-10.5832
▁বিশ্বতে	-10.5833
▁ভৌতিক	-10.5836
▁গাৰ	-10.5836
▁অভয়াৰণ্য	-10.584
▁দূত	-10.5843
।‘	-10.5847
▁ঔষধৰ	-10.5854
▁ডিস্ক	-10.5857
▁দৰা	-10.5858
▁ৰেলৱে	-10.5859
▁খালি	-10.5861
▁এজনৰ	-10.5864
▁বৈষ্ণৱ	-10.5864
▁কাৰ্য্যসূচী	-10.5866
ent	-10.5867
▁বিনা	-10.5868
▁পিতা	-10.5874
▁ফু	-10.5881
▁ওলাল	-10.5882
▁নাচি	-10.5885
▁আছেনে	-10.5889
কোষ	-10.5892
▁আগৰৱালা	-10.5894
▁বীমা	-10.5896
▁বিদ্যুত	-10.5897
পী	-10.5904
নক	-10.5905
▁পাতৰ	-10.591
▁ভনী	-10.5913
▁সকাহ	-10.5913
▁নিমখ	-10.5915
কোটি	-10.5915
▁যুৱতী	-10.5921
ুম	-10.5926
▁স্বৰ্গদেউ	-10.5927
▁নিগমৰ	-10.5929
কণ	-10.5929
▁ৰোমান	-10.5932
▁নিষেধাজ্ঞা	-10.5934
▁নিবেদন	-10.5934
▁সম্পূর্ণ	-10.5934
▁ভাৰসা	-10.5936
▁ৰাশি	-10.5943
▁মিঞা	-10.5945
ৰাজ্য	-10.5949
▁লো	-10.5949
▁খুৱাই	-10.5954
▁গৌতম	-10.5955
▁গতিত	-10.5956
জয়	-10.5958
▁ডিব্ৰুগড়ৰ	-10.5959
▁আন্তঃগাঁথনি	-10.596
৬০	-10.5964
▁স্বাক্ষৰিত	-10.5965
স্থান	-10.5966
কৰ্তা	-10.5968
▁মহাৰাজ	-10.5974
উপ	-10.5975
▁গেছৰ	-10.5976
▁পাৰস্পৰিক	-10.5976
য়ান	-10.5981
▁বিপ্লৱ	-10.5982
▁দেখুৱাইছে	-10.5986
ৰ্ছ	-10.599
▁নম্বৰৰ	-10.5995
▁সত্যতা	-10.5998
▁বিন	-10.5999
▁গোস্বামীৰ	-10.6
▁ইণ্ডিয়াৰ	-10.6001
ঁহ	-10.6004
▁ৰপ্তানি	-10.6005
▁জন্তু	-10.6006
▁লক্ষ	-10.6009
▁চৌহদত	-10.6009
▁মাজুলীৰ	-10.6012
▁ক্ষেত্ৰখনত	-10.6014
▁মেন	-10.6017
▁উপগ্ৰহ	-10.602
সাহিত্য	-10.6025
▁বলত	-10.6026
▁কাজিয়া	-10.6026
▁দিলো	-10.6026
om	-10.6027
▁প্ৰতাপ	-10.6028
▁গুলী	-10.6029
তাক	-10.6029
▁জাপান	-10.6032
▁সঙ্গী	-10.6035
▁দুবাৰ	-10.6038
▁দেখুৱাওক	-10.604
▁বন্দৰ	-10.604
▁সভাখনত	-10.6048
পূৰ্বাঞ্চলৰ	-10.605
▁মানুহজন	-10.6051
▁ভাড়া	-10.6055
▁পোষণ	-10.6058
▁আকৃতিৰ	-10.6058
▁be	-10.6059
▁প্ৰধানকৈ	-10.606
▁উত্থাপিত	-10.6061
▁প্ৰণৱ	-10.6061
বৈদেশিক	-10.6061
▁উত্থান	-10.6061
▁খেলপথাৰত	-10.6061
▁ডেকাই	-10.6069
▁৪২	-10.6079
▁জীৱনলৈ	-10.608
mo	-10.6082
▁দ্বায়িত্ব	-10.6082
▁অক্সিজেন	-10.6082
▁সম্পৰ্কৰ	-10.6085
▁ৰক্ষাৰ	-10.6091
▁কবিতাৰ	-10.6092
▁মিলাই	-10.6093
ল্ট	-10.6096
্স	-10.6097
▁অনুষ্ঠানটোত	-10.6097
▁দুয়োৰে	-10.6098
▁ছাৰৰ	-10.6101
▁প্ৰাণীৰ	-10.6102
ৱী	-10.6103
▁নৈতিক	-10.6104
৩৫	-10.6107
▁এচাম	-10.6109
,”	-10.6111
দৈ	-10.6116
▁পাও	-10.6116
▁টাইপ	-10.612
▁ৰাখক	-10.6125
▁সংলগ্ন	-10.6125
মুখ	-10.6125
▁ঘাট	-10.6126
পূ	-10.6127
▁১৯৫০	-10.6127
নীৰ	-10.6128
▁সূ	-10.6129
tion	-10.6134
▁নিদি	-10.6138
▁সহ্য	-10.6138
মূৰ	-10.6138
▁কুল	-10.6141
▁ঋতু	-10.6146
।[	-10.6149
▁আদৰ	-10.615
ুদ্দিন	-10.6151
▁তালুকদাৰ	-10.6153
▁অনন্য	-10.6153
▁লিখাৰ	-10.6154
▁জীৱৰ	-10.6156
▁চহকী	-10.6167
▁নির্মাণ	-10.6168
সৰ্বমুঠ	-10.6168
▁ক্ষতিকৰ	-10.6174
▁ডাঙৰীয়া	-10.6177
▁অতীত	-10.6178
▁হাবি	-10.6183
▁সাহসী	-10.6183
▁সদস্যই	-10.6188
াদি	-10.6189
▁অধিষ্ঠিত	-10.6189
▁অৰ্পণ	-10.6189
▁জয়লাভ	-10.619
▁বিশ্বজুৰি	-10.6192
▁পেনেল	-10.6192
▁সন্মত	-10.6192
▁শিকিব	-10.6194
্যু	-10.6195
▁এখনত	-10.6198
▁মোচিয়ে	-10.6201
▁চৰিত্ৰৰ	-10.6202
শী	-10.6203
▁বাৰৰ	-10.6204
▁দেৱাল	-10.6205
▁সভ্যতাৰ	-10.6206
▁পুৰি	-10.6207
▁দৃষ্টান্ত	-10.6209
▁মঙলদৈ	-10.621
▁সোনোৱাল	-10.6211
▁জলি	-10.6217
▁জীৱন্ত	-10.6219
▁নাট্যকাৰ	-10.6222
চাৰি	-10.6224
▁পাৱাৰ	-10.6227
▁অঞ্চলটো	-10.623
▁সফলতাৰে	-10.6231
▁যিহোচূৱা	-10.6232
▁আৱাস	-10.6233
▁অতিকৈ	-10.6236
▁অধিনায়ক	-10.6238
ide	-10.6242
প্ত	-10.6246
থে	-10.625
্ন	-10.6251
▁প্ৰাৰ্থীৰ	-10.6251
▁পিতৃয়ে	-10.6251
▁ষ্ট্ৰ	-10.6252
ভূত	-10.6252
ঙে	-10.6253
▁গৱেষনা	-10.6253
▁প্ৰভাৱশালী	-10.6256
▁প্ৰসৱ	-10.6259
▁11.	-10.6264
and	-10.6264
▁বিতৰ্ক	-10.6264
▁ওপৰতে	-10.6265
সকৰ	-10.6267
▁মাঘ	-10.6268
▁কৰায়	-10.6269
▁দেউতা	-10.6269
▁অধি	-10.6269
▁কৰোঁতা	-10.627
▁প্ৰযোজক	-10.6278
ছোৱালী	-10.6279
▁দেউতাৰ	-10.628
▁অন্যায়	-10.6283
▁অৱস্থাতে	-10.6288
▁বিদ্ৰোহী	-10.6291
▁by	-10.6292
▁মৃতক	-10.6294
কৰি	-10.6295
ue	-10.6298
▁যোৰহাটত	-10.6299
▁যোগ্যতা	-10.6306
সুবিধা	-10.6313
▁শুনিলে	-10.6313
▁কেৰিয়াৰ	-10.6314
গুৰু	-10.6314
▁তদন্তৰ	-10.6317
▁কলিকতা	-10.6318
▁ফলক	-10.6319
▁অৱৰোধ	-10.6319
▁পুৰাণ	-10.632
▁শিকা	-10.632
▁নিচা	-10.6325
▁পক্ষৰ	-10.6328
▁লওঁ	-10.6333
▁বিধেয়কখন	-10.6337
▁আল্লাহৰ	-10.6338
▁একাউন্ট	-10.634
▁শি	-10.634
▁হিচাপত	-10.6341
▁সময়চোৱাত	-10.6344
▁বুজাবুজিৰ	-10.6346
▁নানান	-10.6346
ex	-10.6347
ন্দ্ৰ	-10.6349
টকা	-10.6351
▁সাম্ৰাজ্য	-10.6351
▁এমাহ	-10.6356
▁প্ৰেৰিত	-10.6362
▁সেয়াই	-10.6363
হাই	-10.6363
▁সকলোতে	-10.6365
তকৈয়ো	-10.6366
▁ঋষি	-10.6366
▁পুতি	-10.6368
▁নব	-10.6369
২৮	-10.6369
▁বুকুৰ	-10.6371
কেইখন	-10.6372
তী	-10.6373
▁সংসাৰ	-10.6375
চিৰ	-10.6375
▁বুলিলে	-10.6379
▁পক্ষ	-10.638
▁বাক্সা	-10.6384
▁লাচিত	-10.6385
▁কেমেৰা	-10.6387
▁পাতিব	-10.6392
▁ক্ষমতাৰ	-10.6393
▁2021	-10.6396
্ছ	-10.6398
ড়ি	-10.6402
▁আসনৰ	-10.6404
▁সংক্ৰমিত	-10.6406
দীপ	-10.6406
▁নিদৰ্শন	-10.6407
োন	-10.6408
▁গাধ	-10.6409
▁জ্ঞানী	-10.6411
▁বছৰি	-10.6411
▁বুকু	-10.6412
▁কিছুদিনৰ	-10.6414
▁দুয়োজন	-10.6417
▁মাথোন	-10.6417
▁বেৰ	-10.642
▁ব্যতিক্ৰম	-10.6421
▁মেঘ	-10.6421
▁যোজনাৰ	-10.6423
ক্ৰম	-10.6425
▁পৰ্যালোচনা	-10.6428
▁প্ৰত্যাহাৰ	-10.6428
▁প্ৰতিবছৰে	-10.643
ান্ত	-10.6431
▁পতি	-10.6432
ya	-10.6439
▁আহিছো	-10.6439
▁হৈছোঁ	-10.644
▁ভোজ	-10.6445
মেলা	-10.6447
▁বহুকেইটা	-10.6447
▁চৰকাৰখনে	-10.6448
▁অজ্ঞাত	-10.645
▁হালধীয়া	-10.645
▁নমুনা	-10.645
▁৩৮	-10.6451
▁বিজুলী	-10.6453
▁নেতৃত্বৰ	-10.6458
▁মুখখন	-10.6461
বিদ্যা	-10.6464
▁নাক	-10.6466
▁মনো	-10.647
▁ব্ৰিটেইন	-10.6472
▁ধুমুহা	-10.6473
▁আবেগ	-10.6474
্তা	-10.6477
▁আৰৱ	-10.6479
কালৰ	-10.6492
▁নহলে	-10.6494
▁পলায়ন	-10.6496
▁বনাঞ্চলৰ	-10.6498
োৱাৰ	-10.6499
one	-10.65
▁গোলকীয়	-10.6502
▁স্ক	-10.6514
▁ভয়াৱহ	-10.6514
▁কৃষ্ণৰ	-10.6515
▁ভূটান	-10.6516
▁বো	-10.6516
।[9]	-10.6518
পট	-10.6523
▁আছু	-10.6523
▁ৰাণ	-10.6525
▁হাড়	-10.653
▁টাইম	-10.6533
▁বিঘা	-10.6535
▁লিখে	-10.6539
▁অপৰাধী	-10.654
পাচলি	-10.654
▁দায়ুদ	-10.6542
▁৩০০	-10.6544
▁খেলখন	-10.655
▁আক্ৰমণত	-10.6551
▁দিনাই	-10.6554
▁উদ্যোগৰ	-10.6555
▁কোনটো	-10.6556
▁মৰমৰ	-10.6558
▁আলোক	-10.6562
ৃত	-10.6563
ফৰ	-10.6564
▁কামাখ্যা	-10.6566
২৩	-10.6568
ant	-10.657
▁নেটৱৰ্ক	-10.6575
▁অগপৰ	-10.6575
▁গুজৰাটৰ	-10.6577
▁গ্ৰাহক	-10.6578
▁চেণ্টাৰ	-10.658
▁কাৰণেই	-10.6581
▁পৰিণাম	-10.6583
▁Next	-10.6583
▁নিৰ্ম্মাণ	-10.6583
▁এনিমেছন	-10.6583
▁যিজনে	-10.6584
▁আত্মহত্যাৰ	-10.6587
▁কেইখনমান	-10.6587
▁জামিন	-10.6591
▁সকলোৱেই	-10.6595
▁মনেৰে	-10.6597
▁মৰ্মে	-10.6601
▁সেউজ	-10.6608
▁চিকাৰী	-10.661
▁কেবিনেটৰ	-10.6615
▁মুম্বাইত	-10.6615
▁মমতা	-10.6616
▁এজনক	-10.6617
▁এইসকল	-10.6627
▁এজাহাৰ	-10.6628
▁ফেব্ৰুৱাৰীৰ	-10.6635
▁১৯৯৯	-10.6639
▁একেখন	-10.6639
▁ইতিমধ্যেই	-10.6639
▁Ma	-10.6641
▁মুখে	-10.6641
তত্ত্ব	-10.6642
▁দেউৰী	-10.6643
মন্ত্ৰী	-10.6645
▁বাছক	-10.6645
▁সেয়াও	-10.6647
▁অকাডেমি	-10.665
স্তা	-10.6651
▁উচ্ছেদ	-10.6651
▁লক্ষ্মীনাথ	-10.6652
▁বুজোৱা	-10.6653
▁ৱৰ্ল্ড	-10.6657
▁চিঞৰ	-10.6657
▁ব্যক্তিত্ব	-10.6664
▁দেও	-10.6664
▁ছোৱালীক	-10.6665
দেশ	-10.6667
▁অধিকাৰৰ	-10.6672
▁যোচেফ	-10.6673
▁আমদানি	-10.6673
▁চিন্তিত	-10.6673
▁অৱতাৰ	-10.6675
▁দৈ	-10.6676
হিত	-10.668
▁কেবিনেটে	-10.668
▁সমান্তৰালকৈ	-10.668
মেন্ট	-10.6684
গ্ৰা	-10.6688
মালা	-10.669
▁চৌধুৰীয়ে	-10.6691
▁৫৫	-10.6691
▁মেক	-10.6693
▁প্ৰতিষেধক	-10.6696
৪৮	-10.6704
▁শিৰোনাম	-10.6708
▁অৰ্জুন	-10.6711
ফু	-10.6715
▁সূতা	-10.6716
▁বাবদ	-10.6719
▁সোমোৱা	-10.6719
▁ঘটনাক	-10.672
ক্ত	-10.672
বাহী	-10.6721
▁নাকচ	-10.6722
▁মুখেৰে	-10.6724
▁মৰ্চাৰ	-10.6728
▁ফুটা	-10.6728
নিৰ	-10.673
▁বহুদিন	-10.673
▁w	-10.6732
▁বন্ধুত্ব	-10.6737
ষ্টা	-10.6737
▁দেই	-10.6741
▁সাংগঠনিক	-10.6741
▁চিনেমাৰ	-10.6751
▁ব্যতিক্ৰমী	-10.6752
▁ডেৰ	-10.6761
▁গৈছে৷	-10.6764
▁শুভবাৰ্ত্তা	-10.6764
▁সোধ	-10.6765
▁অসুখ	-10.6766
পুত্ৰ	-10.6766
সামাজিক	-10.6767
▁ৱাই	-10.6767
▁তেৱেঁই	-10.6769
▁ৰূপান্তৰিত	-10.677
▁সৰস্বতী	-10.6771
▁প্লে	-10.6773
▁এলেকাৰ	-10.6773
▁আস্থা	-10.6777
▁শিক্ষাবিদ	-10.6777
▁বোৱা	-10.6784
▁জাত	-10.6785
▁বর্তমান	-10.6786
▁ভৌগোলিক	-10.6786
▁স্বৰ্গ	-10.6788
▁কাছাৰ	-10.6791
▁ডাটা	-10.6801
▁উঠাৰ	-10.6804
▁গুপ্ত	-10.6805
▁দাগ	-10.6806
▁অভিষেক	-10.6809
▁হিংসাত্মক	-10.6814
▁যজ্ঞ	-10.6816
▁টীম	-10.6816
▁দুৰ্গ	-10.6818
▁কাশ্মীৰৰ	-10.6821
▁কর্ম	-10.6821
ৰ্ক	-10.6823
▁প্ৰেমত	-10.6827
বাদৰ	-10.6829
গ্	-10.6833
▁১৯৬০	-10.6834
▁কেজি	-10.6835
▁আনন্দৰ	-10.6836
বৰ্ণ	-10.6838
▁প্ৰা	-10.6841
▁গাড়ীখন	-10.6844
▁সংগী	-10.6848
▁দিহা	-10.6852
▁আদালতত	-10.6852
কৰ্ম	-10.6852
▁কান	-10.6854
▁ভাষাৰে	-10.6855
▁কণ্ঠশিল্পী	-10.6855
ট্ট	-10.6856
▁মল	-10.6856
▁ইঞ্চি	-10.6859
সম্পন্ন	-10.6862
▁প্ৰদেশত	-10.6864
দিয়া	-10.6866
▁বঢ়াই	-10.6871
স্বৰূপে	-10.6871
▁কৰ্মচাৰীৰ	-10.6872
যদি	-10.6873
▁কলকাতাৰ	-10.6874
▁নকল	-10.6874
▁সত্ৰীয়া	-10.6885
▁সদ্য	-10.6885
সমুহ	-10.6889
▁জানুৱাৰীঃ	-10.6892
মাতৃ	-10.6899
▁মাৰ্কিন	-10.6902
পুৰৰ	-10.6908
দ্বয়	-10.6908
▁মোডীয়ে	-10.6912
ৰ্গ	-10.6913
▁৪৪	-10.6917
▁আশে	-10.6918
▁পৰাগ	-10.6919
▁ছাইট	-10.6921
▁অগ্নিকাণ্ড	-10.6921
▁চন্দন	-10.6922
▁নিমন্ত্ৰণ	-10.6924
▁হানি	-10.6925
নিয়ম	-10.6927
লাইন	-10.6927
▁হিংসা	-10.6929
গন	-10.6931
▁টেব	-10.6934
▁সংযোগী	-10.6936
জুৰি	-10.6938
▁কলিতাই	-10.6943
).	-10.6944
▁দেখে	-10.6948
▁কইনা	-10.695
▁সংগঠনটোৱে	-10.6956
▁De	-10.6958
▁ঘাঁহ	-10.6958
▁মঞ্চৰ	-10.6959
▁সন্তানক	-10.696
ায়ন	-10.696
▁লগেই	-10.6961
ang	-10.6961
▁দিনটোৰ	-10.6963
▁খাম	-10.6965
▁মানুহজনে	-10.6965
▁জানুৱাৰীৰ	-10.6966
▁বৰ্ষপঞ্জী	-10.6971
▁জনাবলৈ	-10.6972
▁বিধেয়কৰ	-10.6973
▁বিলিয়ন	-10.6973
▁অবিকল্পিত	-10.6975
▁সংখ্যাটো	-10.6977
▁13.	-10.6979
িটি	-10.6981
ter	-10.6982
কৰ্মী	-10.6986
▁বাঢ়িছে	-10.6986
▁উন্নীত	-10.6988
▁সাহিত্যত	-10.6989
▁প্ৰভাৱৰ	-10.699
▁দিৱসত	-10.6995
▁জোৰা	-10.6995
▁বোৱাৰী	-10.6996
▁নাছিলোঁ	-10.6997
▁কেশৱ	-10.6998
▁দুখৰ	-10.7
▁মনোজ	-10.7
▁পূ	-10.7005
▁আহিছোঁ	-10.7005
▁ট্ৰেক্টৰ	-10.7009
▁ভক্ত	-10.7009
▁ভিত্তিক	-10.7011
▁৬৫	-10.7011
াৰি	-10.7012
AN	-10.7015
▁ডাঠ	-10.7016
▁আগলৈকে	-10.7017
▁গঢ়াৰ	-10.7018
▁আফ্ৰিকা	-10.702
▁লোকচান	-10.702
▁ডিজাইন	-10.7021
▁জোন	-10.7022
বিচাৰ	-10.7032
এচ	-10.7035
AT	-10.7036
▁ছাই	-10.7037
নং	-10.7037
▁দিনবোৰ	-10.704
▁বাহু	-10.704
তোমাৰ	-10.7041
▁দৌৰ	-10.7044
▁মহন্তই	-10.7046
▁কনিষ্ঠ	-10.7049
▁গোষ্ঠীৰ	-10.7049
গতি	-10.7057
▁নিৰ্বাহ	-10.7058
▁ইহঁতে	-10.7058
▁সদায়েই	-10.7061
▁অন্তৰ্ভূক্ত	-10.7062
▁শব্দটোৰ	-10.7064
▁ভয়ত	-10.7071
▁নাগা	-10.7079
▁29	-10.7083
▁বিতৰ্কৰ	-10.7086
▁উলিয়ায়	-10.7089
▁সোমাল	-10.7092
▁উৎসৰ	-10.7097
▁বাৰ্তালাপ	-10.7098
▁কৰিছা	-10.7102
▁14	-10.7102
▁সংগ	-10.7103
▁স্কুললৈ	-10.7104
তোমালোকে	-10.7107
▁;	-10.7108
▁প্ৰশাসক	-10.7111
▁চায়	-10.7111
ৰোগ	-10.7112
▁নিদিব	-10.7112
▁কোম্পানীয়ে	-10.7114
▁পতিত	-10.7115
▁শীঘ্ৰেই	-10.7117
▁ঘনিষ্ঠ	-10.712
▁১৯৭০	-10.7121
লাভ	-10.7124
▁কাৰ্যকাল	-10.7127
▁মিঠা	-10.7129
িল	-10.713
▁ত্ৰিশ	-10.7133
▁তেলৰ	-10.7133
▁অনিল	-10.7133
▁চিত্ৰনাট্য	-10.7133
▁তুলসী	-10.7134
▁পোছাক	-10.7135
সৰ	-10.7135
ৰাত	-10.7135
▁এটাও	-10.7139
▁সুখৰ	-10.7141
▁সিংহৰ	-10.7142
▁কাহিনীটো	-10.7142
▁অৰুণ	-10.7143
ce	-10.7144
▁আৰ্থ	-10.7149
গছ	-10.7149
কোনো	-10.7154
▁মুহূৰ্তত	-10.7155
▁নাতি	-10.7156
▁সমাদৰ	-10.7159
বদ্ধ	-10.7161
▁মেপ	-10.7161
▁চলিবলৈ	-10.7163
▁সমান্তৰালভাৱে	-10.7163
।[10]	-10.7165
▁সম্পৰ্কিত	-10.7166
▁প্ৰতিমা	-10.7174
ষ্ট্ৰ	-10.7176
▁কেনেকুৱা	-10.7183
▁ফৈদৰ	-10.7187
▁ভাবিলে	-10.7193
▁ভাও	-10.7193
সেৱা	-10.7195
tic	-10.7195
▁বন্তি	-10.7195
▁গৰুৰ	-10.7197
সে	-10.7197
ছাগ	-10.72
বিলাকক	-10.7201
▁মন্ত্রী	-10.7202
▁পুৰুষে	-10.7202
▁সমগ্র	-10.7206
▁দুজনী	-10.7208
দেৱৰ	-10.7211
▁প্ৰতিক্ৰিয়াৰ	-10.7213
▁পাইছিলো	-10.7214
[5]	-10.7217
▁চাৰে	-10.7223
▁আছা	-10.7238
▁প্ৰথমবাৰ	-10.7239
▁জনাৰ	-10.724
▁সমুহ	-10.7245
▁পথেৰে	-10.7246
▁ভয়াবহ	-10.7246
▁দেখিব	-10.7251
[2]	-10.7252
▁দুটাৰ	-10.7252
▁বিজেপিক	-10.7253
▁স্থগিত	-10.7253
▁ভয়ানক	-10.7253
▁শুকাই	-10.7254
নাত	-10.7256
▁লিমিটেড	-10.7257
ন্না	-10.726
▁মণ্ডলীৰ	-10.7264
▁দক্ষ	-10.7265
▁গ্ল	-10.7265
▁ওপৰতো	-10.7266
▁যুৱকে	-10.7266
▁গামোচা	-10.7266
▁চলচ্চিত্ৰত	-10.727
▁গোপনে	-10.7275
গী	-10.7277
▁পুথিভঁৰাল	-10.7277
▁দুগুণ	-10.7279
▁নাপাব	-10.7282
াস	-10.7282
▁১৯৯৮	-10.7287
▁নেপাল	-10.7287
no	-10.7288
লগৈ	-10.7288
▁বিস্ফোৰণ	-10.7291
ভাল	-10.7293
সভা	-10.7294
▁সমান্তৰাল	-10.7296
▁গগৈক	-10.7298
▁কপিৰাইট	-10.7301
▁ক্ল	-10.7302
▁পিছপৰা	-10.7304
▁টকীয়া	-10.7304
▁মিহি	-10.731
ক্ষেত্ৰ	-10.7311
▁পৰিবৰ্তনৰ	-10.7313
▁ভোটদান	-10.7318
▁মাধ্যমে	-10.7318
▁ডিফু	-10.732
ক্ৰমে	-10.7321
▁মন্ত্ৰালয়ে	-10.7322
বৰ্তমান	-10.7322
▁চোৱাৰ	-10.7323
▁বৰ্তমানলৈ	-10.7324
▁মাচুল	-10.7325
▁সমাগত	-10.7326
সময়ত	-10.7328
▁ক্লাব	-10.7328
▁শৈলী	-10.7329
▁ৰোৱা	-10.7329
▁গুজৰাট	-10.7329
▁গ্ৰন্থত	-10.733
▁ফ্ৰান্স	-10.7333
▁নেচনেল	-10.7337
▁মহাবিদ্যালয়খন	-10.734
মহিলা	-10.7341
ৱাল	-10.7341
▁অমৰ	-10.7345
▁কোনোমতে	-10.7347
▁উন্মোচিত	-10.7349
▁ফিল্মফেয়াৰ	-10.7349
▁সমবায়	-10.7349
▁দলিত	-10.735
▁বজোৱা	-10.735
▁চাও	-10.7351
▁বাইদেউ	-10.7353
▁মগজু	-10.7357
কুমাৰ	-10.7358
▁ঢালি	-10.736
▁অজিত	-10.7362
ৱালা	-10.7363
▁ভকত	-10.7364
▁ক্লাৱৰ	-10.7365
▁বাক্যৰ	-10.7369
৯০	-10.737
▁কোঠাত	-10.7372
চল	-10.7373
▁নপৰে	-10.7378
মাল	-10.7381
▁১৯৯১	-10.7382
াৱলী	-10.7383
▁পৰ্য্যায়	-10.7383
▁ব্ৰ	-10.7385
নিত	-10.7393
▁13	-10.7394
▁ভোক	-10.7395
জ্ঞান	-10.74
▁প্ৰহাৰ	-10.7402
ৰাষ্ট্ৰীয়	-10.7405
▁অন্যথা	-10.741
▁।"	-10.741
কম	-10.741
▁প্ৰচাৰৰ	-10.7415
খে	-10.742
পূৰ্ব	-10.7421
▁শান্তিৰ	-10.7422
▁পুঁজিৰ	-10.7422
মহা	-10.7426
▁চীনে	-10.7426
▁ধোৱা	-10.7426
▁ক্ষয়	-10.7428
▁বিপদৰ	-10.743
▁দিয়ে৷	-10.7434
▁নিশ্চয়ে	-10.7442
▁দেখুৱায়	-10.7444
▁আৰ্ট	-10.7445
গ্ৰস্ত	-10.7446
▁ষ্টুডিঅ	-10.7446
▁আলোকপাত	-10.7447
▁সিদিনা	-10.7449
▁বটদ্ৰৱা	-10.745
▁কোঁচ	-10.745
সকলেও	-10.745
▁সিন্ধু	-10.7451
▁কৰিও	-10.7455
▁মন্ত্ৰালয়	-10.7455
▁এওঁ	-10.7459
▁বাইবেলে	-10.7461
▁কুমাৰে	-10.7467
ব্ৰ	-10.7469
▁বিৰাজ	-10.7469
▁দৰ্শক	-10.7472
▁ভোগালী	-10.7473
▁প্ৰায়বোৰ	-10.7478
▁হোৱাকৈ	-10.7478
▁হিতাধিকাৰী	-10.748
▁৭২	-10.7482
pe	-10.7489
▁অনুপ্ৰাণিত	-10.7495
▁প্ৰযুক্তিবিদ্যা	-10.7499
▁বিদেশ	-10.75
▁কৰ্মীয়ে	-10.7507
ভূ	-10.7508
শিল্পী	-10.7508
▁নাযাব	-10.751
ধৰণৰ	-10.7513
প্ৰতিদ্বন্দ্বিতা	-10.752
▁পাছৱাৰ্ড	-10.752
▁ঔদ্যোগিক	-10.752
▁যুক্তৰাষ্ট্ৰ	-10.752
জাতি	-10.7522
▁তাকেই	-10.7524
ডৰ	-10.7524
▁পঠাই	-10.7527
▁বিষয়ববীয়া	-10.7528
▁শুনানি	-10.7528
▁১৯৬২	-10.7528
বজাৰ	-10.7535
▁চেতনা	-10.7536
▁বোলছবি	-10.7537
▁স্বতন্ত্ৰ	-10.7538
এইচ	-10.7538
▁পক্ষী	-10.754
▁পুলিচৰ	-10.754
ist	-10.7543
▁সন্নিবিষ্ট	-10.7544
▁তাৰপাছত	-10.7544
▁নাগালেণ্ডৰ	-10.7546
▁বুঢ়াগোহাঁই	-10.7546
▁দলিয়াই	-10.7548
▁বৰ্জন	-10.7549
▁পৰাজয়	-10.7552
▁গৃহৰ	-10.7553
কালি	-10.7557
▁শিল্পীৰ	-10.7558
▁বাহিনীয়ে	-10.756
▁দৃষ্টিভংগী	-10.7565
▁পত্ৰিকা	-10.7568
▁কমিউনিষ্ট	-10.7569
▁মৈদাম	-10.7569
talk	-10.7571
▁কোনাে	-10.7572
▁আগুৰি	-10.7573
শ্ৰ	-10.7574
▁এচিড	-10.7575
▁এছিয়ান	-10.7576
▁on	-10.7578
▁সংঘৰ্ষ	-10.7581
▁ফোনটো	-10.7581
▁সর্ব	-10.7583
▁এটাত	-10.7584
ive	-10.759
▁উৎকৃষ্ট	-10.7593
▁চামগুৰি	-10.7595
▁চলিছিল	-10.7599
▁কাৰণতে	-10.7601
▁পেটৰ	-10.761
▁ভূত	-10.761
▁হাইড্ৰ	-10.7611
িট	-10.7611
▁হেৰুৱা	-10.7615
▁আৱেগ	-10.7615
▁অত্যাধিক	-10.7618
▁ঠেলি	-10.7618
▁কলাৰ	-10.762
▁জনসাধাৰণে	-10.762
▁এৱাৰ্ড	-10.762
▁প্ৰশান্ত	-10.762
▁আঁকি	-10.7623
ধৰ্মী	-10.7626
ot	-10.7628
কৰা	-10.7628
▁থু	-10.7629
▁দুৰ্যোগ	-10.7629
▁বটল	-10.7633
▁বাস্তৱতে	-10.7633
য়াই	-10.7633
su	-10.7633
▁বিক্ষোভ	-10.7633
▁সৰঞ্জাম	-10.7635
▁বঁটাৰ	-10.7641
▁হিতোপদেশ	-10.7643
▁এফালে	-10.7643
বৰ্ধিত	-10.7643
▁সুলভ	-10.7645
▁মহোৎসৱত	-10.7645
.)	-10.7645
▁মুল	-10.7649
▁খনি	-10.7649
মাটি	-10.7649
▁পুৰণা	-10.765
▁কিন্ত	-10.7652
▁উদ্যানৰ	-10.7654
▁বসু	-10.7654
▁১৯৯৬	-10.7655
▁১৯৭২	-10.7655
▁চিনেমাখন	-10.7656
ুক	-10.7659
▁কম্পিউটাৰৰ	-10.7663
▁৪১	-10.7666
▁এনেদৰেই	-10.7667
▁উপপাদ্য	-10.7668
▁মাদ্ৰাজ	-10.7669
▁কাকতত	-10.767
▁দ্বিতীয়টো	-10.767
▁যমুনা	-10.7674
▁থা	-10.7682
▁যীচুক	-10.7683
▁ৰাছিয়াৰ	-10.7686
▁আমনি	-10.7686
▁সো	-10.7689
সী	-10.7689
▁বংগৰ	-10.7689
▁তৃণমূল	-10.7693
▁ভেড়া	-10.7694
জল	-10.7696
▁ডিঙিত	-10.7697
▁নোলোৱাকৈ	-10.77
▁বস্তুবোৰ	-10.77
্টি	-10.7701
▁তেজপুৰৰ	-10.7701
▁আয়োজক	-10.7711
▁মীন	-10.7714
▁বিজ্ঞানীসকলে	-10.7714
▁আঁৰত	-10.7722
▁উত্তৰণ	-10.7724
▁সেইসময়ত	-10.7729
্ট	-10.773
যোৰ	-10.7742
▁সৰ্ববৃহৎ	-10.7743
▁জৰ্জ	-10.7746
▁জোৱাৰ	-10.7747
▁প্ৰবল	-10.7747
▁তামুলপুৰ	-10.7749
ান্বিত	-10.775
▁যিজন	-10.7751
▁ষ্টেডিয়ামত	-10.7752
▁ঋণৰ	-10.7755
▁চাফা	-10.7756
মাৰি	-10.7758
▁ৰাষ্ট্ৰসংঘৰ	-10.776
ৰ্প	-10.7763
চিন	-10.7765
▁ৰাজস্থান	-10.7767
▁স্নায়ু	-10.7767
▁বিষাক্ত	-10.7768
▁বায়	-10.7769
লেট	-10.7769
দো	-10.7769
▁সজোৱা	-10.777
▁সম্পদৰ	-10.777
▁মূলত	-10.7772
▁সংসদত	-10.7774
▁দুৰ্	-10.7776
▁ছো	-10.7782
▁মুখা	-10.7785
▁শিতানত	-10.7787
▁অভিভাৱক	-10.7793
▁পঞ্চাশ	-10.7793
▁স্বেচ্ছাসেৱী	-10.7793
েচ	-10.7793
UTC	-10.7794
▁পট	-10.7794
▁অংশীদাৰ	-10.7795
োতে	-10.7795
▁হেমন্ত	-10.7795
▁14.	-10.7798
গ্ৰ	-10.7804
▁খাল	-10.7804
▁খ্ৰীষ্টানসকলে	-10.7805
▁আঁতৰত	-10.7809
▁তিনিবাৰ	-10.781
▁16.	-10.7815
োৱে	-10.7817
▁প্ৰফুল্ল	-10.7818
▁শোভাযাত্ৰা	-10.7819
▁অভিযোগত	-10.7821
▁গৰ্ভ	-10.7821
ৰ্ব	-10.7823
▁চিকত	-10.7825
▁সমতল	-10.7825
▁সাম্ৰাজ্যৰ	-10.7826
▁বাবু	-10.7828
শু	-10.7829
▁লক্ষণীয়	-10.7831
▁t	-10.7847
▁অংশটো	-10.7849
▁নিক্ষেপ	-10.7849
▁পোন্ধৰ	-10.785
▁উগ্ৰ	-10.785
▁সভাপতিত্বত	-10.7851
▁লোকেই	-10.7851
র	-10.7855
▁ফুৰে	-10.7857
▁U	-10.7858
▁হাস্পতালত	-10.7862
▁ট্ৰ	-10.7862
▁বাবা	-10.7867
▁সাংবিধানিক	-10.7869
▁আধিপত্য	-10.7869
▁হেৰুওৱা	-10.7869
▁ৰমেশ	-10.7869
▁লূক	-10.7869
▁পদাৰ্থৰ	-10.7871
ন্দি	-10.7878
▁আইকন	-10.7879
▁জীৱনী	-10.7883
▁বেজবৰুৱাৰ	-10.7886
▁সন্মিলনত	-10.7886
▁বিষয়েও	-10.789
▁ওৰফ	-10.7891
▁সৌভাগ্য	-10.7894
▁কুঁহিয়াৰ	-10.7895
▁সন্নিৱিষ্ট	-10.7895
▁থাকোঁ	-10.7895
▁এপ্ৰিলৰ	-10.7897
মুৱা	-10.79
▁ঔ	-10.7903
লগা	-10.7906
▁ডাই	-10.7906
▁লক	-10.7908
▁শিৰোনামা	-10.7913
▁ব্যবহাৰ	-10.7916
ণ্ডি	-10.7916
▁বাগ	-10.7919
নেল	-10.7921
▁মাটিকালি	-10.7922
▁প্ৰচেষ্টাত	-10.7922
▁প্ৰতিমূৰ্তি	-10.7923
▁ধূলি	-10.7925
▁l	-10.7928
ক্ষী	-10.7931
▁এফৰ	-10.7933
▁সপ্তাহৰ	-10.7933
হেঁতেন	-10.7936
ল্	-10.7938
২৯	-10.7938
▁মধু	-10.7941
▁ঐক্য	-10.7945
▁গধূলি	-10.7946
▁জিলিকি	-10.7946
▁নলী	-10.7947
▁মহিলাগৰাকীয়ে	-10.7948
▁উলটি	-10.7949
▁মিজোৰাম	-10.795
শিক্ষা	-10.7955
▁নম্ৰ	-10.7956
▁ধু	-10.7958
তাত	-10.7961
▁প্ৰণালীৰ	-10.7962
▁হিম	-10.7963
ঠি	-10.7965
bi	-10.7966
▁ধৰ্ষণ	-10.7967
▁অসুবিধাৰ	-10.7967
▁অষ্ট্ৰেলিয়াৰ	-10.797
▁অনুপ্ৰয়োগ	-10.7972
▁তাপমাত্ৰা	-10.7972
▁অমূল্য	-10.7976
▁আহিবলগীয়া	-10.7982
ষ্টে	-10.7982
▁৩৯	-10.7983
৪৫	-10.7984
▁প্ৰমোদ	-10.7985
ca	-10.7987
▁কিতাপখনৰ	-10.7987
মানৰ	-10.7988
▁বন্ধা	-10.799
▁মাতৃয়ে	-10.7991
ৰ্য্য	-10.7992
▁ইব্ৰী	-10.7996
প্ৰায়	-10.7997
▁ধাৰণাটো	-10.8002
▁তৎপৰতা	-10.8006
iv	-10.8008
▁ভাৰতবৰ্ষত	-10.8013
▁প্ৰাৰ্থীসকলে	-10.8017
▁পুতলা	-10.8023
▁পাতিছিল	-10.8026
▁হেক্টৰ	-10.8026
mi	-10.803
▁বাঘৰ	-10.8031
▁৪০০	-10.8032
▁দাসক	-10.8032
নীয়া	-10.8033
▁re	-10.8035
▁নাটকৰ	-10.8035
▁is	-10.8037
▁গৃহত	-10.8037
po	-10.8038
▁জগ	-10.8039
▁ড্ৰ	-10.8039
▁দৃষ্টিৰে	-10.8039
▁সোঁত	-10.8039
ইট	-10.804
ধৰা	-10.8041
▁কথাছবি	-10.8045
ন্ড	-10.8047
▁প্ৰবন্ধৰ	-10.8047
▁চমূৱেল	-10.8049
▁অচিৰেই	-10.8049
▁বৰগোহাঞি	-10.8049
▁পূৰ্ণিমা	-10.8049
ge	-10.805
▁জন্মগ্ৰহণ	-10.8051
▁অঁকা	-10.8052
▁বিবেক	-10.8053
▁সাধনা	-10.8054
▁অসমতো	-10.8063
▁গেট	-10.8063
▁2019	-10.8064
▁হ্ৰদ	-10.8067
▁ফেন	-10.807
লোৱা	-10.807
▁বৰঠাকুৰ	-10.807
▁কোৰোণা	-10.8073
৭৫	-10.8074
▁চাদৰ	-10.8074
▁চোকা	-10.808
চ্চ	-10.8081
▁একোৱেই	-10.8085
▁প্ৰক্ৰিয়াত	-10.8086
▁হস্তান্তৰ	-10.8086
▁তে	-10.8086
সংস্কৃতিৰ	-10.8086
▁লীগ	-10.8088
pi	-10.8088
do	-10.8094
▁আৰম্ভণিৰ	-10.8097
চুৰ	-10.81
▁আৱেদন	-10.8101
▁স্থাপত্য	-10.8101
▁অনুচ্ছেদ	-10.8101
▁মৰাৰ	-10.8101
▁প্ৰশিক্ষক	-10.8101
▁যাৱতীয়	-10.8102
বাহ	-10.8103
▁দীপ	-10.8103
▁ঘণ্টাৰ	-10.8103
য়ন	-10.8106
▁আউট	-10.8107
লাম	-10.8109
▁ৰয়েল	-10.811
▁শীত	-10.8112
▁ভুগি	-10.8116
▁দেৱতাৰ	-10.8117
▁সমাৰোহ	-10.8119
org	-10.812
▁নগল	-10.8121
▁ফাইলসমূহ	-10.8123
বনে	-10.8124
▁এইবিষয়ে	-10.8127
▁অবিৰত	-10.8129
▁চকী	-10.8129
▁ৰক্তচাপ	-10.8133
▁টাটা	-10.8136
▁গছত	-10.8137
▁হাউচ	-10.8138
▁ছবিসমূহ	-10.8144
▁বিংশ	-10.8146
▁এক্সপ্ৰেছ	-10.8146
▁পাঁচজন	-10.8151
▁বৈদিক	-10.8153
▁ওপৰিও	-10.8153
▁লিপিবদ্ধ	-10.8153
▁সৰহ	-10.8153
▁মেকুৰী	-10.8155
▁লং	-10.8159
িড	-10.8159
▁চুপাৰ	-10.8161
▁ব্ৰহ্মা	-10.8162
▁ভাবিছিল	-10.8162
▁অপহৰণ	-10.8165
দুৱাৰ	-10.8171
▁শিশুক	-10.8172
▁নিয়ন্ত্ৰণৰ	-10.8174
▁ঠিকেই	-10.8176
▁সম্পর্ক	-10.8177
দন	-10.8177
▁পকা	-10.8178
▁গৰ্ভাবস্থা	-10.8179
▁সিটো	-10.818
▁চলাবলৈ	-10.8182
▁দেশসমূহৰ	-10.8182
▁বানপানী	-10.8184
ish	-10.8185
চিয়া	-10.8186
▁উন্নীতকৰণ	-10.8186
▁পৰিঘটনা	-10.8187
▁বৰঞ্চ	-10.8187
▁লণ্ডনৰ	-10.8189
▁দৃশ্যমান	-10.819
▁শ্বাহে	-10.8197
▁পদ্মশ্ৰী	-10.8206
▁পেন	-10.8207
লিক	-10.8208
▁ৰোমীয়া	-10.8208
▁সমৰ্থ	-10.8208
▁পেশী	-10.8209
▁বিপিএফ	-10.8211
টিং	-10.8211
▁কৰ্	-10.8214
▁পুত্ৰক	-10.8215
va	-10.8215
▁টোকা	-10.8215
▁সৌৰ	-10.8219
▁হেম	-10.822
▁বিবৃতি	-10.8221
▁ভাগৱত	-10.8226
▁অফিচত	-10.8227
▁দেব	-10.8229
মনি	-10.823
▁বৰদলৈয়ে	-10.823
▁ভুক্তভোগী	-10.8231
▁দস্তাবেজ	-10.8233
▁মাধৱদেৱ	-10.8233
▁খোলাৰ	-10.8234
▁কাল্পনিক	-10.8237
িঙ	-10.8237
▁নেওগ	-10.824
▁ভাৰতবৰ্ষ	-10.8241
▁এইবুলি	-10.8241
▁দত্তৰ	-10.8244
▁শৰ্মাক	-10.8244
▁পৰীক্ষণ	-10.825
চত	-10.8255
▁পৃথিৱীখন	-10.8257
▁অত্যাধুনিক	-10.8258
▁গ্ৰামীণ	-10.8258
▁১৯৪৮	-10.826
▁অশান্তি	-10.8261
▁অসাধাৰণ	-10.8262
▁কিছুসংখ্যক	-10.8265
▁ফটোখন	-10.8271
▁স্নেহ	-10.8274
▁একোখন	-10.828
হত	-10.8283
েণ্ড	-10.8284
ুপ	-10.8284
দিনা	-10.8284
▁ৰাজ্যসভাৰ	-10.8284
▁নক্সা	-10.8284
▁ভৱিষ্যতবাণী	-10.8285
▁কেনেধৰণৰ	-10.8286
▁প্ৰভুৰ	-10.8286
▁ছেকেণ্ড	-10.8286
▁দেউতাই	-10.8287
▁ফাৰ্ম	-10.8289
▁জুনিয়ৰ	-10.829
চক	-10.8293
ga	-10.8295
▁শতাব্দীৰ	-10.8299
▁এৰে	-10.8299
▁বেছ	-10.8301
▁বাওঁ	-10.8302
▁দুটাকৈ	-10.8302
ভাৰতীয়	-10.8303
▁অধিৱেশন	-10.8306
▁পাৰ্বত্য	-10.8311
▁প্ৰকল্পত	-10.8311
▁ছিৰিজ	-10.8313
▁ধাৰ্য	-10.8313
▁দাহ	-10.8318
শাস্ত্ৰ	-10.8319
▁গাঁৱলৈ	-10.8321
▁ঘোষিত	-10.8324
▁সমাপ্তি	-10.8328
▁খাৰ	-10.8329
▁ৰঙিয়া	-10.833
$$	-10.8332
যুগ	-10.8334
▁সুমুৱাই	-10.8334
▁লাইব্ৰেৰী	-10.8337
▁সামূহিক	-10.8337
▁পাঠকৰ	-10.8339
▁বন্ধুৰ	-10.834
▁বদলি	-10.8341
▁নিগম	-10.8343
গ্ৰহ	-10.8344
▁de	-10.8345
▁জনগণৰ	-10.8346
▁সীমাবদ্ধ	-10.8346
▁15.	-10.8348
▁সন্তুষ্টি	-10.8349
▁৪৬	-10.835
▁ৰাজপথত	-10.8354
▁জনীয়া	-10.8354
▁বাপেক	-10.8355
Country	-10.8364
▁কৰ্মশালা	-10.8365
▁পকী	-10.8365
াঞ্চল	-10.8366
▁আগবঢ়োৱাৰ	-10.8369
▁গঙ্গা	-10.8369
all	-10.8371
▁শাল	-10.8371
▁আন্না	-10.8372
▁তেতিয়াহ	-10.8373
পেন	-10.8376
▁চালি	-10.8376
▁নকৰিবলৈ	-10.838
▁বিনামূলীয়াকৈ	-10.8381
▁সিমানেই	-10.8384
de	-10.8386
▁মেধি	-10.8387
প্ৰসাদ	-10.8389
▁সৰুৰে	-10.839
▁সঘন	-10.839
▁কমপিউটাৰ	-10.8391
▁খোজকাঢ়ি	-10.8391
▁ৰন্ধন	-10.8391
▁মাহেকীয়া	-10.8391
▁অটল	-10.8391
▁পাঁচনিৰ	-10.8392
▁আদিপুস্তক	-10.8393
য়ু	-10.8397
▁পেট্ৰল	-10.8399
▁কলিকতাৰ	-10.8399
▁মণ্ডলৰ	-10.8399
▁১৯৮৫	-10.8403
ণ্ডা	-10.8403
▁আলফাৰ	-10.8404
▁জ্যোতিপ্ৰসাদ	-10.8404
িছে	-10.8406
▁কৰ্মজীৱন	-10.8406
▁ডিচেম্বৰৰ	-10.8406
ni	-10.8407
▁তিব্বত	-10.8408
▁তেতিয়ালৈকে	-10.8409
চেন	-10.841
▁স্প	-10.8411
মোহন	-10.8414
▁মাৰিবলৈ	-10.8414
▁সংঘৰ্ষৰ	-10.8415
▁গ্ৰহণযোগ্য	-10.8416
ti	-10.8417
▁উদ্ধৃতি	-10.8419
▁সকলাে	-10.842
sh	-10.842
▁ট্ৰাষ্ট	-10.8421
▁বাটৰ	-10.8423
▁কামবোৰ	-10.8429
▁হােৱা	-10.8431
▁চাপৰ	-10.8432
টোলৈ	-10.8433
▁কোৰোনা	-10.8434
ক্ল	-10.8439
www	-10.8444
▁ধীৰে	-10.8444
সামগ্ৰী	-10.8444
নতুন	-10.8445
ঙি	-10.8446
ান্তৰ	-10.8448
সমাজ	-10.8448
▁ইংলেণ্ড	-10.8449
ab	-10.8449
▁ফ্ৰান্সৰ	-10.8449
▁মহিলাসকলৰ	-10.8452
▁এনেতে	-10.8453
[3]	-10.8453
▁প্ৰাপ্তি	-10.8455
▁দূৰৰ	-10.8462
▁ঢাল	-10.8462
ন্দৰ	-10.8464
▁শিক্ষকতা	-10.8464
▁ভনীয়েক	-10.8466
▁পঞ্জী	-10.8466
▁বুজাব	-10.8467
▁উলিয়াইছে	-10.8468
চৰ্চা	-10.847
▁সেইবোৰক	-10.8471
▁ব্যৱস্থাত	-10.8472
▁কৃতিত্ব	-10.8473
▁প্ৰতিকাৰ	-10.8473
▁প্ৰতিকূল	-10.8475
▁গি	-10.8475
▁খানৰ	-10.8476
▁গ্ৰাস	-10.8477
▁অমৃত	-10.8478
▁আৱ	-10.8478
স্বা	-10.8479
▁বিস্তাৰিত	-10.848
বৰ্গ	-10.8481
▁India	-10.8481
ৱৰ্তী	-10.8485
ব্যৱস্থা	-10.849
▁হাতলৈ	-10.8493
▁সন্মিলনী	-10.8493
▁সুন্দৰী	-10.8494
▁অক্ষম	-10.8495
▁খোল	-10.8495
▁উপত্যকাৰ	-10.8497
▁সংকটজনক	-10.8501
▁কৰুণ	-10.8502
▁মায়ে	-10.8502
▁সোনকালেই	-10.8506
▁সম্	-10.8509
▁পাইছোঁ	-10.8512
▁শিক্ষকে	-10.8516
বলি	-10.8516
▁উলিয়াবলৈ	-10.8516
কোৱা	-10.8519
?’	-10.8522
কুছি	-10.8522
▁মাপ	-10.8525
▁কেলেণ্ডাৰ	-10.8526
▁হাগ্ৰামা	-10.8526
▁নকৰো	-10.8526
▁ব্যক্তিসকলৰ	-10.853
▁বিচাৰক	-10.8532
▁গভীৰতা	-10.8532
▁দাঁতিত	-10.8532
▁কাজিৰঙাৰ	-10.8534
▁দেখুৱাইছিল	-10.8535
▁পোক	-10.8537
মাতৃৰ	-10.8538
man	-10.854
টিয়া	-10.8541
▁ফেচবুকত	-10.8541
▁বাগিচা	-10.8545
নাৰায়ণ	-10.8552
▁প্ৰাধান্য	-10.8553
▁নিবিচাৰে	-10.8553
▁দুগ্ধ	-10.8553
▁পৰিভ্ৰমণ	-10.8553
▁সৰ্বভাৰতীয়	-10.8553
৫০০	-10.8554
nb	-10.8556
হঁত	-10.8568
▁বিনয়	-10.8571
▁আসনত	-10.8571
পান	-10.8572
গিৰি	-10.8573
▁দেখিছিল	-10.8576
ূৰ	-10.8577
▁ত্ৰিপুৰাৰ	-10.8577
▁সীমাৰ	-10.8578
▁নিৰাপদ	-10.8578
▁মোকাবিলা	-10.858
▁দ্বিপাক্ষিক	-10.858
▁সঘনাই	-10.8582
▁বঢ়া	-10.8583
▁থাকোতেই	-10.8594
▁দেখিছে	-10.8596
▁ছেপ্টেম্বৰত	-10.86
▁চাওঁ	-10.8602
▁প্রস্তুত	-10.8606
▁অর্থাৎ	-10.8607
▁গণবাৰ্তা	-10.8608
▁লেটিন	-10.8609
▁অগ্নিকাণ্ডৰ	-10.8612
▁আন্ত	-10.8618
▁সোঁৱৰণী	-10.8619
▁আগবাঢ়িব	-10.8619
▁পতন	-10.8622
▁18.	-10.8623
২৭	-10.8626
মেইল	-10.8627
ধৰণে	-10.8629
▁জাতিক	-10.8633
▁শিকি	-10.8634
▁জ্যামিতি	-10.8634
▁ইনস্টল	-10.8635
▁বিভাগটো	-10.8636
ণ্ডাৰ	-10.864
▁কৈছোঁ	-10.8642
▁ফাইনেলত	-10.8642
▁সিংহাসন	-10.8643
[4]	-10.8645
▁খুজি	-10.8646
▁জ্বলা	-10.8649
মাত্ৰ	-10.8654
▁আলোচনীৰ	-10.8656
▁গুৱাহাটীলৈ	-10.8657
▁বাগিচাৰ	-10.8658
পুৰত	-10.8661
▁ৱিকিমিডিয়া	-10.8662
▁সংলাপ	-10.8662
▁নিতৌ	-10.8662
▁খান্দি	-10.8663
▁পচন্দ	-10.8663
▁চাঞ্চল্যৰ	-10.8666
▁মিলা	-10.8666
সঙ্গ	-10.867
▁কোণ	-10.867
▁নবীন	-10.8672
▁তিল	-10.8677
্ৰী	-10.8678
▁নিৰ	-10.8679
▁দায়ী	-10.8681
▁ষ্টাৰ	-10.8684
▁ৰাষ্ট্ৰপতিৰ	-10.8687
▁শালমাৰা	-10.869
▁এইগৰাকী	-10.869
”,	-10.8694
▁বহুকেইখন	-10.8698
lu	-10.8699
▁যোগাৰ	-10.8699
▁য়া	-10.87
ক্র	-10.8707
▁খুন্দা	-10.8708
▁জ্যামিতিৰ	-10.8711
▁ইংৰাজীত	-10.8713
▁জিলাখনত	-10.8713
াৰ্থ	-10.8714
▁এয়াৰ	-10.8716
▁কাউন্সিল	-10.8717
▁অন্যহাতে	-10.8719
▁মোচি	-10.8723
ৰ্ত	-10.8723
▁ঠিকাদাৰ	-10.8725
▁নমাই	-10.8726
▁প্ৰচেষ্টাৰ	-10.8726
▁বিহ	-10.8729
ৰ্ডৰ	-10.8731
▁ৰুম	-10.8734
▁পৰিলে	-10.8737
▁ব্ৰহ্মাণ্ড	-10.874
▁ৰোগীক	-10.874
ba	-10.8743
▁কাৰখানা	-10.8744
▁আত্মপ্ৰকাশ	-10.8746
▁প্ৰিয়ংকা	-10.8746
খৰ	-10.8747
▁অগ্ৰণী	-10.8748
▁আদৰি	-10.8748
▁পেলোৱাৰ	-10.8749
▁সৃষ্ট	-10.875
▁আন্ধাৰ	-10.8751
প্ৰধান	-10.8752
▁পূৰ	-10.8754
▁মূ	-10.8757
টী	-10.8759
▁ৰিজ	-10.876
▁উমান	-10.877
েৱা	-10.877
বেদ	-10.877
ানা	-10.8772
▁অনুসূচীত	-10.8772
▁মাৰাত্মক	-10.8774
৭০	-10.8775
শতাংশ	-10.8775
▁তোক	-10.8775
লেহে	-10.878
প্ৰাণ	-10.8781
হাট	-10.8782
▁ম্যানমাৰৰ	-10.8784
▁Ad	-10.8784
▁মানৱীয়	-10.8784
▁পৰিদৰ্শক	-10.8784
▁সন্মুখৰ	-10.8784
বোৰো	-10.8786
কেন্দ্ৰ	-10.8786
▁পিঠি	-10.8788
হাত	-10.8789
▁মনোৰঞ্জন	-10.8795
▁অকলশৰীয়া	-10.8801
▁আঘাতপ্ৰাপ্ত	-10.8802
▁বৰপেটাৰ	-10.8802
▁শলাগ	-10.8803
▁চাৰ্ভাৰ	-10.8804
মিক	-10.8805
▁প্ৰভাব	-10.8807
আন	-10.8807
▁17.	-10.8816
টোকে	-10.8817
▁যাকোব	-10.8817
▁সঞ্চালন	-10.8819
▁চেতিয়া	-10.882
▁ষ্টল	-10.882
▁বিছাৰি	-10.882
▁আমালৈ	-10.8825
▁ৰাও	-10.8826
▁আগবাঢ়িছে	-10.8827
▁সম্পাদিত	-10.8829
▁আৰাধনা	-10.8829
▁অৱনতি	-10.8829
▁বিটিআৰ	-10.8829
▁শচীন	-10.883
গল	-10.8832
▁ফেল	-10.8835
▁আগতীয়াকৈ	-10.8835
▁ভগ্নী	-10.8836
▁প্ৰশ্নসমূহ	-10.8837
ৰ্ম	-10.8838
▁শিক্ষান্ত	-10.8841
▁চিটি	-10.8841
ঝ	-10.8841
▁বেক	-10.8842
▁লগতো	-10.8843
▁মোচিৰ	-10.8843
ৰ্থ	-10.8845
▁বুলিব	-10.8846
▁হাল	-10.8848
▁মনি	-10.8849
দাতা	-10.8852
▁উপাচাৰ্য	-10.8854
▁সঞ্জীৱ	-10.8855
▁অশুচি	-10.8857
▁পট্টা	-10.8859
▁8	-10.8861
▁সেইবাবেই	-10.8866
▁চলচ্চিত্ৰখন	-10.8872
▁বেলি	-10.8875
▁বাকলি	-10.8875
াইন	-10.8876
▁পৰ্ব	-10.8877
▁বিদ্যমান	-10.8885
▁নিৰূপণ	-10.8885
▁খেৰ	-10.8888
▁আহিল৷	-10.8888
▁দলটোক	-10.8889
▁ৱেবচাইট	-10.8892
▁ইমেইল	-10.8895
▁বিদ	-10.8898
▁আদিৰে	-10.8901
▁পিনে	-10.8904
▁অন্তৰ	-10.8905
▁তাৰেই	-10.8905
দ্বীপ	-10.8909
পূবৰ	-10.8911
▁কণমানি	-10.8913
▁বৃষ্টিপাত	-10.8913
হাগ	-10.8915
▁লীলা	-10.8917
▁ধাৰাৰ	-10.8918
▁টেঙা	-10.8918
▁উদ্ভিদৰ	-10.8918
▁মহাসাগৰ	-10.8923
▁নোম	-10.8927
▁দেৱালয়	-10.8928
▁তামিলনাডুৰ	-10.8928
▁পশ্চিমে	-10.8932
▁মানদণ্ড	-10.8932
জীৱি	-10.8934
▁পিচ	-10.8937
ইড	-10.8937
▁ঘা	-10.8938
▁ফুটি	-10.8939
▁ডেউকা	-10.8941
▁পাঠ্যপুথি	-10.8941
▁সহস্ৰাধিক	-10.8941
▁মদ্যাপ	-10.8941
▁আঙুলিয়াই	-10.8941
▁কৰ্ণ	-10.8942
▁ৰসাল	-10.8943
▁প্ৰেক্ষাগৃহত	-10.8943
▁এদিনীয়া	-10.8943
িলে	-10.8943
▁পোৱাটো	-10.8944
▁ব্ৰেণ্ড	-10.8944
মতী	-10.8946
▁দিছপুৰ	-10.8947
▁ৰাজকুমাৰ	-10.8947
ৰবাত	-10.8957
▁আফ্ৰিকাৰ	-10.8957
▁১৯৯৭	-10.8957
▁নদীত	-10.8959
▁ফুৰি	-10.8963
▁মেডিয়া	-10.8965
লতা	-10.8968
▁উত্তেজিত	-10.8969
▁বাঙালী	-10.8969
▁জোকাৰি	-10.897
▁সভানেত্ৰী	-10.897
▁ছুপাৰ	-10.8972
▁উদ্দেশ্যি	-10.8972
▁নিন্দা	-10.8973
আপোনাৰ	-10.8974
▁আভাস	-10.8974
▁ঘন্টা	-10.8978
লৱে	-10.8978
▁Co	-10.898
▁উই	-10.898
ফুট	-10.898
ৱন্ত	-10.8981
▁তেওঁলৈ	-10.8984
গাঁৱৰ	-10.8986
ক্ৰ	-10.8991
▁হত্যাকাণ্ড	-10.8995
▁মেলে	-10.8997
▁সমবেত	-10.8998
▁শ্ৰীশ্ৰী	-10.9001
▁লণ্ডন	-10.9002
▁আহিলোঁ	-10.9002
▁অন্ধবিশ্বাস	-10.9002
▁থে	-10.9008
▁মানুহবোৰে	-10.9011
▁http	-10.9012
▁অজয়	-10.9015
▁ৰামানুজনৰ	-10.9017
▁লগালে	-10.9018
▁দফা	-10.902
▁শোষণ	-10.902
▁খ্ৰীষ্টপূৰ্ব	-10.9021
বাহন	-10.9021
▁কৰণ	-10.9025
▁দিলেহে	-10.9025
▁কথোপকথন	-10.9026
▁গৰিহণা	-10.9026
▁নগেন	-10.9026
▁গছজোপা	-10.9027
▁সূত্ৰপাত	-10.9029
▁পাপৰ	-10.9035
▁স্মৃতিত	-10.9036
নেট	-10.9036
▁বৰফ	-10.9038
▁সন্ধি	-10.9038
▁বিয়োগ	-10.9038
▁মজিয়াত	-10.9039
বিন	-10.9041
কাৰণ	-10.9042
লিয়ে	-10.9043
ঘৰৰ	-10.9045
▁লুকুৱাই	-10.9048
▁}	-10.9052
▁স্বত্বেও	-10.9056
▁গুছি	-10.9058
▁বহে	-10.9058
▁লাইভ	-10.9059
▁লিখনী	-10.906
▁দীপক	-10.9061
▁সংগ্ৰামৰ	-10.9063
▁বিষয়াক	-10.9063
ক্ষেত্ৰত	-10.9063
▁অভিজ্ঞ	-10.9066
▁উদাৰ	-10.9068
▁সৰকাৰ	-10.9068
▁মুখপাত্ৰ	-10.9068
▁ভূমিকম্প	-10.9068
▁আশ্ৰম	-10.907
▁উল্লেখিত	-10.9074
▁একোজন	-10.9075
জনীৰ	-10.9076
▁তু	-10.9078
বেক	-10.9078
▁তাকো	-10.908
▁কুঁৱৰী	-10.9082
▁কাপোৰৰ	-10.9083
▁উত্তপ্ত	-10.9084
▁টেলিভিছন	-10.9084
▁ধোঁৱা	-10.9084
▁পৌৰাণিক	-10.9084
▁বেলা	-10.9089
▁লেখ	-10.9094
▁১৯৮৮	-10.9095
পৃষ্ঠা	-10.9097
▁স্থানলৈ	-10.9098
▁ফিল	-10.91
▁ইস্রায়েল	-10.9109
▁যুৱকৰ	-10.9111
▁অৰবিন্দ	-10.9112
▁আহ্বায়ক	-10.9112
▁শ্ৰীযুত	-10.9112
▁ৰশ্মি	-10.9114
▁নিৰপেক্ষ	-10.9115
▁ৰবাৰ্ট	-10.9116
▁প্ৰতিপন্ন	-10.9116
▁শাসকীয়	-10.9116
▁শৈশৱ	-10.9117
▁মানুহবোৰ	-10.9121
▁প্ৰান্ত	-10.9122
▁নিযুক্তিৰ	-10.9124
▁পৰিচালন	-10.9124
৩৬	-10.9128
েক্স	-10.9129
হ্	-10.9131
▁ভাবো	-10.9134
জন্তু	-10.9134
▁Book	-10.9135
পাই	-10.9136
াৎ	-10.9137
ell	-10.9138
১৯ৰ	-10.914
▁অত্যধিক	-10.9141
▁বাহ্যিক	-10.9141
▁থাকা	-10.9142
▁ভিতৰ	-10.9143
▁সমৰ্থিত	-10.9146
দ্দ	-10.915
▁Aru	-10.9155
▁থাকোঁতেই	-10.9156
▁পৰিয়ালটো	-10.9159
▁পাঁচখন	-10.9162
▁আহা	-10.9165
▁বিনিয়োগৰ	-10.9165
▁পদুম	-10.9166
▁ছটা	-10.9166
বীৰ	-10.9167
▁পথটো	-10.9168
▁বাচনি	-10.917
▁প্ৰহৰী	-10.917
▁হতাশ	-10.917
অসমৰ	-10.9171
▁ঘৃণা	-10.9171
ুৰী	-10.9172
▁মান্তি	-10.9173
▁কলি	-10.9175
▁ট্ৰে	-10.9176
▁ফুলি	-10.9176
▁জানা	-10.9177
▁চাফাই	-10.9178
▁গান্ধীক	-10.9181
▁অন্তৰত	-10.9181
▁সব	-10.9181
▁পত্নীয়ে	-10.9181
থু	-10.9184
কুৱা	-10.9185
হন	-10.9187
ংকা	-10.9187
ডেন	-10.9189
ভেল	-10.9191
▁শত	-10.9192
শাল	-10.9192
▁ঢাকা	-10.9193
▁দেৱীয়ে	-10.9197
▁জৱাহৰলাল	-10.9199
▁অৰ্ডাৰ	-10.9201
▁আইনখন	-10.9201
▁বিষয়টোৰ	-10.9203
▁মজুৰি	-10.9203
▁কাণত	-10.9203
▁৫২	-10.9205
▁ৰাস	-10.9205
▁ৰূপজ্যোতি	-10.9206
অধিবৰ্ষ	-10.9212
▁বৰণৰ	-10.9214
▁সুস্থিৰ	-10.9218
মান্য	-10.9218
▁লাভজনক	-10.922
▁তিনিদিন	-10.9222
▁পাইছো	-10.9227
▁g	-10.9228
▁নৈবেদ্য	-10.9228
▁আৰ্কাইভ	-10.9228
▁ঋণাত্মক	-10.9229
▁তিৱা	-10.9229
পিয়া	-10.9232
▁সত্যৰ	-10.9232
os	-10.9233
মণ্ডল	-10.9234
েশ্যন	-10.9235
▁লগৰ	-10.9239
▁উপন্যাসৰ	-10.9239
▁পৰুৱা	-10.9243
▁কিহে	-10.9243
▁ধন্য	-10.9244
▁দোকানৰ	-10.9244
▁চিনাক্তকৰণ	-10.9244
▁বহ	-10.9246
গাঁৱত	-10.9249
▁পুৱাই	-10.9249
▁কৰ্মীৰ	-10.9249
এনে	-10.9253
ঘা	-10.9257
▁বিপজ্জনক	-10.9257
▁সুদীৰ্ঘ	-10.9258
▁১৯৮৭	-10.9258
▁ইজৰাইল	-10.9263
সূচক	-10.9264
▁হীৰা	-10.9265
▁টোপোলা	-10.9267
▁কথিত	-10.9267
▁দেখাত	-10.9269
▁বিপ্লৱৰ	-10.927
▁নিলে	-10.9273
▁ক্ষেত্ৰতে	-10.9274
▁দেখুৱাবলৈ	-10.9282
▁প্রয়োজন	-10.9282
ায়িত	-10.9283
৫৫	-10.9283
▁উৎসৱত	-10.9284
▁তিতা	-10.9285
▁দেৱে	-10.9286
▁খৰি	-10.9286
▁চান	-10.9286
▁চাগে	-10.9289
▁স্বামীয়ে	-10.9291
▁কাৰ্বন	-10.9291
▁বেগম	-10.9292
▁জলসিঞ্চন	-10.9292
চিহ্ন	-10.9293
▁কৰাতো	-10.9294
▁জাৰ্মানীৰ	-10.9295
▁সংস্থাটোৱে	-10.9298
▁ধূপ	-10.9302
▁নাথাকিলে	-10.9303
▁যিৰূচালেম	-10.9303
age	-10.9306
▁অনুষ্ঠানটি	-10.9314
▁বাদ্যযন্ত্ৰ	-10.9316
▁সুশান্ত	-10.9317
▁ৰুদ্ৰ	-10.9318
▁বিপদজনক	-10.9318
▁সকলেও	-10.9319
্ৰি	-10.932
▁দক্ষিণে	-10.9324
▁ভৱনৰ	-10.9325
▁বৰঙনি	-10.9328
▁পাৰ্ক	-10.9328
▁অলংকাৰ	-10.933
▁পৰ্যায়	-10.9334
▁বেচ	-10.9337
▁একান্ত	-10.9339
▁দুৰ	-10.9339
▁কৰাইছিল	-10.9341
▁গ্ৰেগৰিয়	-10.9341
্যে	-10.9342
হীনতা	-10.9343
▁পৰবৰ্তী	-10.9346
▁বিচাৰিব	-10.9346
▁বিত্তমন্ত্ৰী	-10.9346
মহ	-10.9346
বই	-10.9346
▁সংঘই	-10.9347
▁ন্যায়ালয়ত	-10.9349
▁ৰাওনা	-10.935
▁লোৱাটো	-10.935
▁১৯৩০	-10.9351
▁৪৭	-10.9357
▁ডিজেলৰ	-10.9358
▁ইউৰোপ	-10.9358
হৰি	-10.936
ip	-10.936
▁ইয়াতেই	-10.9365
▁নিকা	-10.9369
▁ব্যৱধানত	-10.937
েৰি	-10.9373
▁সূচী	-10.9373
▁ৰবীন্দ্ৰ	-10.9374
বৃত্ত	-10.9375
▁ঘুৰাই	-10.9384
▁বিশ্বযুদ্ধৰ	-10.9385
২০২০	-10.9385
▁জাহ	-10.9387
দূৰ	-10.939
▁গেম	-10.9391
▁অসমীয়াই	-10.9391
▁দেশী	-10.9394
▁আক	-10.9397
বাৰে	-10.9398
▁ডিঙি	-10.9399
▁চিষ্টেম	-10.9404
▁ৰিজাৰ্ভ	-10.9404
▁লেনদেন	-10.9404
▁শ্ৰীমতী	-10.9407
,’’	-10.9407
▁সুফল	-10.9409
সভাপতি	-10.941
▁মানুহজনৰ	-10.9411
▁সাহাৰ্য	-10.9412
▁গৃহস্থ	-10.9417
▁কৃপা	-10.9419
▁শিপা	-10.9425
▁মদন	-10.9432
▁বৈশিষ্ট	-10.9432
োত্তৰ	-10.9433
▁শিকোৱা	-10.9434
▁পখিলা	-10.9435
▁সমৰ্থক	-10.9438
▁অনুমোদিত	-10.944
মাছ	-10.9441
বুদ্ধি	-10.9442
▁প্ৰতিহত	-10.9443
হয়	-10.9444
▁পূৰ্বপুৰুষ	-10.9447
২৬	-10.9447
▁ৰাজকীয়	-10.9447
▁ঝা	-10.945
বাসীৰ	-10.9457
▁পন্থা	-10.9457
▁বিক্ৰীৰ	-10.9458
▁বৰকৈ	-10.9458
▁স্থল	-10.9462
▁বৈশ্য	-10.9464
▁চলচিত্ৰ	-10.9464
▁ডক্টৰেট	-10.9464
▁চিনাকী	-10.9464
▁সানি	-10.9464
▁বাগান	-10.9465
▁সঠিকভাৱে	-10.9467
▁আজিৰে	-10.9468
▁নদীখন	-10.9468
▁প্রচাৰ	-10.9468
▁ৰাজ্যজুৰি	-10.9469
▁বহিল	-10.947
▁বেক্টেৰিয়া	-10.9472
▁পাৰৰ	-10.9474
প্ৰেমী	-10.9475
▁এইবাৰৰ	-10.9475
▁পিছৰে	-10.9475
▁সোন	-10.9475
▁পুৰ	-10.9476
▁চক্ৰৰ	-10.9479
▁লাই	-10.948
▁পঞ্জাব	-10.9483
বিশেষ	-10.9489
▁সাহা	-10.949
▁বিপদত	-10.9491
▁জনাইছে৷	-10.9492
▁অভিষিক্ত	-10.9494
▁সূক্ষ্ম	-10.9494
▁নিউটন	-10.9495
▁জনসংযোগ	-10.9496
▁অতীতৰ	-10.9497
৬৫	-10.9499
▁ম্যাদ	-10.9499
▁লাইফ	-10.9509
▁কৰিলেই	-10.9513
▁পুৱাৰ	-10.9514
▁কিনা	-10.9515
▁যথা	-10.9522
▁পৰিচালনাৰ	-10.9522
▁ভূমিত	-10.9523
▁নেটৱাৰ্ক	-10.9524
▁লুট	-10.9524
▁শিৰ	-10.9524
▁সেইকাৰণে	-10.9524
▁পোনপটীয়াকৈ	-10.9529
▁লাও	-10.9531
▁উদ্দিন	-10.9532
▁ৰামানুজন	-10.9533
▁আলোকচিত্ৰ	-10.9538
দেৱী	-10.9543
▁7	-10.9543
ru	-10.9544
▁দিছোঁ	-10.9548
▁সমস্যাত	-10.955
▁কফি	-10.9552
▁জাপানী	-10.9553
▁চহৰখন	-10.9554
▁অগ্ৰাধিকাৰ	-10.9554
▁চপোৱা	-10.9556
▁প্ৰতিলিপি	-10.9557
▁থানা	-10.9561
▁মালিনী	-10.9563
▁পানীৰে	-10.9564
▁দিবলগীয়া	-10.9565
খনক	-10.9565
▁ন্যায়িক	-10.9565
▁কেলেংকাৰী	-10.9566
▁পাট	-10.9566
▁উলিয়াইছিল	-10.9571
▁+'	-10.9576
বাসীয়ে	-10.9581
▁ঠাইখন	-10.9581
স্ট	-10.9582
▁আৱৰ্জনা	-10.9584
▁ক্ষতিপূৰণ	-10.9584
▁১৯৫১	-10.9585
▁অধীনস্থ	-10.9585
▁ৰাধা	-10.9588
ঞ্জি	-10.9589
▁ৰেলী	-10.9592
▁মেৰু	-10.9593
▁যেতিয়াই	-10.9594
ণ্টা	-10.9596
কেন্দ্ৰিক	-10.9597
▁স্বীকাৰ্য	-10.9598
ৰত্ন	-10.9602
▁ৰাধাকৃষ্ণনে	-10.9604
কাৰ্য	-10.9607
▁নাপাই	-10.9611
▁চেম্পিয়ন	-10.9614
▁সত্ত্বেও	-10.9614
▁হুংকাৰ	-10.9614
▁অগ্ৰসৰ	-10.9614
▁বচ্চন	-10.9614
▁সংগঠিত	-10.9614
▁কৃষ্টি	-10.9616
▁সময়সীমা	-10.9616
▁প্ৰে	-10.9617
▁পৰস্পৰ	-10.9618
so	-10.9619
▁ফালি	-10.9619
▁তেনেকৈয়ে	-10.9621
এয়া	-10.9622
িপ	-10.9623
▁শ্বাস	-10.9624
▁পৰিবেশৰ	-10.9629
▁উগ্ৰপন্থী	-10.963
▁ডকাইত	-10.9637
▁মহেন্দ্ৰ	-10.9637
▁অফিচ	-10.9638
▁দিছো	-10.9638
.....	-10.964
▁অনুৰাগী	-10.9642
▁তাৰিখত	-10.9644
▁উৰা	-10.9644
▁চৈয়দ	-10.9644
▁নিচেই	-10.9644
ট্ৰা	-10.9646
ৰাও	-10.9646
▁সীতা	-10.9649
▁$	-10.9652
▁নলবাৰীৰ	-10.9654
▁মৰণোত্তৰ	-10.9654
উত্তৰ	-10.9655
▁পিঠিত	-10.9656
▁মিনিটত	-10.9659
▁অধিবেশনত	-10.9661
▁আৱশ্যকতা	-10.9662
▁দিও	-10.9671
িয়াল	-10.9673
▁অনশন	-10.9675
▁১৯৪২	-10.9676
▁ঘটোৱা	-10.9676
▁লেখত	-10.9677
▁শিক্ষাগত	-10.9677
▁ধনাত্মক	-10.9678
▁গতিৰ	-10.968
▁শুচি	-10.968
▁সূৰ্যৰ	-10.969
▁ক্ৰি	-10.9694
▁ৰাস্তাৰ	-10.9697
▁ছমাহ	-10.9698
▁আক্ৰান্তৰ	-10.9699
ংগা	-10.9699
▁চোলা	-10.9704
▁প্রশ্ন	-10.9705
▁পৰ্য্যন্ত	-10.9705
▁ভীম	-10.9705
▁আত্মাই	-10.9709
ভেন	-10.9709
▁সাং	-10.9709
▁ব্যৱধান	-10.971
▁উদ	-10.9711
▁চেন্নাই	-10.9711
▁উইন্ডো	-10.9712
▁পটাৰ	-10.9713
াইড	-10.9714
৫৬	-10.9715
্ত্ত	-10.9717
ৰ্ষ	-10.9717
▁অঙ্ক	-10.9719
বাণী	-10.972
▁সংঘৰ্ষত	-10.9723
ন্য	-10.9725
ৰেট	-10.9725
▁সহকাৰে	-10.9726
শ্বন	-10.9731
▁যান্ত্ৰিক	-10.9736
▁ভিতৰুৱা	-10.9736
▁মেৰী	-10.9737
যুদ্ধ	-10.974
ঙত	-10.9742
▁ড্ৰাইভাৰ	-10.9742
▁পাম্প	-10.9743
▁সংসদীয়	-10.9743
▁ৰাজবংশ	-10.9746
▁বাঁহী	-10.9747
▁শ্রী	-10.9749
লিৰ	-10.9753
▁তীৰ্থ	-10.9755
▁গোবিন্দ	-10.9755
▁মেট্ৰ	-10.9759
▁খানে	-10.976
▁হওঁতে	-10.976
▁বিদেশৰ	-10.9763
▁কেন্দ্ৰই	-10.9765
▁ৰান্ধি	-10.9767
▁প্ৰকাণ্ড	-10.9769
▁গোল	-10.9769
▁কিবৰ্ড	-10.977
▁প্ৰতিষ্ঠানত	-10.9772
ong	-10.9775
▁যিমানে	-10.9775
▁কংগ্ৰেছী	-10.9775
▁যন্ত্ৰণা	-10.9776
দেউ	-10.9779
▁খাটি	-10.9779
▁ফটা	-10.9779
▁গ্ৰ	-10.978
▁টাউন	-10.978
▁নিকট	-10.9782
▁বলে	-10.9782
▁চক্ৰৱৰ্তী	-10.9783
▁জাৰ্মানী	-10.9783
▁চৌধুৰীৰ	-10.9784
▁যিৰূচালেমৰ	-10.9786
▁ষ্টেডিয়াম	-10.9786
খণ্ড	-10.9787
▁মহিলাগৰাকীৰ	-10.979
▁হৃদয়ৰ	-10.9792
০৫	-10.9792
▁মেনু	-10.9793
▁গতাই	-10.9794
▁পৰিচাৰক	-10.9797
▁বীজাণু	-10.9797
▁১৯৫২	-10.9798
ori	-10.9798
কান	-10.9803
ৰোনা	-10.9805
▁সোঁৱৰণ	-10.9807
শালী	-10.9813
▁সতী	-10.9815
০৬	-10.9818
io	-10.9821
▁গ্ৰাহকৰ	-10.9828
▁হেঁপাহ	-10.9828
▁আদালতৰ	-10.9828
▁কাৰোবাক	-10.9828
▁বড়োলেণ্ড	-10.983
▁নিৰ্গত	-10.983
▁নামঘৰ	-10.983
▁বিষয়টোত	-10.9831
▁শ্বা	-10.9831
▁দৈৰ্ঘ্যৰ	-10.9833
▁গোটে	-10.9841
▁বোকাখাতৰ	-10.9841
▁বাইবেলত	-10.9843
্লি	-10.9843
▁শাৰীত	-10.9843
৮৫	-10.9846
শ্বিপ	-10.9852
▁La	-10.9853
▁19.	-10.9855
ত্র	-10.9857
▁নেন	-10.9859
▁উৎপল	-10.9859
▁গেৰুৱা	-10.9859
▁নেদেখা	-10.986
ষাৰ	-10.9863
▁সমস্যাবোৰ	-10.9864
▁গজ	-10.9864
▁গীতটো	-10.9866
▁সিজন	-10.9866
▁তেঁওলোকৰ	-10.9866
▁বেদনা	-10.9867
▁বসুমতাৰী	-10.9868
▁আগভাগ	-10.987
▁শিৱসাগৰত	-10.987
▁১৯৮৩	-10.987
ুৰি	-10.9871
▁বহুতৰে	-10.9871
কৰ্মচাৰী	-10.9871
▁প্ৰস্থ	-10.9872
▁আদালত	-10.9873
ka	-10.9877
▁চপা	-10.9877
▁ৰাতিৰ	-10.9879
াবাদ	-10.988
▁পৰস্পৰৰ	-10.9883
▁ভট্টাচাৰ্যই	-10.9885
▁জোতা	-10.9888
▁জৰিমনা	-10.989
▁নিম্নলিখিত	-10.989
▁সতীৰ্থ	-10.9891
▁সংগ্ৰহালয়	-10.9891
▁পাতিবলৈ	-10.9895
▁কেন্দ্র	-10.9896
▁পৰ্দা	-10.9897
▁পঢ়ক	-10.99
িয়াম	-10.9903
▁১৯৯৫	-10.9907
িঅ	-10.9907
▁লগাব	-10.9911
প্ৰা	-10.9912
মেল	-10.9913
▁ছোৱালীয়ে	-10.9914
ডিয়া	-10.9916
▁ঠ	-10.9917
▁৫৩	-10.9921
assam	-10.9921
▁বিকিৰণ	-10.9922
▁৪৯	-10.9923
▁সাঁথৰ	-10.9929
্দ	-10.993
▁শ্ৰোতা	-10.9932
▁সমূহীয়া	-10.9933
▁১৯৯২	-10.9933
▁চাহাব	-10.9934
ছিলো	-10.9935
▁পৰিকল্পনাৰ	-10.9936
পিত	-10.9936
▁মূৰ্ত্তি	-10.9942
দুখ	-10.9946
▁অকণমান	-10.9947
▁দুয়োগৰাকী	-10.9948
▁সংযোজিত	-10.9952
▁সমীপৰ	-10.9952
▁ধৰ্মঘট	-10.9953
▁সম্ভাব্য	-10.9954
▁Page	-10.9954
▁Ba	-10.9954
▁অবি	-10.9958
▁কেবল	-10.996
▁প্ৰস্থান	-10.9961
সুৰ	-10.9962
▁হিমালয়	-10.9968
▁৪৩	-10.9968
▁ভদ্ৰ	-10.9969
▁আৰবী	-10.9969
▁সূৰ্য্য	-10.998
লিং	-10.9982
▁জন্তুৰ	-10.9982
▁নিষ্ক্ৰিয়	-10.9984
▁অভিনৱ	-10.9984
▁আমোদজনক	-10.9985
▁খাৰুৱা	-10.9985
চাং	-10.9986
▁সাক্ষাৎকাৰত	-10.9987
ap	-10.9987
▁সমাজখন	-10.9987
▁গাঁত	-10.9993
▁জলাশয়	-10.9993
শ্বৰ	-10.9994
▁ধৰিলে৷	-11
াদ	-11.0003
▁চিৰা	-11.0006
▁জনতাই	-11.0007
িয়াছ	-11.0008
▁ৰোম	-11.0009
▁সমষ্টিটো	-11.0013
▁ব্যংগ	-11.0013
▁গীৰ্জা	-11.0015
▁লাডাখ	-11.0015
▁সমসাময়িক	-11.0015
▁চৰাইদেউ	-11.0016
▁আয়তন	-11.0016
▁পেকেট	-11.0017
▁গীতিকাৰ	-11.0019
দায়ক	-11.002
▁ক্লাবৰ	-11.0024
▁ইক	-11.0024
▁ক্ৰমা	-11.0025
্ৰু	-11.0026
▁দিশটো	-11.0029
▁অষ্ট্ৰেলিয়া	-11.003
▁ইম	-11.003
▁ফটাঢোল	-11.003
▁লিখিলে	-11.0034
▁অপৰাধৰ	-11.0039
▁ঘাটি	-11.0041
টেক	-11.0042
▁টেকন	-11.0044
▁বিশ্বকাপ	-11.0045
▁উল	-11.0046
▁ভিটামিন	-11.0047
▁20.	-11.0048
▁গুৰুত্বপূর্ণ	-11.0049
▁আলহী	-11.0049
▁কাষলৈ	-11.005
▁অখণ্ড	-11.0055
িউ	-11.0055
্যৰ	-11.0056
▁অহিত	-11.0057
▁টাৰ্মিনেল	-11.0058
▁প্ৰায়ভাগ	-11.0058
▁সেন	-11.0058
▁টেট	-11.0059
পাশে	-11.0059
লৈও	-11.006
সম্পত্তি	-11.006
বিশ্ব	-11.0067
▁তাৰপৰা	-11.007
▁চৌলে	-11.007
▁শ্লোগান	-11.0071
▁উপন্যাসখন	-11.0072
▁পাৰ্থ	-11.0077
দুৰ	-11.0077
তাল	-11.0078
▁BOOK	-11.0078
display	-11.0078
▁নিৰ্যাতন	-11.0079
▁চকীৰ	-11.0083
▁মিহলাই	-11.0083
▁মেজি	-11.0088
▁পৰিৱেশত	-11.0089
▁বিদেশত	-11.009
▁ব্ল	-11.0091
▁প্রধান	-11.0093
▁পাইছিলোঁ	-11.0095
▁ইউনিয়ন	-11.0095
▁দিনীয়া	-11.0096
▁বাসগৃহত	-11.0099
▁পাহাৰত	-11.0099
হান	-11.01
▁ডিমা	-11.01
▁ভাণ্ডাৰ	-11.0103
bo	-11.0104
জনা	-11.0108
অনু	-11.0109
▁শংকিত	-11.011
▁তাঁৰ	-11.0111
▁দহটা	-11.0112
াগ	-11.0113
▁মুৰত	-11.0114
▁কেইদিনমান	-11.0115
▁মিশ্ৰণ	-11.0117
কাজৰ	-11.0118
▁কৃষকসকলে	-11.0119
▁পূৰ্বাঞ্চলৰ	-11.012
▁ভগৱানৰ	-11.012
বিশিষ্ট	-11.0126
pro	-11.0126
▁কীট	-11.0126
ঁও	-11.0133
▁বাতিলৰ	-11.0133
▁সুধি	-11.0136
▁প্ৰচাৰিত	-11.0136
▁সদা	-11.0138
▁6	-11.0139
ফাল	-11.0141
▁ভিক্ষা	-11.0141
েশ্বৰী	-11.0142
▁অভিমুখে	-11.0142
▁পাছতহে	-11.0143
ত্বৰ	-11.0145
▁উত্তৰে	-11.0147
▁বৰ্তমানেও	-11.0147
▁শীৰ্ষস্থান	-11.0148
▁ব্লু	-11.0149
▁সাঁচি	-11.015
▁একাদশ	-11.0152
জাক	-11.0154
▁চেনি	-11.0156
▁১৯৯৪	-11.0156
গুৱাহাটী	-11.0156
▁9	-11.0159
▁উদ্যোগী	-11.0159
▁জনসাধাৰণ	-11.016
▁কৰ্তৃপক্ষৰ	-11.0166
ছিয়া	-11.0166
▁তেঁওলোকে	-11.017
ডিং	-11.0171
ig	-11.0174
▁বৰ্ত্তমান	-11.0174
বৈ	-11.0174
▁১৯৮৯	-11.0175
▁জিৰণি	-11.0175
ধী	-11.0176
স্থা	-11.0178
▁আয়ৰ	-11.018
▁নিৰন্তৰ	-11.0182
▁শিক্ষয়িত্ৰী	-11.0182
▁ৰামানুজনে	-11.0185
▁খহনীয়া	-11.0187
▁ব্লেক	-11.019
hu	-11.0192
ৰ্ন	-11.0195
▁আব	-11.0195
▁মৌল	-11.0198
▁গোচৰৰ	-11.0199
▁"""	-11.0202
ব্যৱহাৰ	-11.0202
কেইটাৰ	-11.0205
▁স্বৰ	-11.0205
▁অদ্ভুত	-11.0206
▁অনুপ্ৰেৰণা	-11.0206
▁কীটনাশক	-11.0206
▁অমিতাভ	-11.0208
▁চিত্ত	-11.0208
▁ঘনত্ব	-11.021
▁বুদ্ধ	-11.0212
▁বিশ্বজিৎ	-11.0212
▁পৰিয়ালটোৰ	-11.0214
▁ওজা	-11.0216
▁সমন্বয়ক	-11.0217
ৰণা	-11.0217
▁ঘণ্টাত	-11.0222
▁জাপ	-11.0225
য়েল	-11.0226
চক্ৰ	-11.0228
পৰাই	-11.0231
▁বিভাগক	-11.0231
▁প্ৰতিভাৰ	-11.0234
der	-11.0235
▁উদ্বেগ	-11.0237
▁৮৫	-11.0238
▁মদ্যপান	-11.0238
▁সঞ্চয়	-11.0238
▁আঁঠু	-11.0238
▁কন্ঠশিল্পী	-11.0238
দেৰ	-11.024
▁ব্ৰিটিছৰ	-11.024
▁বিশ্বাসযোগ্য	-11.024
▁হাইস্কুলৰ	-11.0242
▁দ্বিতীয়খন	-11.0242
▁মূল্যৱান	-11.0242
ৰেন	-11.0246
▁আছাম	-11.0246
।[11]	-11.0246
▁বেণ্ড	-11.0248
র্ত	-11.0251
▁প্ৰশিক্ষণৰ	-11.0252
▁তিনিগৰাকী	-11.0256
ৰোণা	-11.0256
৬৬	-11.0257
৩৯	-11.0259
▁অভিনেত্ৰীগৰাকী	-11.026
▁বহাগ	-11.0262
▁জুইত	-11.0264
▁পৰিষদীয়	-11.0266
▁ৰেড	-11.0269
▁ডু	-11.0269
style	-11.027
▁আলেখ্য	-11.027
▁বৃটিছ	-11.027
▁বন্দুক	-11.027
▁চল	-11.0271
লো৷	-11.0271
▁ইউৰোপৰ	-11.0272
বাৰ্গ	-11.0274
▁অস্ত্ৰোপচাৰ	-11.0274
ফালৰ	-11.0274
▁সমৰ্পণ	-11.0276
মুলক	-11.0277
▁ৰিপৰ্টাৰ	-11.028
▁শিকিবলৈ	-11.0281
▁সুভাষ	-11.0283
ৰিয়	-11.0284
চীন	-11.0284
▁কামৰূপৰ	-11.0285
বিজেপি	-11.0286
▁চুক্তিত	-11.0286
▁চৰায়ে	-11.0287
▁বেয়াকৈ	-11.0288
▁e	-11.0289
▁ষ্টিফেন	-11.029
▁জিঅ	-11.029
▁বিচ্ছেদ	-11.0293
▁আছ	-11.0294
▁পক্ষত	-11.0296
▁প্ৰতিবেদনত	-11.0297
▁জুইৰ	-11.0299
▁পৰিসৰ	-11.031
ৰেখা	-11.031
▁ভাষাক	-11.031
▁পহু	-11.0311
▁তৰল	-11.0312
▁ৰাছিয়া	-11.0316
▁নন্দ	-11.0316
৬৯	-11.0317
▁সম্ভৱপৰ	-11.0319
▁জীৱনক	-11.032
▁নিৰাশ	-11.0325
▁বহুখিনি	-11.0327
ৰাজি	-11.0327
▁কৰ্মচাৰীয়ে	-11.0328
ন্থ	-11.0331
সময়	-11.0331
▁বাসগৃহ	-11.0332
▁প্ৰতিষ্ঠানে	-11.0333
▁এটাকৈ	-11.0334
▁মজুমদাৰ	-11.0335
▁পৰমাণু	-11.0335
▁লোহিত	-11.0336
▁সৰ্বসাধাৰণ	-11.034
▁মূল্যবান	-11.034
▁পৰিধি	-11.034
▁আইৰ	-11.034
▁এজোপা	-11.034
▁কঁপি	-11.0341
▁মাৰ্	-11.0342
▁চিক	-11.0345
▁হেৰুৱাব	-11.0346
▁ৰাজ্যখন	-11.0352
▁আলম	-11.0354
▁দৰৱ	-11.0358
▁দিনতে	-11.036
▁আৱৰণ	-11.036
▁সংগ্ৰামী	-11.0363
বাস	-11.0367
▁টুইটাৰত	-11.0368
▁বুলিহে	-11.0368
▁সম্ভব	-11.0368
▁অহৰহ	-11.0368
▁ভোটগ্ৰহণ	-11.0369
▁দোকানখন	-11.0369
▁বছৰটো	-11.0372
▁ৰাজস্থানৰ	-11.0376
প্ৰণালী	-11.0378
লৈকো	-11.0379
▁শিক্ষাদান	-11.0383
খেল	-11.0385
▁পৰ্দাত	-11.0392
দিনৰ	-11.0395
▁সাল	-11.0395
▁সহজেই	-11.0396
▁জ্ঞাত	-11.0396
▁100	-11.0399
▁পাৰম্পৰিক	-11.04
▁নিবিদা	-11.0401
▁পইণ্ট	-11.0402
▁নেপালৰ	-11.0405
▁2012	-11.0407
▁16	-11.0407
per	-11.041
▁অনুৰূপ	-11.0415
?"	-11.0415
চনা	-11.0417
▁নেত্ৰী	-11.0417
sa	-11.0418
নীয়ে	-11.0423
▁ইহঁত	-11.0423
▁নিক	-11.0427
▁৫১	-11.0428
নাল্ড	-11.0429
ণ্টি	-11.0431
Return	-11.0433
▁নী	-11.0433
▁গছবোৰ	-11.0434
▁আল্লাহ	-11.0437
▁পতাকাৰ	-11.0439
▁সাক্ষৰতা	-11.0444
ক্কা	-11.0444
▁নাটনি	-11.0445
▁২৫০	-11.0446
▁নহওঁ	-11.0449
ance	-11.045
▁উপত্যকাত	-11.0461
▁বিপক্ষে	-11.0464
▁অনাতাঁৰ	-11.0466
▁অৰ্ণৱ	-11.0466
▁কেঞ্চাৰ	-11.0466
৩৩	-11.0466
▁মৃত্যুবৰণ	-11.0467
▁খৰাং	-11.0468
▁নোবেল	-11.0469
able	-11.0471
িকেল	-11.0471
যুৱতী	-11.0474
▁আটাইকেইটা	-11.0474
▁বছৰতে	-11.0474
ালয়	-11.0477
▁ছন্দ	-11.048
▁অৱস্থিতি	-11.0486
▁ৰাগ	-11.0487
▁সৌ	-11.0488
▁সহজতে	-11.0489
▁পুষ্প	-11.0491
▁গীতত	-11.0492
▁টকাৰে	-11.0498
▁পুনৰ্	-11.0499
▁ধৰ্ণা	-11.0499
▁খেলিমেলি	-11.0499
▁১৯৭৯	-11.05
▁পিছফালে	-11.0501
▁ৰকিবুল	-11.0501
▁পশ্চিমীয়া	-11.0502
▁চৰিত্ৰটো	-11.0502
▁খন্দা	-11.0503
▁নিয়মৰ	-11.0503
▁পৃথিবীৰ	-11.0503
▁যন্ত্ৰৰ	-11.0504
▁বিশ্বব্ৰহ্মাণ্ড	-11.0504
▁কাৰ্য্যালয়	-11.0504
▁বিশ্বকোষ	-11.0505
▁পাৰ্বতী	-11.0509
▁যৌৱন	-11.0511
▁কোলাত	-11.0512
▁লোকজনৰ	-11.0512
৩৭	-11.0517
ডী	-11.0521
▁শিৱৰ	-11.0521
▁নেতৃত্বই	-11.0521
▁অগ্ৰগতি	-11.0522
▁আহোঁতে	-11.0523
জম	-11.0528
▁সৰি	-11.0529
দেশৰ	-11.053
▁ধৰ্মাৱলম্বী	-11.0532
▁পৰিবৰ্তে	-11.0532
▁আন্তৰাষ্ট্ৰীয়	-11.0533
ঁচ	-11.0534
▁Ro	-11.0535
".	-11.0537
পক্ষ	-11.0538
েহে	-11.0539
েঞ্চ	-11.054
▁চাপৰি	-11.0542
হল	-11.0543
▁ভাৱি	-11.0549
▁তেতিয়াৰে	-11.0549
পক	-11.0553
প্ৰদান	-11.0553
▁ভাৱনা	-11.0554
।[12]	-11.0555
▁সমাধি	-11.0555
লজি	-11.0558
▁মঠ	-11.0558
▁সেৱাত	-11.056
▁পেহাই	-11.056
▁বহুমূলীয়া	-11.0566
▁পৰ্যটকৰ	-11.0567
▁মনতে	-11.0571
▁দীৰ্ঘদিনীয়া	-11.0573
▁বহিব	-11.0577
▁ভাইৰাছত	-11.0577
▁স্বপ্ন	-11.0579
▁কিনিব	-11.0582
ড্ৰ	-11.0582
▁পৰাক্ৰম	-11.0582
জ্জ	-11.0583
▁প্ৰৱল	-11.0585
▁দেশখনত	-11.0588
▁চহৰখনৰ	-11.0591
▁একাংশই	-11.0593
▁ঘোষ	-11.0594
▁গাওঁখনৰ	-11.0595
▁আদা	-11.0596
▁অৰ্	-11.0596
▁Tablet	-11.0599
▁আৰোহী	-11.0599
▁নোৱৰা	-11.0599
▁স্তুতি	-11.0599
▁কাঁইট	-11.0599
▁উচ্ছন্ন	-11.0599
কাণ্ড	-11.0599
▁বানপানীৰ	-11.06
ওতে	-11.0601
▁ৰাই	-11.0601
▁সিদ্ধাৰ্থ	-11.0602
নৈ	-11.0603
▁ৰূপালী	-11.0605
▁দৰ্শকে	-11.0605
▁হতাশা	-11.0605
▁আঁহক	-11.0605
সূ	-11.0607
▁নলা	-11.0608
▁পেৰা	-11.0609
▁চীনত	-11.061
▁সুৰাৰ	-11.0611
▁নাথে	-11.0618
জনীয়ে	-11.0622
ৰ্জ	-11.0625
স্য	-11.0626
ংকৰ	-11.0626
▁ধেমালি	-11.0627
▁পৰ্যটক	-11.0631
▁সংমিশ্ৰণ	-11.0632
▁গোপীনাথ	-11.0633
▁চাং	-11.0633
▁কালছোৱাত	-11.0634
▁আৰব	-11.0634
▁সুধিছিল	-11.0636
▁আৱৰি	-11.0636
▁নাহিল	-11.0637
▁দুজনৰ	-11.0639
▁খনে	-11.0641
▁পত্নীক	-11.0645
জোপা	-11.0645
▁মৈ	-11.0646
▁সদস্যসকলে	-11.0646
▁স্বৰ্গত	-11.0647
▁দুৰ্বলতা	-11.0652
▁পাণ	-11.0653
▁আকাশত	-11.0655
▁মানসিকতা	-11.0658
▁প্ৰতিচ্ছবি	-11.0666
▁ষ্টেটমেন্ট	-11.0666
▁উভটি	-11.0668
্বি	-11.0672
▁থাকো	-11.0673
৩১	-11.0676
OR	-11.0676
▁প্ৰকল্পটো	-11.0677
▁ডেস্কঃ	-11.0677
ৰোৱা	-11.0677
▁কিষাণ	-11.0678
▁ব্যক্তিজনৰ	-11.0678
▁ডিগবৈ	-11.0679
-19	-11.0685
!!	-11.0686
শেষ	-11.0691
বন্ধ	-11.0692
▁যুৱকজনৰ	-11.0693
▁ৰাস্তাত	-11.0696
▁পুখুৰীৰ	-11.0699
▁মগজুৰ	-11.0699
▁ডাউনলোড	-11.07
▁তাড়না	-11.07
▁ৰোপণ	-11.07
▁ইতি	-11.0701
▁১৯৬৯	-11.0701
▁দুশ	-11.0702
▁কোৰিয়া	-11.0705
▁আহোমৰ	-11.0705
▁স্মাৰ্ট	-11.0711
▁পঠালে	-11.0712
▁বিশ্ৰাম	-11.0714
সিংহ	-11.0714
▁অধ্যয়নত	-11.0714
▁বহুকেইজন	-11.0716
▁সাগৰীয়	-11.0716
ag	-11.0716
▁ফেব্ৰুৱাৰিত	-11.0716
▁ৰায়ৰ	-11.0717
▁মানচিত্ৰ	-11.0717
▁মৃতদেহটো	-11.0718
▁ষ্টে	-11.0718
▁গায়	-11.0722
ST	-11.0724
বছৰীয়া	-11.0732
▁দেশীয়	-11.0733
▁আপডেট	-11.0733
পন্থী	-11.0734
▁দুৰ্ঘটনাৰ	-11.0734
▁www	-11.0734
▁দানিয়েল	-11.0735
▁১৯৬৭	-11.0735
▁পূৰ্ণাংগ	-11.0735
▁এনেকৈয়ে	-11.0737
▁জৰীপ	-11.0737
▁পাথৰ	-11.0741
▁বিষয়সমূহ	-11.0742
▁দূৰত্বত	-11.0743
▁একগোট	-11.0744
বন্ধু	-11.0748
▁নৰক	-11.0749
৪৬	-11.075
পাত্ৰ	-11.075
ীকৃত	-11.0751
▁তথ্যচিত্ৰ	-11.0751
▁স্বীকৃত	-11.0753
▁এওঁলোক	-11.0754
▁জয়পুৰ	-11.0754
▁প্ৰথমজন	-11.0755
▁তৰংগ	-11.0756
▁পতাৰ	-11.0758
▁কেবা	-11.0763
▁অসমক	-11.0765
▁চফ্টৱেৰ	-11.0767
▁চিবিআই	-11.0767
▁ফলপ্ৰসূ	-11.0767
▁জেষ্ঠ	-11.0767
▁টিভিৰ	-11.0767
▁অনুকূল	-11.0768
▁সুৰেশ	-11.0769
▁কেৰেলা	-11.0769
▁বৰষা	-11.0771
িফ	-11.0776
▁গাৱঁৰ	-11.0777
▁বুঢ়ী	-11.0787
▁সাতটা	-11.0787
▁তপন	-11.0788
▁তামিলনাডু	-11.0791
▁মোহ	-11.0791
পথাৰ	-11.0792
▁কমিটীৰ	-11.0794
▁পুৰা	-11.0797
▁বিসংগতি	-11.0801
▁ৰঙীন	-11.0802
তেওঁৰ	-11.0803
▁বিচৰণ	-11.0805
প্লা	-11.0805
▁কাৰ্যনিৰ্বাহক	-11.0805
িভ	-11.0808
▁ব্ৰা	-11.0811
▁যিবিলাক	-11.0812
ট্টা	-11.0813
ছাত্ৰীসকলে	-11.0814
ভুক্ত	-11.0814
▁শিলচৰ	-11.0814
▁সংহাৰ	-11.0815
▁নয়ন	-11.0817
▁মহল	-11.0819
▁হীৰেন	-11.0819
ৰাটোৱে	-11.0819
কন	-11.0824
▁চক	-11.0827
▁দিল্লীলৈ	-11.0827
ম্বৰ	-11.0829
ie	-11.0835
▁নামাকৰণ	-11.0835
▁ধৃত	-11.0836
▁পূৰা	-11.0836
মুৰ	-11.0836
▁পাতত	-11.0837
▁মেডেল	-11.0838
▁জাতিবোৰ	-11.0839
▁পেটেল	-11.0841
াট	-11.0841
▁কণা	-11.0842
▁বুদ্ধিমান	-11.0845
▁আমোদ	-11.0846
▁মাৰা	-11.0847
▁সচেতনতা	-11.0847
▁১৯৭৬	-11.0849
▁লতা	-11.085
▁সোমায়	-11.0851
▁উন্নয়নমূলক	-11.0852
৩৪	-11.0853
▁মাংসৰ	-11.0855
▁বিক্ৰম	-11.0857
ৰাণী	-11.0857
▁বিশ্ববিদ্যালয়ে	-11.0858
▁প্ৰতিবাদৰ	-11.0861
▁ৰোড	-11.0864
▁পূজাৰী	-11.0864
▁বাৰ্	-11.0865
▁চৌলৰ	-11.0865
টেন	-11.0866
▁নোৱাৰিলো	-11.0867
▁সৈতেও	-11.0867
▁থিতাতে	-11.087
▁মিউজিক	-11.087
▁অধিসূচনা	-11.087
▁পশুপালন	-11.087
▁ঠেক	-11.0871
▁গ্ৰন্থখনৰ	-11.0873
▁মেনেজাৰ	-11.0873
সেনা	-11.0874
াৱস্থা	-11.0874
du	-11.0875
▁মিনিটৰ	-11.0875
▁গোচৰত	-11.0876
খনি	-11.0876
da	-11.0877
▁খনিজ	-11.0877
▁সুগন্ধি	-11.0878
▁ঘিণ	-11.088
▁নহয়নে	-11.088
▁21	-11.0883
▁খ্যাত	-11.0883
▁বেপাৰী	-11.0884
the	-11.0884
▁ফলন	-11.0886
▁সুবিধাৰ	-11.0887
লক্ষ্মী	-11.0892
৪৭	-11.0893
▁প্ৰথমগৰাকী	-11.0895
▁সম্প্ৰসাৰণ	-11.0896
ভু	-11.0902
।‘’	-11.0902
▁নিশাৰ	-11.0902
মোক	-11.0902
▁সিদ্ধান্তৰ	-11.0903
▁ততাতৈয়া	-11.0904
▁ব্যবস্থা	-11.0904
▁ৰন্ধা	-11.0904
▁লাঠি	-11.0905
▁পৰস্পৰে	-11.0907
পল	-11.0909
ভী	-11.0909
▁বিগ	-11.091
▁কথাকে	-11.0915
▁আশাবাদী	-11.0915
▁আদিও	-11.0916
▁কৃষকসকলৰ	-11.0916
▁জনালোঁ	-11.0922
▁গুণগত	-11.0924
▁কোৰ	-11.0924
▁আগবঢ়াবলৈ	-11.0927
▁হুছেইনে	-11.0932
▁ভাৰতী	-11.0936
ীম	-11.0936
pa	-11.0936
ভাষী	-11.0938
▁অগ্ৰাহ্য	-11.0938
▁চিস্টেম	-11.0938
▁আকৃষ্ট	-11.0939
▁১৯৯৩	-11.094
৫৪	-11.094
প্প	-11.0941
▁প্রকল্প	-11.0942
▁কুশল	-11.0943
▁বহুলভাৱে	-11.0947
ইচ	-11.0948
▁নবেম্বৰ	-11.0953
৬৭	-11.0954
▁শা	-11.0955
▁22.	-11.0956
ৰাণ	-11.0956
▁আঁচনিখন	-11.0958
▁নক্ষত্ৰ	-11.0959
▁হাজিৰা	-11.0962
▁বুৰ	-11.0964
▁মহোৎসৱৰ	-11.0964
নিয়ে	-11.0965
দৃষ্টি	-11.0968
▁এৰ	-11.0969
▁ভূঞাৰ	-11.0969
▁মোনা	-11.0969
▁ঘৰটোৰ	-11.097
▁শোচনীয়	-11.0973
▁কুইজ	-11.0973
▁পুৱতি	-11.0973
▁উইলিয়াম	-11.0973
▁ব্যক্তিজনে	-11.0975
▁চিলনী	-11.0975
৭৮	-11.0979
▁সপোনৰ	-11.098
▁কাহ	-11.098
▁সাহ	-11.0982
▁জালত	-11.0984
▁হাজো	-11.0984
▁অণু	-11.0985
টিত	-11.0989
▁গৰখীয়া	-11.0989
▁মিৰি	-11.0992
মন্দিৰ	-11.0997
মাত	-11.0999
▁দুয়োটাই	-11.1
▁খ্ৰী	-11.1
▁21.	-11.1002
▁দিছে৷	-11.1005
মনে	-11.1006
▁এভাগ	-11.1008
▁সাঙুৰি	-11.1008
▁উত্তাপ	-11.1008
▁সমবেদনা	-11.1008
▁সৰ্বশ্ৰেষ্ঠ	-11.1008
▁অপূৰ্ব	-11.1008
ভৰি	-11.1008
▁শান্তনু	-11.1009
ran	-11.1011
▁খোলক	-11.1015
▁কৰ্প	-11.1016
▁তত্ব	-11.102
াকাৰ	-11.1021
▁ডাঙৰীয়াই	-11.1022
▁নোহোৱাৰ	-11.1022
▁মূল্যবৃদ্ধি	-11.1023
ণে	-11.1025
▁জীৱিকাৰ	-11.1025
স্বাস্থ্যমন্ত্ৰী	-11.1025
▁এৰিষ্ট	-11.1028
▁ব্যক্তিগতভাৱে	-11.1029
িকাৰ	-11.1031
ৰাক	-11.1032
▁আত্মবিশ্বাস	-11.1032
কাৰীৰ	-11.1033
▁তেনেতে	-11.104
▁ৰহ	-11.1041
▁ধো	-11.1042
▁ঠোঁট	-11.1043
▁চুকাফা	-11.1043
▁টেলিফোন	-11.1043
▁ওলমি	-11.1043
▁মজুত	-11.1043
▁নাপাওঁ	-11.1044
▁আজাদ	-11.1045
▁প্ৰতিজনে	-11.1046
▁উৎপাদক	-11.1046
▁কমিটিয়ে	-11.1049
▁পৰিহাৰ	-11.1049
▁ঔষধি	-11.105
▁আচ	-11.105
▁বাকচ	-11.1051
▁স্তব্ধ	-11.1055
▁ফুকনে	-11.1055
▁১৯৮২	-11.1058
▁সাদৃশ্য	-11.106
▁নহৈ	-11.1063
গ্ৰী	-11.1067
▁কলিকতাত	-11.1068
▁লাভৱান	-11.1069
▁আঁ	-11.1069
▁ফাইনেল	-11.1069
▁অনুধাৱন	-11.1078
▁সম্ভাৱনীয়তা	-11.1078
▁পঢ়ুৱৈ	-11.1078
▁অর্থনীতি	-11.1079
▁পোষকতা	-11.108
▁ম্যানমাৰ	-11.1081
▁ঘৰখন	-11.1083
▁যোগোৱা	-11.1083
▁যিৰূচালেমত	-11.1083
▁নাজিৰা	-11.1083
▁শৰাই	-11.1084
▁আনুমানিক	-11.1085
▁পেৰিছ	-11.1086
▁প্ৰাৰ্থীয়ে	-11.1095
▁গৈছিলো	-11.1096
▁গৈছিলোঁ	-11.1101
ঞ্চি	-11.1103
▁তত	-11.1105
▁কণিকা	-11.1105
মিয়া	-11.1106
৪২	-11.1108
▁ব্যৱহাৰকাৰীৰ	-11.1109
▁{{	-11.1109
▁দেখিলো	-11.1109
▁মজুৰী	-11.1113
▁প্ৰৱাহ	-11.1119
▁মাধ্যমক	-11.112
▁ভাৰসাম্য	-11.112
▁নিৰ্মল	-11.1122
▁দূৰদৰ্শন	-11.1122
▁নিশ্চিতভাৱে	-11.1125
▁শিল্পৰ	-11.1125
▁নোৱাৰিম	-11.1128
▁যুঁজি	-11.1132
▁চিৰদিন	-11.1134
ভাব	-11.1134
▁শকত	-11.1135
▁সন্ত	-11.1135
▁h	-11.1137
▁বিধৰ	-11.1138
▁শিবিৰত	-11.1144
▁নিউয়ৰ্ক	-11.1148
৭৬	-11.1149
▁ইন্দ্ৰিয়	-11.1149
▁সিহতৰ	-11.115
▁ব্যাকৰণ	-11.115
▁সৰ্ব্ব	-11.1151
▁খুলিব	-11.1155
▁Google	-11.1156
।[1	-11.1159
ছাই	-11.116
▁স্বায়ত্ত	-11.1161
▁মাত্র	-11.1161
▁পলি	-11.1162
▁ৰাজু	-11.1162
▁ডুব	-11.1163
▁অনুষ্ঠানটো	-11.1164
▁বাজেটত	-11.1165
যাত্ৰা	-11.1165
াইট	-11.1167
▁নিষেধ	-11.1169
▁গাঁথনি	-11.117
▁সাপৰ	-11.117
▁উদ্বিগ্ন	-11.1173
▁দাইল	-11.1175
▁জেৰা	-11.1176
▁বচন	-11.1176
ফ্ট	-11.1176
▁ৰখীয়া	-11.1178
▁গোটাই	-11.1179
▁মইনা	-11.1179
▁এইবিলাক	-11.1179
▁উম	-11.1181
▁বঁটাৰে	-11.1183
▁প্ৰজ্বলন	-11.1183
▁ঔপন্যাসিক	-11.1183
▁আত্মসমৰ্পণ	-11.1183
▁মধ্যবিত্ত	-11.1184
▁সেনাবাহিনী	-11.1184
▁জৰুৰীকালীন	-11.1184
▁যাতায়ত	-11.1184
▁ডো	-11.1184
মাৰ্চ	-11.1185
▁৫৬	-11.1185
▁সোণোৱালৰ	-11.1186
▁প্ৰভাবিত	-11.1189
▁চিৰিজ	-11.1193
ai	-11.1199
গৰু	-11.1201
▁নৱবৰ্ষ	-11.1201
হক	-11.1204
▁বিষয়টোক	-11.1205
▁ডোখৰ	-11.1207
if	-11.1208
স্বয়ংক্ৰিয়ভাৱে	-11.121
▁সুন্দৰকৈ	-11.1212
▁ডেকাৰ	-11.1212
art	-11.1212
▁গ্ৰে	-11.1214
▁মতবাদ	-11.1215
▁সন্	-11.1216
▁হৈয়ে	-11.1216
▁ভ্ৰাম্যমাণ	-11.1219
▁সপক্ষে	-11.1219
▁প্ৰগ্ৰেম	-11.1219
্মী	-11.122
ary	-11.1221
▁৬০০	-11.1221
দৰ্শন	-11.1223
▁যোৱাটো	-11.1224
▁পুলিচে	-11.1224
▁বোৰ্ড	-11.1225
▁শিক্ষামন্ত্ৰী	-11.1226
▁এজাক	-11.1227
▁পেটত	-11.1227
▁চাৰিআলি	-11.1231
াৰু	-11.1232
ব্ৰা	-11.1234
▁দিনক	-11.1235
▁ইউনিক	-11.1238
▁নহা	-11.1241
▁এওঁলোকৰ	-11.1241
▁জাৰী	-11.1243
▁ধৈৰ্য	-11.1251
▁সোমাব	-11.1252
▁মনুষ্য	-11.1252
৩২	-11.1252
IT	-11.1252
ৰিয়েল	-11.1253
▁দিনলৈ	-11.1253
▁অংকৰ	-11.1253
▁বিচাৰোঁ	-11.1254
▁বেহা	-11.1254
মূ	-11.1254
▁লক্ষাধিক	-11.1254
▁নিশ্বাস	-11.1255
▁কাষৰীয়া	-11.1255
▁১৯৭৮	-11.1256
ানে	-11.1256
▁সেইসকল	-11.1257
▁ৰেলপথ	-11.126
▁৫৪	-11.126
▁যোৱাত	-11.1262
▁দুডাল	-11.1263
▁মাৰাঠী	-11.1263
ৰাটো	-11.1265
▁এলানি	-11.1266
▁ছুটী	-11.1267
বংশ	-11.1272
▁ব্লগ	-11.1273
▁মহানগৰীত	-11.1277
▁বিশেষজ্ঞৰ	-11.128
▁নাৰায়ন	-11.1281
ণাৰ	-11.1281
▁ভবিষ্যত	-11.1283
▁শদিয়া	-11.1284
▁কেন	-11.1284
▁মন্ত্ৰণালয়	-11.1287
▁খ্ৰীষ্টাব্দত	-11.1288
▁পশ্চিমবংগৰ	-11.1289
▁মুখলৈ	-11.1289
▁ককাই	-11.1289
▁অর্থনৈতিক	-11.129
▁প্লেটফৰ্ম	-11.1291
নাক	-11.1291
▁মূল্যায়ন	-11.1292
লোকৰ	-11.1293
▁নিত্য	-11.1294
▁পাবা	-11.1294
act	-11.1294
▁দিছিল৷	-11.1295
▁কোৱাটো	-11.1295
▁প্ৰবীণ	-11.1297
▁ৰঙালী	-11.1298
▁ভিডিও	-11.1298
ানী	-11.1298
▁200	-11.1299
▁প্ৰমুখ	-11.1299
▁মধুৰ	-11.1301
▁কাৰ্	-11.1301
▁চল্লিশ	-11.1301
▁ঘু	-11.1302
▁আজমল	-11.1303
▁কোঠাৰ	-11.1306
▁সমতা	-11.1307
কুৰি	-11.1307
▁থাকিবলগীয়া	-11.1309
up	-11.131
▁আৱশ্যকীয়	-11.131
[1]।	-11.1313
▁ভাষালৈ	-11.1314
▁সভাখন	-11.1314
ছাত্ৰীক	-11.1319
▁প্	-11.1322
▁ফাঁচী	-11.1326
▁শৰৎ	-11.1326
▁বিবাহিত	-11.1327
▁ৰচনাৱলী	-11.1327
▁প্ৰত্যেকটো	-11.1329
▁নগাঁৱত	-11.133
৫৩	-11.133
০৯	-11.1331
our	-11.1332
লিয়াম	-11.1332
▁ভোগা	-11.1334
▁শেৱালি	-11.1336
▁ধৈৰ্য্য	-11.1337
কিং	-11.134
▁ব্যক্তিসকলে	-11.1341
▁চৰ্চাৰ	-11.1342
▁তেওঁলোকলৈ	-11.1345
▁ইন্টাৰনেট	-11.1346
ঘণ্টা	-11.1347
▁মালিকে	-11.1347
▁প্ৰি	-11.1348
▁নিদিয়াকৈ	-11.1349
▁বিজ্ঞানত	-11.1351
সাগৰ	-11.1353
পত	-11.1355
▁সাগৰত	-11.1358
৫৭	-11.1358
▁সমাজক	-11.1359
েছন	-11.1361
▁আৰ্য	-11.1361
▁পুনৰুত্থান	-11.1362
প্ৰযুক্তি	-11.1364
▁মাদ্ৰাছা	-11.1372
▁সমৰ্থনত	-11.1372
▁কাটাৰ	-11.1373
▁ক্লেশ	-11.1373
সংগঠন	-11.1377
▁শিল্পীয়ে	-11.138
▁মামা	-11.1381
লোঁ৷	-11.1382
▁ফিল্ড	-11.1382
ুকা	-11.1384
▁বিলাসীপাৰা	-11.1385
▁দৌল	-11.1386
ral	-11.1387
▁মদৰ	-11.1397
▁প্রচেষ্টা	-11.1398
▁ছোৱালীজনী	-11.1401
mon	-11.1402
▁খেলিবলৈ	-11.1403
▁সেইজন	-11.1405
ফ্	-11.1407
▁ৰাষ্টা	-11.141
▁বৃত্ত	-11.1413
▁সৰৱ	-11.1416
▁ৰৈছে	-11.1418
▁সহকৰ্মী	-11.142
▁অন্তৰ্	-11.1421
▁প্রেম	-11.1423
▁আটা	-11.1427
সত্য	-11.1427
▁পৰিল৷	-11.1428
ep	-11.1429
▁আবৃত	-11.143
▁উপায়ুক্তৰ	-11.1432
▁খুটি	-11.1434
▁জড়িয়তে	-11.1434
▁বদৰুদ্দিন	-11.1434
▁ভিয়েটনাম	-11.1434
▁সাৱটি	-11.1434
▁অধিগ্ৰহণ	-11.1434
ছোৱা	-11.1435
▁১৯৫৬	-11.1436
▁উপাৰ্জনৰ	-11.1438
▁চলক	-11.1439
▁খাইছিল	-11.144
ছোৱালীৰ	-11.1441
▁বাস্তৱত	-11.1442
▁মাছমৰীয়া	-11.1442
▁পত্র	-11.1445
০৩	-11.1445
▁সৰোজ	-11.1447
▁ওলাইছিল	-11.1448
▁দেশক	-11.145
▁সিহতে	-11.1451
▁একতা	-11.1451
▁Me	-11.1453
▁ভাষাটো	-11.1453
▁মহাদেৱ	-11.1453
▁ফ্ৰ	-11.1453
▁শৃংখলাৰ	-11.1456
▁সকললৈ	-11.1457
▁প্রতিষ্ঠান	-11.1457
▁ছালৰ	-11.146
▁দ্বাৰ	-11.146
▁কেচ	-11.146
▁ভৰালী	-11.1461
ৰেণ	-11.1461
▁সৱল	-11.1463
▁বৃক্ষ	-11.1463
▁শক্তিয়ে	-11.1465
বেৰ	-11.1467
▁কভিড	-11.1468
▁খেতিয়কে	-11.147
▁বিমানকোঠ	-11.147
▁সান্নিধ্য	-11.147
▁প্ৰবক্তা	-11.1471
▁দন্ত	-11.1471
▁পৰিমানে	-11.1472
▁..	-11.1476
দ্ধ	-11.1476
▁ঢুক	-11.1477
ামি	-11.1477
▁চিৰাং	-11.1478
▁ভাবিবলৈ	-11.1479
▁ব্যক্তিসকলক	-11.1481
▁সম্বলিত	-11.1482
▁পদবী	-11.1484
▁১৯৮৬	-11.1487
▁বাহাদুৰ	-11.1488
অন	-11.1489
▁সাজোন	-11.1489
▁পৰিছে৷	-11.1489
▁থয়	-11.1489
▁উলিয়ালে	-11.149
▁কপালত	-11.1491
ধ্বনি	-11.1492
▁গাঢ়	-11.1493
▁বাঘজান	-11.1495
স্থল	-11.1495
ss	-11.1498
▁নিৰাময়	-11.15
সজ্জা	-11.1501
▁সময়লৈকে	-11.1502
লোকে	-11.1502
পূর্ণ	-11.1502
")	-11.1503
▁সাংবাদিকে	-11.1505
▁ৰামায়ণ	-11.1507
▁চৰ্চিত	-11.1507
▁হাহাকাৰ	-11.1507
▁নাৰিকল	-11.1507
▁দ্ৰাক্ষাৰস	-11.1507
▁দীপাৱলী	-11.1507
▁প্ৰজেক্ট	-11.1508
▁তিতাবৰ	-11.1508
▁পৰিত্যাগ	-11.1509
▁কৃষ্ণই	-11.1511
▁নিৰাপত্তাৰ	-11.1512
▁মুনি	-11.1512
▁সতেজ	-11.1514
গ্ৰে	-11.1514
[7]	-11.1514
▁or	-11.1519
▁চোতাল	-11.152
▁ব্যাধি	-11.1522
▁এসপ্তাহ	-11.1522
ard	-11.1522
▁বৰফুকন	-11.1523
▁এৰিব	-11.1524
▁নম্বৰত	-11.1524
▁ৰাজখোৱা	-11.1524
ছিছ	-11.1527
ট্ৰি	-11.1528
▁মুহূৰ্ত	-11.153
▁দুমাহ	-11.1531
▁ফৈদ	-11.1536
যন্ত্ৰ	-11.1538
▁ঘাইপথৰ	-11.1538
গঠিত	-11.1543
▁উপেক্ষা	-11.1544
▁নিখিল	-11.1544
ণ্টে	-11.1544
▁দেৰি	-11.1545
▁অস্বাভাৱিক	-11.1545
▁১৯৫৪	-11.1545
▁আগৰে	-11.1545
▁নেতাসকলে	-11.1546
▁ডেম	-11.1546
▁সেৱনৰ	-11.1547
▁পোৱালী	-11.155
▁এষাৰ	-11.155
▁বংশধৰ	-11.155
নিৰ্	-11.1552
▁শনি	-11.1554
▁পৃষ্ঠাখন	-11.1555
▁অৰুণাচলৰ	-11.1556
বৃত্তি	-11.1561
▁চাইট	-11.1563
▁শ্যাম	-11.1565
▁পাৰি৷	-11.157
পোৱা	-11.1571
▁কমিটী	-11.1573
▁সমস্যাই	-11.1575
▁নেপালী	-11.1576
তীয়া	-11.1578
▁GNOME	-11.158
▁নিয়ন্ত্ৰিত	-11.158
▁চিলাৰায়	-11.158
▁কেবাটাও	-11.1581
তেতিয়া	-11.1581
▁বিভূষিত	-11.1581
▁বিভাজনৰ	-11.1582
▁মোদীক	-11.1583
▁নিলাম	-11.1584
▁ইয়াতকৈ	-11.1584
▁অদৃশ্য	-11.1584
▁বিশদ	-11.1586
াঙ্গ	-11.1586
স্থলী	-11.1587
▁উপকূল	-11.1588
াধিক	-11.1591
AST	-11.1592
▁নাগৰিকে	-11.1592
▁এতিয়াই	-11.1593
▁চুলতান	-11.1593
▁পঠিয়ালে	-11.1594
▁আশাৰ	-11.1595
▁বৰ্ণিত	-11.1595
▁সৰবৰাহকাৰী	-11.1596
্ড	-11.1597
▁লােক	-11.1598
name	-11.1601
▁আহাঁ	-11.1601
▁মানকাচৰ	-11.1602
▁হাৰ্	-11.1602
▁প্ৰত্যুত্তৰ	-11.1602
Ch	-11.1603
▁ইহঁতক	-11.1604
৬৮	-11.1605
har	-11.1606
দীঘল	-11.161
Assamese	-11.161
port	-11.1613
ক্তি	-11.1616
▁সেইবোৰে	-11.1617
▁অন্বেষণ	-11.1617
▁শৰণাৰ্থী	-11.1617
▁ভাষ্য	-11.1618
▁জলসম্পদ	-11.1618
▁কৰিমগঞ্জ	-11.1619
▁প্ৰতিগৰাকী	-11.1619
▁কেন্দ্ৰটো	-11.1621
ক্ৰি	-11.1623
▁বজালৈ	-11.1623
বৰ্ষ	-11.1625
▁শাৰীৰ	-11.1626
▁....	-11.1628
▁আসাম	-11.1629
▁মূলা	-11.163
▁মিঃ	-11.1631
▁বাল	-11.1633
্ৰা	-11.1634
▁পালিত	-11.1636
▁তেজপুৰত	-11.1636
▁মাজভাগত	-11.164
▁প্ৰিন্ট	-11.1644
▁লোহাৰ	-11.1647
।[13]	-11.1648
সম্পাদনা	-11.1648
▁শাও	-11.1651
▁কাশ্যপ	-11.1654
▁প্রত্যেক	-11.1654
▁গাঁঠি	-11.1654
THE	-11.1654
▁টেলি	-11.1656
▁১৯৪৬	-11.1656
▁মুকুল	-11.1656
▁পাঠ্যক্ৰমৰ	-11.1657
▁লেখাৰ	-11.1657
▁হিমালয়ৰ	-11.1658
▁বেতন	-11.166
গঞ্জ	-11.1664
▁কৃষ্ণা	-11.1665
▁বেংগল	-11.1667
▁অধ্য	-11.1668
স্তু	-11.167
▁উপকাৰী	-11.167
হোৱা	-11.167
▁গল্পকাৰ	-11.1671
ধৰি	-11.1674
▁পেলাবলৈ	-11.1674
▁বহুবাৰ	-11.1675
▁বন্ধন	-11.1676
তিনি	-11.1676
▁অধিৱেশনৰ	-11.1678
▁উভয়ে	-11.1678
▁দোকানত	-11.168
▁সময়খিনি	-11.1684
▁অব্	-11.1686
কটা	-11.1686
▁সিফালে	-11.1687
াচাৰ	-11.1688
▁ব্যঞ্জন	-11.1691
▁মৃণাল	-11.1691
▁তথাকথিত	-11.1691
▁যোনাথন	-11.1692
▁মছলা	-11.1692
▁সিংহই	-11.1692
▁উদযাপনৰ	-11.1693
হঁক	-11.1693
▁বিশ্বব্যাপী	-11.1694
▁টাইমছ	-11.1695
▁দায়বদ্ধতা	-11.1695
▁আইনষ্টাইন	-11.1699
▁তাতোকৈ	-11.17
▁হোৱাইট	-11.1701
▁পৰ্বতৰ	-11.1705
▁দুটামান	-11.1708
▁প্ৰস্তাৱি	-11.1711
▁জাম	-11.1712
▁সেতু	-11.1715
▁অসমে	-11.1717
▁পৰ্দাৰ	-11.1719
▁চৌল	-11.172
ঘৰত	-11.1724
জ্য	-11.1725
▁পুষ্টি	-11.1725
▁যোগী	-11.1726
▁আক্রমণ	-11.1729
▁তেৱোঁ	-11.1729
▁ঐক্যবদ্ধ	-11.1729
▁ইঞ্জিনিয়াৰিং	-11.173
con	-11.173
▁খোদিত	-11.1732
▁মৃত্যুদণ্ড	-11.1732
▁সাপ্তাহিক	-11.1732
াৰ্থক	-11.1733
▁বহিবলৈ	-11.1734
▁কিল	-11.1735
▁সংগ্ৰহৰ	-11.1738
▁প্লেট	-11.1738
ুং	-11.174
▁আগমণ	-11.174
▁কবিৰ	-11.1741
▁হাৰিয়ানা	-11.1742
বোল	-11.1743
▁১৯৭৫	-11.1745
ইষ্ট	-11.1746
বুল	-11.1747
▁চিন্তাধাৰা	-11.1748
▁টেবুল	-11.1749
কামী	-11.1751
▁পাঠকে	-11.1751
৪৯	-11.1754
▁গৌৰী	-11.1755
ry	-11.1756
▁ফেচবুকৰ	-11.1757
ঈ	-11.1758
Name	-11.176
ত্	-11.176
▁দুৱাৰৰ	-11.1765
▁আনুগত্য	-11.1766
▁পুনৰাবৃত্তি	-11.1766
▁তপস্যা	-11.1766
▁অৱহেলা	-11.1766
▁পৰিৱৰ্তিত	-11.1767
▁হাস্য	-11.1768
▁অট্টালিকা	-11.1771
ৰামৰ	-11.1771
হৃদয়	-11.1772
▁ভাবোঁ	-11.1772
▁গলে	-11.1773
▁মেলত	-11.1774
▁চাৰ্জ	-11.1774
▁ব্যৱস্থাটো	-11.1777
▁ধর্ম	-11.1778
▁দুবাৰকৈ	-11.178
অভি	-11.1781
▁বিষয়াসকলৰ	-11.1781
▁দাঁতৰ	-11.1782
▁26	-11.1783
▁ছুটি	-11.1785
▁লেখকে	-11.1785
▁অধ	-11.1788
সৱ	-11.1788
ভৰ	-11.1789
▁সঁচাই	-11.1789
▁চলিহা	-11.1789
▁টনা	-11.1797
▁আদিকে	-11.1799
▁কথাৰে	-11.18
িয়েল	-11.1802
▁আকাৰত	-11.1802
▁খ্রীষ্ট	-11.1803
▁ধীৰ	-11.1803
▁১৯৭৭	-11.1805
▁বৈঠকৰ	-11.1809
▁হেণ্ড	-11.1809
টক	-11.181
▁ব্ৰতী	-11.1812
▁বানান	-11.1814
▁50	-11.1815
▁Lo	-11.1816
▁অনিৰুদ্ধ	-11.1816
▁খৰ	-11.1816
▁সলাই	-11.1818
▁ড্ৰাইভ	-11.1818
টুট	-11.182
▁কলৰ	-11.1822
দেহ	-11.1823
ভো	-11.1824
▁আখ্যান	-11.1829
▁ফলৰ	-11.1829
ৰ্তি	-11.1834
ৰ্ধ	-11.1838
িলা	-11.1839
▁পদ্ধতিটো	-11.1841
▁কৰিবলৈও	-11.1841
▁পদক্ষেপৰ	-11.1842
▁কেইবাবাৰো	-11.1842
▁জগৰীয়া	-11.1842
wiki	-11.1842
▁কটাক্ষ	-11.1844
▁ভেঁটি	-11.1844
▁বেজ	-11.1845
▁অডিঅ	-11.1845
▁মাইকেল	-11.1845
▁লিখন	-11.1846
▁খুজিছে	-11.1846
▁বৰ্তাই	-11.1848
▁ব্যাস	-11.1852
▁জগতলৈ	-11.1852
▁প্ৰমান	-11.1858
▁শ্ৰমিকে	-11.1859
▁কিনিবলৈ	-11.1861
মানুহ	-11.1861
▁মেলাত	-11.1861
▁কটকী	-11.1862
▁নাথাকিল	-11.1864
▁ঘটাই	-11.1866
স্বাস্থ্য	-11.1868
▁বেন	-11.1874
▁ভূমিকাত	-11.1876
▁এঘাৰ	-11.1876
▁মালিকৰ	-11.1876
▁ৰোমাণ্টিক	-11.1879
▁প্ৰৱণতা	-11.188
▁সচৰাচৰ	-11.188
▁পেকেজ	-11.188
▁Ra	-11.188
▁উপভাষা	-11.1884
▁চৰা	-11.1885
▁দবা	-11.1885
frac	-11.1885
▁ধাতু	-11.1885
▁পাব্লিক	-11.1886
▁কান্ধত	-11.1887
োজ	-11.1888
▁কলহ	-11.1888
▁তৈয়াৰী	-11.1888
ফট	-11.1888
▁সংস্থাপনৰ	-11.1891
▁ফাউণ্ডেশ্যনৰ	-11.1891
ংশ	-11.1892
▁সময়তেই	-11.1893
▁বৈষম্য	-11.1893
▁মোডীৰ	-11.1894
লহেতেন	-11.1895
্রা	-11.1896
▁Mo	-11.1897
▁ফেব্ৰুৱাৰি	-11.1898
বাঈ	-11.1903
পৰায়ণ	-11.1904
▁নোহোৱালৈকে	-11.1907
▁আঁচ	-11.1908
চেল	-11.1909
tr	-11.1909
▁হাইস্কুলত	-11.1916
▁প্ৰতিশোধ	-11.1917
▁মিউজিয়াম	-11.1917
▁গৰ্ভধাৰণ	-11.1918
▁ডবকা	-11.1918
▁ঢ	-11.192
▁টক	-11.1921
▁মাতা	-11.1922
▁মন্দিৰটো	-11.1922
৩৮	-11.1923
ৱদ্ধ	-11.1926
সাধাৰণ	-11.1927
▁কাৰ্য্যক	-11.1927
▁পেহা	-11.1927
▁দেৱান	-11.1929
▁নেশ্যনেল	-11.193
৯৮	-11.1931
▁::	-11.1932
▁পালেই	-11.1933
▁পৰ্য্যায়ত	-11.1933
▁১২০	-11.1933
▁চাওঁক	-11.1935
▁আলোচনীত	-11.1935
▁অধিবেশনৰ	-11.1935
▁খাইছে	-11.1937
▁নামৰূপ	-11.1939
▁হায়দৰাবাদ	-11.194
▁0	-11.1942
কাৰৰ	-11.1944
জাই	-11.1945
েলৰ	-11.1946
প্ৰকাশ	-11.1946
।[1][2]	-11.1949
▁ধানৰ	-11.1951
সেন	-11.1952
মূল্য	-11.1956
▁ASSAM	-11.1956
▁ৰখাত	-11.1957
▁কিজানি	-11.1957
▁দূৰীকৰণ	-11.1958
▁মান্য	-11.1959
▁কেমেৰাৰ	-11.1961
▁অসহায়	-11.1961
ওঁতে	-11.1962
▁যুক্তৰাষ্ট্ৰত	-11.1962
▁আদমী	-11.1963
▁পৰে৷	-11.1963
▁উজান	-11.1965
▁ফৰ্ম	-11.1965
▁শোধাই	-11.1966
▁সভ্য	-11.1966
▁প্ৰসাৰিত	-11.1969
▁স্বৰ্গৰ	-11.197
▁পক্ষই	-11.197
▁যোগাব	-11.1972
▁AS	-11.1972
ana	-11.1974
▁ধা	-11.1978
▁কাই	-11.198
ism	-11.1984
▁ব্যভিচাৰ	-11.1985
▁বাতৰিটো	-11.1987
গামী	-11.1988
ডো	-11.1989
▁বাহাল	-11.1989
হাম	-11.199
▁অপাৰেট	-11.1991
▁যিৰিমিয়া	-11.1994
▁হিছাপে	-11.1994
▁নিষ্ঠুৰ	-11.1994
▁চিৰিয়াখানা	-11.1994
▁সংক্ষিপ্ত	-11.1994
▁১৯৭৪	-11.1995
▁কিং	-11.1996
▁পৰিস্কাৰ	-11.1996
▁সজীৱ	-11.1997
▁মিনি	-11.1997
▁Na	-11.2003
▁সংশয়	-11.2003
▁ডিমাপুৰ	-11.2005
▁মিজোৰামৰ	-11.2005
▁St	-11.2008
নিজ	-11.2009
▁বিধৱা	-11.2009
ik	-11.2011
▁সত্তা	-11.2012
সূত্ৰ	-11.2013
▁জীয়া	-11.2015
▁উত্তৰাধিকাৰী	-11.2015
he	-11.2016
▁দেৱৰ	-11.202
▁Pa	-11.202
▁শৈশৱৰ	-11.2022
চিং	-11.2024
▁ভেদ	-11.2024
▁বিস্ফোৰণৰ	-11.2024
▁থৈছে	-11.2027
▁অনুষ্ঠানতে	-11.2029
ণ্ডে	-11.203
▁শিশুটিৰ	-11.203
ian	-11.2031
▁তিনিও	-11.2031
▁উৎক্ষেপণ	-11.2032
▁তালাচী	-11.2033
▁ভোটৰ	-11.2033
▁অনুজ্ঞাপত্ৰ	-11.2034
▁অস	-11.2034
▁ফচল	-11.2035
বেগ	-11.2035
▁এইসমূহ	-11.2035
▁অনিষ্ট	-11.2036
উল	-11.2037
▁প্রভু	-11.2037
তিৰ	-11.2037
▁পৰ্ব্বত	-11.2042
▁Li	-11.2042
▁আজান	-11.2046
iya	-11.2046
▁পানীয়	-11.2047
▁ঘূৰা	-11.2052
▁স্বৰাজ	-11.2055
▁পাৰিবা	-11.2055
▁ৱাৰ	-11.2059
▁পৰ্যটনৰ	-11.206
▁মটক	-11.2061
চালিত	-11.2066
▁কিনো	-11.2067
▁ফাইলৰ	-11.207
ঙ্গা	-11.207
▁ভীষণ	-11.2071
▁Al	-11.2071
▁ছিকিম	-11.2071
▁দ্বীপপুঞ্জ	-11.2071
▁সুদৃঢ়	-11.2071
▁১৯৬৬	-11.2073
▁খেলাৰ	-11.2077
উদ্ধৃতিৰ	-11.2077
▁কেম্ব্ৰিজ	-11.2077
▁সংস্পৰ্শলৈ	-11.2079
ৰাগ	-11.208
▁গ্ৰন্থমেলা	-11.208
▁হত্যাকাৰী	-11.208
▁কৈছো	-11.2081
▁গৰাখহনীয়া	-11.2082
▁চিঠিখন	-11.2083
▁কিলো	-11.2083
লুং	-11.2087
উদ	-11.2092
▁আৰাম	-11.2092
▁বৰপেটাত	-11.2096
৫৯	-11.2097
▁ৰখাটো	-11.2097
▁ঘটনাটোৰ	-11.2097
▁কলকাতাত	-11.2098
▁ককা	-11.2098
ত্ত্ব	-11.2102
▁প্ৰভাৱত	-11.2105
mp	-11.2108
▁ইউৰোপীয়	-11.2109
শস্ত্ৰ	-11.211
▁কোনোপধ্যে	-11.211
▁পুনৰুদ্ধাৰ	-11.211
▁চৰ্টকাট	-11.211
▁ভৱিষ্যৎ	-11.211
▁সামৰ্থবান	-11.211
ঁৰ	-11.2114
▁হোটেলত	-11.2116
▁বদ	-11.2119
▁অৰণ্যৰ	-11.2121
▁নোৱাৰে৷	-11.2121
▁দুৱৰা	-11.2123
▁জন্মস্থান	-11.2124
▁বীণা	-11.2126
বিধৰ	-11.2127
▁ভৰিত	-11.2128
▁মিশ্ৰিত	-11.2128
▁ময়েই	-11.213
▁বৰ্গৰ	-11.2131
▁হোষ্টেল	-11.2135
▁পূর্ব	-11.2135
য়াল	-11.2139
▁তম্বু	-11.2142
▁বেগত	-11.2144
▁কৃ	-11.2146
▁একেলগ	-11.2147
▁কালক্ৰমত	-11.2149
▁পিছুৱাই	-11.2149
▁জিতেন্দ্ৰ	-11.2151
▁১৯৩৫	-11.2151
▁কেপ	-11.2153
▁বিস্ফোৰক	-11.2154
▁যোগফল	-11.2155
▁চেন্টাৰ	-11.2155
গোল	-11.216
▁জোনাকী	-11.2161
▁হাজিৰ	-11.2162
▁নোৱাৰিলোঁ	-11.2164
▁গৰ্ভত	-11.2167
▁অস্থিৰ	-11.2167
▁থল	-11.2169
বৰ্তী	-11.217
▁ডাইনী	-11.217
ud	-11.217
▁বক্তা	-11.2172
েম	-11.2173
▁কোৰোণাৰ	-11.2174
▁টিপক	-11.2175
ক্ষা	-11.2175
▁ওঁঠ	-11.2178
▁সাক্ষাতে	-11.218
নদী	-11.2182
উন	-11.2183
▁চয়তানৰ	-11.2184
বাহিনী	-11.2184
▁তীক্ষ্ণ	-11.2188
▁প্ৰাপ্য	-11.2188
▁পাৰদৰ্শিতা	-11.2188
▁বিক্ৰেতা	-11.2188
▁দ্বৈত	-11.2188
▁বাঢ়ে	-11.2188
▁ফাগুন	-11.2188
▁শ্লোক	-11.2188
▁১৯৭৩	-11.2189
▁নবী	-11.219
▁জৰিত	-11.2191
চৰিত	-11.2194
▁চকা	-11.2194
▁হয়গৈ	-11.2194
▁সভাপতিত্ব	-11.2194
▁এইবাৰো	-11.2195
▁৫৯	-11.2198
বিভাগ	-11.2199
য়াম	-11.2201
▁নেজ	-11.2203
▁কৰোৱাৰ	-11.2204
দেউতা	-11.2208
▁গাড়ীত	-11.2211
বুক	-11.2214
▁সিদ্ধি	-11.2216
▁মাননীয়	-11.2217
▁প্লাষ্টিকৰ	-11.2219
▁বন্ধৰ	-11.2221
▁কালী	-11.2223
▁হিত	-11.2223
▁চমক	-11.2224
সুলভ	-11.2224
▁পাশ্চাত্য	-11.2227
▁মহকুমাধিপতি	-11.2227
▁উচ্চতাত	-11.2227
▁পাটকাই	-11.2227
দণ্ড	-11.2228
▁মুগা	-11.2229
▁গ্ৰেড	-11.2229
uk	-11.2231
▁নিধি	-11.2231
▁অনুৰাগ	-11.2232
▁প্ৰক্ষেপ	-11.2232
▁অনুপম	-11.2233
▁ৰছী	-11.2234
▁পাগল	-11.2238
▁নজৰ	-11.224
▁বিহাৰী	-11.224
▁হস্পিতাল	-11.2241
▁পইছা	-11.2242
পৃষ্ঠ	-11.2242
▁কম্প	-11.2243
ah	-11.2243
ঁচা	-11.2245
▁গীতবোৰ	-11.2247
ৰুণ	-11.2247
ডাই	-11.2248
▁মেছ	-11.2249
▁মূল্যবৃদ্ধিৰ	-11.225
▁সন্ধানহীন	-11.225
▁কাপুৰ	-11.2251
pt	-11.2251
▁আজ	-11.2253
▁মহন্তৰ	-11.2254
▁মেজৰ	-11.2256
▁বৰুৱাক	-11.2256
▁কৰিবলগা	-11.2258
কায়	-11.2261
▁Plus	-11.2266
▁বেংগালুৰু	-11.2266
▁শান্ত্বনা	-11.2266
▁জগদীশ	-11.2266
▁লেতেৰা	-11.2266
▁প্ৰাপ্তবয়স্ক	-11.2266
▁পৰৱৰ্ত্তী	-11.2267
▁আওকাণ	-11.2267
▁ইম্ফল	-11.2267
▁১৯৪৯	-11.2268
▁বিটিচিৰ	-11.2268
▁ধাৰ্য্য	-11.227
▁জগতখন	-11.2271
কলৈ	-11.2271
▁দলঙৰ	-11.2273
▁ভাস্কৰ্য	-11.2273
৫৮	-11.2275
▁তাতো	-11.2275
▁নলয়	-11.2279
▁গণেশৰ	-11.228
▁চয়তানে	-11.2281
▁কিৰণ	-11.2284
▁শ্বাহৰ	-11.2284
▁পঠিয়াব	-11.2286
▁খেদা	-11.229
nu	-11.2291
ok	-11.2293
▁ভগ্নাংশ	-11.2293
▁দেশখন	-11.2294
▁ৰাজনীতিক	-11.2296
▁জাগি	-11.2297
▁বনাঞ্চলত	-11.2298
▁ফুটাই	-11.2298
▁চিলিণ্ডাৰ	-11.23
▁চাঞ্চল্য	-11.23
AM	-11.2301
▁অব্যাহতি	-11.2302
▁পল্লৱ	-11.2305
।[14]	-11.2306
▁ব্যায়াম	-11.2306
▁মহাজোঁট	-11.2306
-1	-11.2307
rt	-11.2308
▁অসন্তুষ্ট	-11.2308
▁১৯১৪	-11.231
▁যাকোবৰ	-11.231
▁অভাৱনীয়	-11.2311
ee	-11.2312
টিয়ে	-11.2313
ছিং	-11.2315
▁বেট	-11.2315
▁এদল	-11.2323
▁জলকীয়া	-11.2325
ীণ	-11.2325
▁বাহৰ	-11.2326
▁সন্ত্ৰাস	-11.2327
▁সময়মতে	-11.2327
৫১	-11.233
▁শুনিব	-11.2331
খো	-11.2333
▁আলোচনীখনৰ	-11.2336
৯৩	-11.2338
চৰণ	-11.2339
▁জাতিয়ে	-11.234
ON	-11.2346
▁ইফিচীয়া	-11.2346
▁উমৈহতীয়া	-11.2346
▁পর্যন্ত	-11.2346
▁বাজপেয়ী	-11.2346
▁পূবে	-11.2346
▁সৰ্বনিম্ন	-11.2346
▁নিবাৰণ	-11.2346
▁১৯৬৩	-11.2347
▁মুখ্যমন্ত্রী	-11.2347
▁১৯৪৫	-11.2348
ম্বে	-11.2349
▁গতিশীল	-11.2349
▁সাক্ষীসকলে	-11.2349
▁কন্যাৰ	-11.235
▁আভ্যন্তৰীণ	-11.235
▁টেক্স	-11.235
▁অশ্লীল	-11.2351
Re	-11.2351
মন্ত	-11.2351
▁আন্তৰিকতাৰে	-11.2353
▁মাজতেই	-11.2353
গণিত	-11.2353
▁লক্ষ্যত	-11.2353
▁ওলোটা	-11.2355
▁টকাত	-11.2357
▁লোকগীত	-11.2357
ন্ত্ৰ	-11.2358
▁বহুৱাই	-11.2358
▁ফুকনৰ	-11.2362
▁বাৰিষা	-11.2364
▁আবু	-11.2365
▁শ্ৰীলংকা	-11.2368
▁ছেপ্তেম্বৰ	-11.2368
▁সশস্ত্	-11.237
আত	-11.2372
▁এনেয়ে	-11.2374
▁অসুৰ	-11.2375
▁Con	-11.2376
▁ইণ্ডিয়াই	-11.2377
▁জুৱা	-11.2378
▁আংশিক	-11.2381
▁সুধিব	-11.2381
est	-11.2383
▁নেতিবাচক	-11.2385
▁বিবেকানন্দ	-11.2386
▁বজালী	-11.2387
▁চিতা	-11.2387
tt	-11.2388
প্ৰিয়া	-11.239
▁ওলোৱাৰ	-11.239
▁ভগা	-11.2392
ৱত	-11.2392
৮৯	-11.2395
▁আও	-11.2396
▁৬৪	-11.2398
▁অথ	-11.2398
▁হিচাব	-11.2399
▁১৯৫৫	-11.2401
▁ৰৌ	-11.2402
▁তাম	-11.2404
▁প্ৰতিফলন	-11.2405
▁সদ	-11.2405
▁ইং	-11.2408
৭৯	-11.2411
▁প্ৰশ্নটো	-11.2412
▁কিতাপখনত	-11.2413
ংগল	-11.2413
▁সমস্যাক	-11.2417
▁থাই	-11.2418
▁৯৯	-11.2422
▁আয়ুস	-11.2423
ld	-11.2424
ৎস	-11.2425
▁বিলাহী	-11.2425
▁কেন্সাৰ	-11.2425
▁ভৰ্ত্তি	-11.2426
▁সদস্যসকলৰ	-11.2426
▁থাইলেণ্ড	-11.2426
▁ছোনিয়া	-11.2426
▁সাম	-11.2428
▁পাকিস্তানী	-11.2429
▁ভাৰ্যা	-11.243
▁মাউছ	-11.243
▁স্বাভাৱিকতে	-11.243
ভাৰতৰ	-11.2431
▁গোৱাৰ	-11.2432
▁ধৰ	-11.2432
▁ট্ৰেইন	-11.2433
▁আহাৰৰ	-11.2434
▁ব্যা	-11.2436
▁বাচন	-11.2436
▁আনজন	-11.2437
▁জুম	-11.2438
▁হেতু	-11.2447
▁থিয়েটাৰৰ	-11.2451
▁হাতখন	-11.2454
▁সংযোগক্ষেত্ৰ	-11.2456
ালে	-11.2457
▁পোনপটীয়া	-11.2458
▁কেইগৰাকী	-11.2458
▁যুৱকক	-11.2459
▁নিম	-11.2462
আলোচনী	-11.2464
অৰ্থাৎ	-11.2465
▁নিউজিলেণ্ড	-11.2466
▁যাকোবে	-11.2466
▁পাইলট	-11.2467
▁সাক্ষাত	-11.247
গ্ৰহণ	-11.2473
▁লোকজনে	-11.2475
▁বিচিত্ৰ	-11.2475
▁অধ্যায়ত	-11.2479
াওঁ	-11.248
▁পুত্ৰই	-11.2482
▁ইছলামৰ	-11.2483
▁[1]	-11.2484
▁ক্লাৱত	-11.2486
▁ছোৱালীজনীৰ	-11.2491
RA	-11.2493
▁হাউছ	-11.2495
▁নগৰবোৰ	-11.2496
ইছে	-11.25
▁দপ্তৰৰ	-11.2502
▁অভূতপূৰ্ব	-11.2506
▁উপাধ্যক্ষ	-11.2506
▁উলংঘা	-11.2506
▁নিঃশেষ	-11.2506
▁অৱতৰণ	-11.2506
মুল	-11.2506
▁অন্ধ্ৰ	-11.2506
▁লুপ্ত	-11.2506
▁23	-11.2507
▁চোৱাচিতা	-11.2507
▁সৌৰভ	-11.251
▁মণ্ডলী	-11.2511
▁ব্যৱসায়ত	-11.2513
▁বৃক্কত	-11.2513
▁হিমা	-11.2513
ll	-11.2515
▁নগাওঁ	-11.2515
৭৭	-11.2517
▁মানেই	-11.2518
▁আবাস	-11.2519
▁কমকৈ	-11.2522
▁খহি	-11.2525
▁জেল	-11.2526
▁পত্ৰৰ	-11.2526
▁বৰদলৈৰ	-11.2529
▁সহমত	-11.253
▁কাৰ্যক	-11.2533
[8]	-11.2533
টিভ	-11.2534
▁ৱেবছাইটত	-11.2535
▁পৰিয়াললৈ	-11.2537
০৭	-11.2538
শ্ৰেণী	-11.2543
▁ৰুপ	-11.2544
▁একাডেমি	-11.2546
▁বলবৎ	-11.2546
▁নাহৰফুটুকী	-11.2546
ect	-11.2547
▁উৰ্দু	-11.2547
▁সৃষ্টিশীল	-11.2547
▁চোৰাংচোৱা	-11.2547
▁পহৰা	-11.2548
▁দ্ব	-11.2549
▁সাংবাদিকতা	-11.2549
▁ধনু	-11.2549
▁ইয়োব	-11.255
▁টিপি	-11.2551
জুন	-11.2553
চাপৰি	-11.2554
▁মৰ্যদা	-11.2556
▁বছৰটোৰ	-11.2557
▁বিজেপিত	-11.2558
প্ৰেম	-11.256
▁ফলতে	-11.2561
▁গদ্য	-11.2567
▁ভট্টাচাৰ্য্য	-11.2567
৯৭	-11.2567
▁বিদ্ৰোহৰ	-11.2569
লিত	-11.2569
তুল	-11.2569
েগ	-11.2569
▁গীতটিৰ	-11.2571
▁তালুকৰ	-11.2572
▁চাংমাই	-11.2573
▁বাহনৰ	-11.2575
▁মূৰটো	-11.2575
▁দুৰ্ভাগ্যজনক	-11.2576
▁খেতিয়কৰ	-11.2579
▁নহওঁক	-11.2579
নেদৰে	-11.258
▁পৰম্পৰাৰ	-11.258
▁কাণ্ডৰ	-11.258
▁বী	-11.258
]]	-11.2581
জীয়ে	-11.2581
▁কেম্প	-11.2582
▁আয়ুৰ্বেদ	-11.2584
▁পিক্সেল	-11.2587
▁হৃদযন্ত্ৰ	-11.2587
▁দূৰৈত	-11.2587
▁অভিজিত	-11.2588
▁১৯৬১	-11.2588
▁যুঁজত	-11.2589
▁ইটা	-11.2589
দুটা	-11.2591
▁বৰ্তি	-11.2594
ড়ী	-11.2595
নছ	-11.2596
▁চালো	-11.2596
▁দৰ্শকক	-11.2597
▁কোৰআন	-11.2601
কীয়া	-11.2602
▁পছন্দৰ	-11.2602
▁৫৮	-11.2604
চ্ছা	-11.2605
▁অভাৰ	-11.2606
▁ৰক্তপাত	-11.2608
▁!!	-11.2612
▁মুকলিকৈ	-11.2615
▁লিপিৰ	-11.2616
▁মৰণ	-11.2616
জনীয়া	-11.2618
চাম	-11.2618
▁প্ৰতিৰোধী	-11.2619
বাৰৰ	-11.262
তন্ত্ৰ	-11.262
▁গীতটি	-11.262
▁কমাই	-11.2621
▁গাৰ্গ	-11.2626
▁পলাশ	-11.2627
▁নিখুঁত	-11.2628
▁যুৱকজনে	-11.2628
▁সত্ৰাধিকাৰ	-11.2628
▁অন্তঃ	-11.2629
▁ইত্যাদিৰ	-11.2629
▁পৰমানন্দ	-11.2629
▁সুন্দৰবন	-11.2634
ছিয়েল	-11.2634
৪৩	-11.2635
▁বিহপুৰীয়া	-11.2635
▁পলেষ্টীয়াসকল	-11.2636
▁নিৰ্দ্দেশনা	-11.2637
▁ৰবীন্দ্ৰনাথ	-11.2637
▁দুজনক	-11.2637
উড	-11.264
▁বাদাম	-11.2642
ৰুৱা	-11.2643
▁মন্ত্ৰীজনে	-11.2645
▁লোভ	-11.2645
▁কৃষকক	-11.2645
▁জনতাক	-11.2649
▁এৰাই	-11.2651
ens	-11.2651
টকীয়া	-11.2652
▁সেইমতে	-11.2657
▁মহেশ্বৰ	-11.2658
▁কাৰাগাৰত	-11.266
▁বেংকে	-11.2663
▁নিৰ্মূল	-11.2668
▁উপভোক্তা	-11.2669
▁প্ৰায়োগিক	-11.2669
▁দৃষ্টিভঙ্গী	-11.2669
▁প্ৰেক্ষাপটত	-11.2669
▁বিদ্যুতৰ	-11.267
▁পদটো	-11.2671
▁শৃংখল	-11.2671
▁যোগাত্মক	-11.2672
▁তেওৰ	-11.2676
▁তিনিওটা	-11.2676
▁পিট	-11.2678
▁শিতান	-11.2678
র্থ	-11.2679
▁নিষ্	-11.268
কন্যা	-11.2687
▁কেল	-11.2689
▁বজাৰলৈ	-11.2689
▁সমাৰোহত	-11.269
▁বহুপদ	-11.269
▁একাডেমীৰ	-11.2691
ংগাৰ	-11.2694
▁চেকল	-11.2696
পাট	-11.2697
si	-11.2698
▁ডাউনল	-11.2699
মণ্ডিত	-11.2699
ল্লি	-11.2709
▁ধ্ৰুপদী	-11.271
▁সহপাঠী	-11.271
▁হাৰি	-11.271
▁উক্তি	-11.271
[6]	-11.271
▁১৯৮৪	-11.2711
▁সুনীল	-11.2712
▁বালা	-11.2713
▁মিডিয়াৰ	-11.2713
▁সোধে	-11.2714
▁ফেক্ট	-11.2715
ত্ৰি	-11.2716
িছিল	-11.2721
▁মেইল	-11.2721
▁১৯৬৪	-11.2725
▁মাত্ৰাৰ	-11.2727
▁যিহোৱালৈ	-11.2728
▁চুক্তিখন	-11.2731
▁গুৰ	-11.2731
▁পৰিচালকৰ	-11.2734
▁নির্	-11.2735
▁চহৰীয়া	-11.2736
▁অক্ষৰ	-11.2738
▁কালা	-11.274
▁দৰকাৰী	-11.2743
▁সূত্ৰে	-11.2744
▁সূচক	-11.2745
▁জেন	-11.2745
।[17]	-11.2745
▁মাকক	-11.2745
▁বাকীবোৰ	-11.2746
▁সাংবাদিকক	-11.275
▁তিনিদিনীয়া	-11.275
▁তন্দ্ৰা	-11.2751
▁অচিনাকি	-11.2751
▁খুচুৰা	-11.2751
▁প্ৰণিপাত	-11.2751
▁জেৰেঙা	-11.2751
▁বিপৰ্যয়	-11.2751
▁মূল্যত	-11.2752
তান্ত্ৰিক	-11.2752
▁খেলপথাৰ	-11.2752
▁নিজাববীয়াকৈ	-11.2753
▁দ্যা	-11.2753
▁বিশেষত্ব	-11.2754
▁কালাম	-11.276
▁পেজ	-11.2762
দেৱতা	-11.2763
▁পাহৰিব	-11.2766
বিয়া	-11.2771
▁ইটাৰ	-11.2771
▁লুই	-11.2772
ram	-11.2777
▁মাত্ৰাত	-11.2778
ালিকে	-11.2783
।’-	-11.2784
▁তালিকাখন	-11.2784
▁গভীৰভাৱে	-11.2786
বিশ্বাস	-11.279
▁পৰিচৰ্যা	-11.2793
▁লাহৰীঘাট	-11.2793
▁পুনৰবাৰ	-11.2797
▁ঢকুৱাখনা	-11.2797
▁ৰাজপুত	-11.2798
▁অৰ্চনা	-11.2799
▁প্ৰতিপালন	-11.28
▁অমান্য	-11.2802
▁নাৰ্ছ	-11.2803
▁নাদ	-11.2804
▁এবছৰৰ	-11.281
▁অক্টোবৰৰ	-11.2811
্চ	-11.2813
▁আহিলো	-11.2814
খিনিৰ	-11.2817
পেট	-11.2817
▁can	-11.2818
▁আচাৰ্য	-11.2819
▁জাতৰ	-11.282
ৰজা	-11.2824
▁মুছলমানৰ	-11.2826
▁প্ৰাগ	-11.2829
▁https	-11.283
▁আবেদনৰ	-11.2832
▁কলিতাৰ	-11.2832
▁অনুগামী	-11.2832
▁NOW	-11.2834
▁কোৱাৰেণ্টাইন	-11.2834
▁ৰিপুন	-11.2837
সলনি	-11.2837
rit	-11.2837
▁ৰাজপথ	-11.2844
▁ধনেৰে	-11.2844
▁মহলে	-11.2846
▁ঘোৰ	-11.2848
ৰাং	-11.2849
ুতি	-11.285
▁অক্ষয়	-11.2853
▁বিকাশত	-11.2862
▁25.	-11.2863
▁খুটা	-11.2863
থান	-11.2863
৯৯	-11.2864
ৱেশ	-11.2867
কৈয়ে	-11.287
▁সংখ্যাবোৰ	-11.2871
বালা	-11.2872
▁দায়বদ্ধ	-11.2873
শ্চ	-11.2874
▁গাইছিল	-11.2875
▁কামো	-11.2875
যো	-11.2875
Organ	-11.2876
▁প্ৰশংসনীয়	-11.2876
▁লাভালাভ	-11.2876
▁গৌড়	-11.2876
ind	-11.2877
▁দুদিনীয়া	-11.2877
▁সমীপত	-11.2878
▁কেইবছৰমান	-11.2878
▁ফণী	-11.2881
ীজ	-11.2883
▁৬১	-11.2883
▁ভেকুলী	-11.2883
ফ্ৰে	-11.2883
▁অশেষ	-11.2884
▁ৰকেট	-11.2886
▁ট্ৰাম্প	-11.2889
▁ব্যৱস্থাই	-11.2889
▁নিজাকৈ	-11.289
▁কন্ঠ	-11.2893
▁পৃষ্ঠ	-11.2894
পুল	-11.2894
▁গোটা	-11.2895
▁হজম	-11.2896
পাক	-11.2897
স্কি	-11.2898
▁তত্ত্বৰ	-11.2898
▁তুলা	-11.2898
▁নিছিল	-11.2902
▁পৰীক্ষামূলক	-11.2902
▁চহৰলৈ	-11.2903
▁কেইটাৰ	-11.2903
▁ক্ৰে	-11.2908
▁স্কুলখন	-11.2908
জুলি	-11.2908
▁গণিতত	-11.291
▁বাগিচাত	-11.291
▁ৱাৰ্ড	-11.2911
▁তথ্যসমূহ	-11.2912
▁শতাব্দীত	-11.2912
▁Job	-11.2913
চিম	-11.2913
বাতি	-11.2915
▁কপাল	-11.2916
▁চব	-11.2916
▁কুঁৱা	-11.2918
gr	-11.2919
▁কণ্ঠদান	-11.2919
▁সামৰ্থ	-11.292
▁লৱণ	-11.2921
▁বাৰ্ত্তা	-11.2923
▁দুৰ্ঘটনাটোত	-11.2923
▁বিনাশ	-11.2923
মন্ত্ৰ	-11.2924
▁বলাৰ	-11.2927
▁বৰগীত	-11.2928
▁বাৰী	-11.2928
▁শূণ্য	-11.293
▁গৈছিল৷	-11.2932
▁An	-11.2933
▁আদম	-11.2938
▁পাৰ্	-11.2939
▁লৈছো	-11.2943
▁সন্ত্ৰাসবাদ	-11.2944
▁বশ	-11.2945
▁নমা	-11.2946
▁২য়	-11.2948
int	-11.2948
▁নিৰ্মলা	-11.295
▁গ্ৰীণ	-11.2952
▁পেছা	-11.2953
০২	-11.2954
gen	-11.2956
▁বিস্ময়	-11.2959
▁ছাউনি	-11.296
▁কৰ্তন	-11.2961
▁অঞ্চললৈ	-11.2962
▁ৰাষ্ট্ৰপতিয়ে	-11.2962
ছী	-11.2962
▁মেৰিয়াই	-11.2962
▁ছালাত	-11.2963
▁r	-11.2963
▁টুপী	-11.2963
াও	-11.2967
▁ৰোগীয়ে	-11.297
▁ট্ৰফী	-11.297
▁খেলিব	-11.2972
▁থৈছিল	-11.2972
সাহিত্যৰ	-11.2974
▁শ্ৰ	-11.2976
চুক	-11.2977
▁আবেদনকাৰী	-11.2979
▁শ্বেত	-11.298
▁কাৰণটো	-11.2981
াৰ্চ	-11.2982
▁সৌন্দৰ্য্য	-11.2982
▁ৰিঅ	-11.2982
▁পোৱাত	-11.2982
▁মৰিব	-11.2984
▁জেক	-11.2987
ali	-11.2988
ুলা	-11.2991
▁পেহাৰ	-11.2993
▁ৰাজেন	-11.2994
▁লভি	-11.2994
▁পুথিখন	-11.2995
▁ধ্বংসৰ	-11.2998
▁গোলাঘাটৰ	-11.2999
▁যাত্ৰীৰ	-11.3002
ূল	-11.3002
▁দণ্ডাধীশ	-11.3003
▁পাৰিপাৰ্শ্বিক	-11.3003
▁তেলেগু	-11.3003
▁লেপটপ	-11.3003
▁কল্যান	-11.3004
▁সৰ্বশেষ	-11.3004
▁হোৱাটছএপ	-11.3004
▁আড্ডা	-11.3004
▁এহেজাৰ	-11.3005
▁চান্দ	-11.3006
▁শক্তিক	-11.3007
▁কলিজাত	-11.3007
▁প্ৰজ্ঞা	-11.3009
▁ভাইসকল	-11.3011
▁পৰিবাৰ	-11.3012
চাৰী	-11.3013
▁অনি	-11.3016
▁নগৰী	-11.3018
লয়	-11.3018
▁চাগৈ	-11.302
▁বস্তুটো	-11.3022
▁বিধানসভাত	-11.3024
▁চকুলো	-11.3025
▁বৰকটকী	-11.303
▁চেহেৰা	-11.3033
▁মেঘালয়ত	-11.3033
▁পাচন	-11.3033
HA	-11.3036
▁ডিজেল	-11.3037
দাম	-11.3038
▁অহংকাৰ	-11.304
▁কোৰিয়াৰ	-11.3042
ence	-11.3043
▁নাগৰিকপঞ্জী	-11.3046
▁হিমাচল	-11.3046
ড়ে	-11.3049
▁ৰজনীকান্ত	-11.3051
য়ৰ	-11.3051
▁গুহা	-11.3054
কলি	-11.3058
পূৱৰ	-11.3062
৯৬	-11.3062
গুটি	-11.3063
▁ন্যায়ালয়	-11.3063
খাৰ	-11.3063
▁যোগায়	-11.3064
জিন	-11.3067
▁বঙ্গ	-11.3068
শন	-11.3071
▁মােৰ	-11.3072
▁সীমাত	-11.3072
▁তামুলী	-11.3073
ভোগ	-11.3074
▁মৎস্য	-11.3077
▁লৰি	-11.308
▁সংঘাতৰ	-11.3082
৭৪	-11.3085
▁দলংখন	-11.3087
▁১৯৪০	-11.3087
▁সামঞ্জস্য	-11.3088
▁দুধনৈ	-11.3088
▁উপশম	-11.3088
▁স্মাৰ্টফোন	-11.3088
▁পুণে	-11.3089
৮৬	-11.3089
▁যােৱা	-11.3089
▁পালেগৈ	-11.3089
ধাৰ	-11.309
▁এটুকুৰা	-11.309
▁স্বীকৃতিপ্ৰাপ্ত	-11.3091
ছাত্ৰীসকলৰ	-11.3091
▁তেনেধৰণৰ	-11.3093
▁গৱেষণাগাৰ	-11.3095
▁সুত্ৰ	-11.3096
▁যাবলগীয়া	-11.3097
che	-11.3097
▁ডুবাই	-11.3098
▁সাৰি	-11.3099
▁নাটকখন	-11.3101
▁150	-11.3102
▁সৰুতে	-11.3105
মধ্য	-11.3106
AL	-11.3108
▁লিমিটেডৰ	-11.3108
▁বস্তি	-11.3111
▁পৰিকল্পিত	-11.3111
▁ৰাণা	-11.3112
কেইগৰাকী	-11.3114
▁Pro	-11.3117
▁23.	-11.3119
▁সৈন্যৰ	-11.3121
বাক	-11.3122
গ্ল	-11.3122
▁শিশুসকলৰ	-11.3123
▁me	-11.3124
▁25	-11.3125
▁ঢেঁকী	-11.3125
ৰাতি	-11.3125
৯২	-11.3125
▁চাহাবে	-11.3129
▁ভিন্নতা	-11.3129
ইছিল	-11.313
▁বজাৰখন	-11.3131
▁বঢ়োৱা	-11.3131
সংগীত	-11.3133
মল	-11.3134
ছাত্ৰ	-11.3134
পুখুৰী	-11.3135
▁মেৰি	-11.3136
নন্দ	-11.3136
▁ফুলা	-11.3137
▁হত্যাকাণ্ডৰ	-11.3137
▁আজীৱন	-11.3138
▁বেদখল	-11.314
▁পৰীক্ষাগাৰ	-11.314
াধ	-11.314
যু	-11.3141
▁মূলৰ	-11.3142
▁মাজুলীত	-11.3145
▁22	-11.3146
▁পানীয়ে	-11.3148
▁বহুসংখ্যক	-11.3148
ER	-11.315
ম্মা	-11.315
▁পৰিণতি	-11.3151
▁সত্তৰ	-11.3151
▁বিষয়াসকলে	-11.3152
▁বাঢ়িব	-11.3153
▁বিজয়ৰ	-11.3155
sk	-11.3156
দ্ৰা	-11.3158
▁ঠাইবোৰ	-11.3158
▁বাদেও	-11.3168
সংখ্যা	-11.3168
মানে	-11.3171
▁মঙল	-11.3171
▁অভিশাপ	-11.3174
▁হিষ্কিয়া	-11.3174
▁উকীল	-11.3174
▁খঙত	-11.3174
▁মেছেজ	-11.3175
▁NOR	-11.3175
▁ফো	-11.3175
▁সমানেই	-11.3176
▁খ্ৰীষ্টানসকল	-11.3179
ুৰা	-11.3182
▁ইণ্টাৰনেটৰ	-11.3182
▁সাই	-11.3183
▁কটোৱা	-11.3186
▁তাণ্ডৱ	-11.319
▁লিঙ্গ	-11.319
▁যোদ্ধা	-11.3197
ob	-11.32
▁পটভূমি	-11.3204
▁মেচত	-11.3205
▁ইন্	-11.3206
▁সমুদ্ৰৰ	-11.3207
▁ধৰ্মত	-11.3207
▁চাৰ্চ	-11.3208
▁ইউনিট	-11.3208
▁পালেহি	-11.3209
▁প্ৰিণ্ট	-11.3209
▁গাখীৰৰ	-11.3209
▁গন	-11.3211
▁কেইদিনমানৰ	-11.3213
ver	-11.3214
▁বিজ	-11.3215
▁উদ্দেশ্যৰে	-11.3215
▁এইটোৱেই	-11.3216
▁টেষ্টত	-11.3217
IC	-11.3217
▁অৰ্কিড	-11.3217
▁উপদ্ৰৱ	-11.3217
▁মজবুত	-11.3217
▁সংগম	-11.3219
▁বানৰ	-11.3223
জানুৱাৰী	-11.3223
▁জাবৰ	-11.3224
▁বিলৰ	-11.3229
ৰপৰাই	-11.3229
TIA	-11.3235
▁ইউটিউব	-11.3235
▁ক্লাৱ	-11.3235
বিজ্ঞানৰ	-11.3239
▁মেম	-11.3241
▁উদ্যম	-11.3242
বাৰীত	-11.3244
▁শত্ৰুৰ	-11.3244
▁প্ৰজন্ম	-11.3245
▁কাৰ্ডৰ	-11.3247
▁বৰ্মা	-11.3247
▁নোযোৱা	-11.3249
▁অৰূপ	-11.3251
▁স্বামীক	-11.3252
▁দুৱাৰখন	-11.3254
▁কাট	-11.3255
▁যিখিনি	-11.3256
▁দিছিলোঁ	-11.3258
▁প্ৰতাৰণা	-11.3261
▁ৰিজাল্ট	-11.3261
▁লাহোৰ	-11.3261
▁পুণৰ	-11.3263
▁শেষৰফালে	-11.3263
▁অধিৱেশনত	-11.3263
নিৰীক্ষা	-11.3264
▁কেইগৰাকীমান	-11.3264
▁মামণি	-11.3266
▁কম্পিউটাৰত	-11.3269
ীসকলৰ	-11.327
▁প্ৰতিষ্ঠানসমূহ	-11.327
▁স্বয়ংক্ৰিয়	-11.3271
নেতা	-11.3271
▁মজিয়া	-11.3275
▁গৌৰৱৰ	-11.3277
▁তিথিত	-11.3277
ical	-11.328
▁আশাত	-11.3281
▁দ্বিতীয়বাৰ	-11.3284
▁পঢ়িছিল	-11.3284
পিনে	-11.3284
▁মোৰো	-11.3285
পালন	-11.3285
▁কেৰালা	-11.3286
▁মোহৰ	-11.3289
কেট	-11.3289
▁কানি	-11.3292
▁ৰাজনীতিবিদ	-11.3293
▁দৰঙ	-11.3298
▁অংশীদাৰী	-11.33
▁গোলক	-11.3302
দ্র	-11.3303
▁দুলীয়াজান	-11.3305
▁তোমালৈ	-11.3305
▁সমাগম	-11.3305
▁শৰাইঘাট	-11.3306
▁জালুকবাৰী	-11.3307
▁নাথাকি	-11.3307
▁প্ৰত্যেকজন	-11.3309
মৃত্যু	-11.3311
▁২০২১ৰ	-11.3312
▁কোব	-11.3312
▁ভাৰা	-11.3312
▁সক্ষমতা	-11.3313
▁গৌৰীপুৰ	-11.3314
▁৭৮	-11.3317
▁অনুসূচিত	-11.3317
▁বেনাৰ	-11.3321
লং	-11.3322
▁মেজ	-11.3323
▁চনতে	-11.3323
৭৩	-11.3324
▁প্ৰট	-11.3324
লিয়ন	-11.3324
▁কৃতি	-11.3325
৮৭	-11.3325
গৈ৷	-11.3326
কল্প	-11.3328
▁প্ৰতিষ্ঠানটোৰ	-11.3331
▁ওজনৰ	-11.3333
স্ত্ৰ	-11.3333
▁যাত্রা	-11.3335
▁ছিল	-11.3335
▁দুবছৰৰ	-11.3338
▁দাৰ	-11.334
▁উঠিবলৈ	-11.3341
▁হাম	-11.3343
▁বোলো	-11.3343
▁সহিতে	-11.3344
▁প্ৰেমী	-11.3345
▁বীজগণিত	-11.3346
▁প্ৰাঞ্জল	-11.3348
▁Baruah	-11.3349
▁যেনিবা	-11.3349
▁জোনবিল	-11.3349
▁বিস্তৰ	-11.3349
▁যুঁজাৰু	-11.3349
▁১৯৮১	-11.335
▁১৯৫৭	-11.335
▁বাস্তৱিক	-11.335
▁মূল্যবোধ	-11.3355
▁অৰ্থনীতিত	-11.3356
▁সামৰ্থ্য	-11.3356
▁পিয়াহ	-11.3358
▁আগতকৈ	-11.3359
▁এজনো	-11.336
▁ফৰৌণ	-11.3362
▁কাশী	-11.3363
CP	-11.3363
▁ৰায়ে	-11.3366
min	-11.3369
▁বন্ধুসকল	-11.3372
▁বিৰূপ	-11.3376
▁নিশ্চয়তা	-11.3376
▁১৯১৯	-11.3377
▁সাৱধানতা	-11.3381
▁পুৰণ	-11.3382
▁তৰি	-11.3384
ত্ৰী	-11.3385
▁চাৰ্	-11.3386
▁অনিয়ম	-11.3387
▁ফাণ্ড	-11.3388
▁সূতাৰ	-11.339
be	-11.3391
▁বাৰাণসী	-11.3393
▁বৈবাহিক	-11.3393
▁প্ৰীতি	-11.3393
▁খগেন	-11.3394
▁Publications	-11.3396
▁সাময়িক	-11.3396
▁বৰবৰুৱা	-11.3396
▁বিলাই	-11.3398
বাৰ্ষিক	-11.34
▁মাৰিছিল	-11.3402
▁পৃ	-11.3402
▁স্বচ্ছতা	-11.3403
শাসন	-11.3404
▁ভেকচিনৰ	-11.3405
▁উচ	-11.3405
▁Dr	-11.3406
৬৪	-11.3407
▁পণ্য	-11.3409
ল্ফ	-11.3413
▁কক্ষ	-11.3414
▁৬৬	-11.3414
▁পাচে	-11.3416
▁বাহনখন	-11.3416
▁ফোনত	-11.3418
▁24	-11.3419
▁কৰ্মচাৰীক	-11.3423
▁সমালোচনাৰ	-11.3428
▁উপন্যাসখনৰ	-11.3429
▁তেজত	-11.3431
৭২	-11.3435
াইছে	-11.3435
▁আহমেদৰ	-11.3435
▁পাঠ্যক্রম	-11.3437
▁ততোধিক	-11.3437
▁টকিঅ	-11.3437
▁নিকটৱৰ্তী	-11.3437
টল	-11.3437
▁সমাপন	-11.3437
▁সমকামী	-11.3438
▁যুগ্ম	-11.3438
▁বুৰঞ্জীৰ	-11.3438
▁ব্যৱস্থাপক	-11.3444
▁আপেল	-11.3445
▁চাহৰ	-11.3445
▁কিস্তি	-11.3447
▁বাখ্যা	-11.3449
▁আটাইকেইজন	-11.3449
▁এক্ট	-11.3449
▁ৰাকেশ	-11.3451
▁বাচ	-11.3451
▁জনগণ	-11.3452
▁অভিব্যক্তি	-11.3453
▁তৈল	-11.3454
▁ছিটা	-11.3454
▁অনুপ	-11.3456
▁১৮০	-11.3464
▁ব্যক্তিত্বৰ	-11.3471
▁ট্ৰাম্পে	-11.3473
▁ৰাজ্যলৈ	-11.3474
▁অমৃতা	-11.3475
▁অতীতত	-11.3476
▁উৎ	-11.3476
▁পটভূমিত	-11.3479
▁ফলতেই	-11.3479
▁d	-11.3479
▁বিহুত	-11.3479
▁ভাঁহি	-11.3482
▁ভেঁকুৰ	-11.3482
▁বিবৰণ	-11.3484
▁ৰুচি	-11.3485
▁ৱাল	-11.3485
▁নাখাব	-11.3487
ধেমালি	-11.3489
▁বেজাৰ	-11.349
ুষ	-11.349
৮১	-11.3492
▁কষ্টকৰ	-11.3493
পণ	-11.3494
▁বিৰতি	-11.3495
▁তাৰো	-11.3499
▁মাহী	-11.35
▁বন্য	-11.35
৯৪	-11.35
▁বালিকা	-11.3503
▁হতাহত	-11.3505
▁27.	-11.3506
▁আহে৷	-11.3507
▁বিকল্পসমূহ	-11.3508
▁সুৰত	-11.3508
▁৩০০০	-11.3509
▁উত্তৰাধিকাৰ	-11.3509
▁৫৭	-11.351
▁গোলাপ	-11.3512
▁যাত্ৰীসকল	-11.3514
app	-11.3525
▁SCIEN	-11.3526
▁কিংবদন্তি	-11.3526
▁ঘূৰণীয়া	-11.3526
▁ৰিচাৰ্ছ	-11.3526
▁১৯৬৫	-11.3528
▁পুনে	-11.3529
▁মেলাৰ	-11.3529
▁হোমেন	-11.353
▁ফাটি	-11.353
▁পৰামৰ্শদাতা	-11.3531
ংস	-11.3533
▁পৰিবেশত	-11.3534
▁নেদেখি	-11.3535
▁ৰামেশ্বৰ	-11.3535
▁কাৰ্য্যকৰী	-11.3537
▁চুঙা	-11.3537
▁বিছনা	-11.3537
লুক	-11.3538
যান	-11.3538
▁জংঘল	-11.3539
▁এযোৰ	-11.3539
▁ৰবীন	-11.354
▁মানদণ্ডৰ	-11.3543
▁শেহতীয়াভাৱে	-11.3545
▁গ্ৰহৰ	-11.3548
▁প্ৰ্	-11.3548
▁বহুমুখী	-11.355
ple	-11.3551
▁কাৰ্যক্ৰম	-11.3551
▁স্বেচ্ছাসেৱক	-11.3552
▁ধৰক	-11.3553
ম্পা	-11.3555
▁পোৰা	-11.3557
▁জলজ	-11.3557
▁ma	-11.3562
ফী	-11.3562
েটৰ	-11.3563
▁প্ৰক্ৰিয়াৰে	-11.3564
▁প্ৰজন্মক	-11.3567
▁বাখৰ	-11.357
▁Am	-11.357
▁ন্যূনতম	-11.3571
▁আঁকোৱালি	-11.3571
▁নব্য	-11.3571
▁বলপূৰ্বক	-11.3571
▁সৌমাৰ	-11.3571
৪৪	-11.3574
▁ধুবুৰীৰ	-11.3575
মোহ	-11.3578
▁স্বকীয়	-11.3579
▁খে	-11.3579
▁সহজাত	-11.3579
▁চিত্ৰশিল্পী	-11.358
▁স্কেন	-11.358
াঁ	-11.358
▁খুড়া	-11.3581
▁অভিযোগৰ	-11.3581
▁অলপো	-11.3582
▁ব্র	-11.3582
গ্ৰন্থ	-11.3583
▁কোম্পানীটো	-11.3583
গাড়ী	-11.3585
▁ৰোগীসকল	-11.3586
iz	-11.3586
▁জলবায়ুৰ	-11.3587
▁মোগলৰ	-11.3587
▁বায়েক	-11.3588
▁মহলত	-11.3588
গাম	-11.3591
▁কলনি	-11.3593
চ্চন্ন	-11.3593
▁গুণৰ	-11.3593
প্ৰিয়	-11.3593
▁ব্ৰঞ্জৰ	-11.3593
স্বৰ	-11.3594
এজন	-11.3595
▁সিংহাসনত	-11.3603
▁নিষ্ঠা	-11.3605
▁গঢ়া	-11.3605
▁কল্যাণৰ	-11.3608
▁সময়খিনিত	-11.3611
▁ছান	-11.3612
▁পিতৰে	-11.3613
▁গোটত	-11.3613
▁আপল	-11.3614
▁SHOP	-11.3616
▁মুদ্ৰাৰ	-11.3616
▁মৃত্যুমুখত	-11.3618
নৃত্য	-11.3619
▁পাৰিলেহেঁতেন	-11.3619
নিং	-11.3619
▁ডাৱৰ	-11.362
ডেল	-11.362
▁এডোখৰ	-11.362
▁কুইপ	-11.3621
▁কেঁচুৱা	-11.3622
ভাগত	-11.3622
▁জয়মতী	-11.3622
▁বেপাৰ	-11.3626
ঙ্গি	-11.3628
ভাগৰ	-11.3628
▁চলাৰ	-11.3629
▁লোপ	-11.3629
▁কুমাৰী	-11.3629
▁কিমি	-11.3629
য়সী	-11.363
▁বাৰ্মা	-11.3631
।[15]	-11.3632
▁বতৰত	-11.3635
নিউ	-11.3637
▁দামত	-11.364
▁লীগৰ	-11.364
▁শিক্ষাৰ্থীৰ	-11.3641
সৰ্ব	-11.3641
▁আতংক	-11.3645
▁ভাবিছে	-11.3645
▁আস্থান	-11.3645
▁দাঁতি	-11.3647
▁তৃপ্তি	-11.3647
▁অভাৱৰ	-11.3648
চিতা	-11.3652
▁ঘটাব	-11.3654
▁v	-11.3655
ণীয়	-11.3656
▁স্বত্ব	-11.3657
▁ক্যা	-11.3658
▁ৱেবছাইটৰ	-11.3659
িণী	-11.3659
▁আৰ্হিৰ	-11.3659
▁আম্বেদকাৰ	-11.3661
▁ব্ৰাউজাৰ	-11.3661
▁ষাঠি	-11.3661
▁নেলাগে	-11.3661
▁দূৰ্ঘটনা	-11.3661
▁বুদ্ধিজীৱী	-11.3661
▁পাশত	-11.3662
▁ষ্টেশ্যন	-11.3662
পাছ	-11.3665
যাৰ	-11.3667
▁বুট	-11.3668
▁মহাৰাষ্ট্ৰত	-11.3669
ছাত্রী	-11.3669
▁বিশ্বই	-11.3669
ৰালি	-11.3672
▁আল্লাহে	-11.3672
▁চচিয়েল	-11.3673
ছেন	-11.3673
▁co	-11.3675
▁আঠটা	-11.3675
▁ৰাউলিঙে	-11.3676
▁ভূঞাই	-11.3676
▁অৰণ্যত	-11.3678
▁বাসনা	-11.3679
▁লেন	-11.368
▁পিন্ধাই	-11.368
▁স্থানান্তৰিত	-11.368
▁খেলে	-11.3681
▁প্ৰবাহ	-11.3682
ৰূপত	-11.3685
▁দৈমাৰী	-11.3688
▁ৰাধাকৃষ্ণন	-11.369
▁ফ্ৰেম	-11.3691
০৪	-11.3694
ৰূপী	-11.3694
শে	-11.3694
br	-11.3699
▁কৰক৷	-11.37
▁ঘাম	-11.37
মাণ	-11.3704
▁আপেক্ষিক	-11.3706
▁সাংঘাতিক	-11.3706
▁ঝাৰখণ্ড	-11.3707
▁সতৰ্কতাবাণী	-11.3707
▁মুগ্ধ	-11.3707
▁গিৰীয়েক	-11.3707
▁গুণাগুণ	-11.3707
▁তম্বুৰ	-11.3707
go	-11.3707
▁মিনতি	-11.3708
▁খেলুৱৈৰ	-11.3708
ইছ	-11.371
▁অসুস্থতা	-11.3711
▁সামগ্রী	-11.3712
▁গাজ	-11.3712
▁কেইজনে	-11.3713
▁যকৃত	-11.3715
▁অর্থ	-11.3715
▁বিক্ৰিয়া	-11.3716
ৰাজ্যিক	-11.3717
পতংগ	-11.3717
▁ডবা	-11.372
▁কৃষিৰ	-11.3723
??	-11.3725
▁এইজন	-11.3727
▁পৰ্বতমালা	-11.3727
▁সিদ্ধান্তত	-11.3728
[10]	-11.373
ies	-11.373
▁শিথিল	-11.3731
জক	-11.3731
▁st	-11.3733
▁যুগে	-11.3733
▁গানটো	-11.3739
▁বৰণীয়া	-11.3741
▁নেট	-11.3742
▁বহী	-11.3743
▁পাপী	-11.3744
▁নথিপত্ৰৰ	-11.3745
নিশা	-11.3746
▁নিদিওঁ	-11.3746
থাৰ	-11.3748
জীৱ	-11.3748
▁বটা	-11.3751
▁ভাগৱতী	-11.3752
▁প্ৰলোভন	-11.3752
▁আক্রান্ত	-11.3752
▁পেন্সন	-11.3752
▁সীমান্তৱৰ্তী	-11.3753
প্ৰতিষ্ঠান	-11.3756
▁দুৰ্ঘটনাটো	-11.3756
▁জ্যোতিৰ্বিজ্ঞান	-11.3757
▁উপক্ৰম	-11.3757
▁জিকি	-11.3757
▁আংলঙ	-11.3758
▁লোৱাত	-11.376
▁আয়কৰ	-11.3761
▁পূর্ণ	-11.3763
দুল	-11.3764
▁ট্ৰেড	-11.3764
▁দ্বিতীয়তে	-11.3766
জ্	-11.3767
আগ	-11.3768
▁উদ্বিগ্নতা	-11.3768
▁প্ৰাৰ্থীত্ব	-11.3768
▁কবৰ	-11.3769
PL	-11.377
▁জামান	-11.377
▁টকালৈ	-11.3771
▁ভাজি	-11.3771
SC	-11.3773
▁ফাঁক	-11.3773
▁নিৰ্মাণত	-11.3775
ঘু	-11.3776
▁---	-11.3778
▁ইনিংছ	-11.3778
▁35	-11.3779
▁24.	-11.3782
ers	-11.3783
চলা	-11.3783
লেন	-11.3783
▁Sa	-11.3788
▁বেজবৰুৱাই	-11.3789
old	-11.379
▁শৈলীৰ	-11.3791
▁কল্প	-11.3792
বিদ্যাৰ	-11.3794
▁আত্মজীৱনী	-11.3797
স্তি	-11.3798
▁ষাঁড়	-11.3798
▁উপাধ্যায়	-11.3798
▁কৌশিক	-11.3798
▁প্ৰকোপ	-11.3798
▁মজলীয়া	-11.3798
▁আহমেদে	-11.3798
▁মনোনিবে	-11.3798
▁ধ্ৰুৱজ্যোতি	-11.3798
▁গৱেষণাত	-11.3799
▁সংবাদমাধ্যম	-11.38
ফোন	-11.3801
▁মুক্তিপ্ৰাপ্ত	-11.3802
▁ক্ষেত্ৰখনৰ	-11.3803
▁ভৰসা	-11.3804
▁অগ্ৰ	-11.3804
▁১৯২০	-11.3807
প্লে	-11.3807
▁দেখিছো	-11.3809
▁বিদ্যালয়লৈ	-11.3809
▁বহনক্ষম	-11.381
▁সজ্জা	-11.381
▁৬২	-11.3812
▁নিৰ্দেশক	-11.3815
▁ব্ৰু	-11.3817
টীয়া	-11.3818
ঁই	-11.3819
▁মৰুভূমি	-11.3822
োঁতে	-11.3823
▁তিথি	-11.3828
▁“%	-11.3828
▁পাৰ্টী	-11.3831
▁সংস্কৰণৰ	-11.3833
কৰী	-11.3833
▁ভেন	-11.3834
▁অকাল	-11.3836
▁কটাই	-11.3837
ari	-11.3837
▁ছোৱালীজনীয়ে	-11.3838
জুৰ	-11.3839
▁পিতাক	-11.3841
ব্ৰে	-11.3842
▁সম্পাদনাৰ	-11.3842
▁কঢ়িওৱা	-11.3844
▁পৰিৱর্তন	-11.3845
গছনি	-11.3846
▁চপাই	-11.3849
▁দলটোত	-11.3852
▁মূলধন	-11.3853
▁প্লাষ্টিক	-11.3854
▁এওঁলোকে	-11.3855
▁বিচাৰিছোঁ	-11.3855
৬১	-11.3859
▁নিবাস	-11.386
▁পেকেইজ	-11.386
সিদ্ধ	-11.3861
▁গ্ৰাহকে	-11.3862
▁জ্যামিতিক	-11.3864
▁পৰ্ব্বতৰ	-11.3867
▁ঘাত	-11.387
▁চাইবাৰ	-11.3872
▁ৱেষ্ট	-11.3873
ুচ	-11.3874
▁চোতালত	-11.3875
▁খবৰটো	-11.3876
ষ্ক	-11.3879
▁26.	-11.388
▁কুমাৰৰ	-11.3882
▁অপৰাধত	-11.3884
▁গাওঁখন	-11.3884
▁চুব	-11.3884
▁ৰাজত্বৰ	-11.3884
▁গ্ৰীষ্ম	-11.3885
▁বলৰ	-11.3889
▁বিধানৰ	-11.3889
▁গা়ড়ী	-11.389
▁শুভকামনা	-11.389
▁নালাগিব	-11.389
▁পাঞ্জাৱ	-11.389
▁এলাহাবাদ	-11.389
▁তাৰতম্য	-11.389
▁PRAKASHAN	-11.389
▁গ্ৰামোন্নয়ন	-11.389
▁বার্তা	-11.3891
▁বাক্যশাৰী	-11.3891
কুশলী	-11.3892
▁আজমলৰ	-11.3894
▁সংখ্যাত	-11.3895
▁সাধাৰণভাৱে	-11.3895
▁মুকুট	-11.3896
▁পাৰিবনে	-11.3897
ুত	-11.3899
এখন	-11.3901
▁দশমিক	-11.3901
▁দলপতি	-11.3903
▁বাঘে	-11.3903
ব্বা	-11.3904
▁দুয়োকে	-11.3905
▁বিনোদ	-11.3908
৬২	-11.3908
াৰ্ড	-11.3909
data	-11.391
▁শো	-11.3912
ুজ	-11.3912
▁ৰব	-11.3912
▁লেখি	-11.3913
শক্তিৰ	-11.3914
াৰ্থে	-11.3914
▁প্ৰত্যক্ষভাৱে	-11.3915
▁বিধবা	-11.3918
▁পৰিবলৈ	-11.3919
▁এইবাবে	-11.3921
▁অৰ্থনীতিবিদ	-11.3921
কাৰ্ড	-11.3923
▁বাইডেন	-11.3928
▁কাতি	-11.3929
▁অফিচাৰ	-11.3934
হি৷	-11.3934
▁জিভা	-11.3935
▁গৌৰ	-11.3935
▁আবণ্টন	-11.3937
▁কনিষ্টবল	-11.3937
▁স্বাৱলম্বী	-11.3937
▁ঈ	-11.3938
▁সদাগৰ	-11.3938
▁ক্ষ	-11.3938
▁Bo	-11.3939
▁চিনে	-11.394
▁মঞ্চস্থ	-11.394
▁তুলনামূলকভাৱে	-11.394
▁চুক	-11.3941
▁সংক্ৰান্তত	-11.3943
▁চকুপানী	-11.3943
▁পাৰ্টীৰ	-11.3944
▁কেৰালাৰ	-11.3945
▁সাধক	-11.3947
▁দৰিদ্ৰতা	-11.3949
▁পুল	-11.395
শো	-11.3952
নিয়াৰ	-11.3957
লীৰ	-11.3957
▁উট	-11.3958
▁অৱস্থালৈ	-11.3959
▁টেংক	-11.396
মাখ	-11.3961
▁নকয়	-11.3964
াওক	-11.3965
tar	-11.3966
▁হেৰুৱালে	-11.3967
▁ধূ	-11.3967
▁বিদ্যালয়সমূহ	-11.3968
▁ইটালীৰ	-11.3968
র্ড	-11.3969
▁খো	-11.3969
GB	-11.3971
স্বামী	-11.3973
▁ট্ৰাম্পৰ	-11.3978
▁প্ৰাৰ্থিত্ব	-11.3984
▁বিন্যামীন	-11.3984
▁স্থানাংক	-11.3984
▁পিন্ধে	-11.3984
▁ভুমুক	-11.3984
▁বাছখন	-11.3984
▁ব্যাকুল	-11.3984
ভনী	-11.3984
▁গাওঁৰ	-11.3984
▁বাৰুকৈয়ে	-11.3985
ঘাত	-11.3987
▁ডেস্কটপ	-11.3987
ঞ্জা	-11.3987
▁কোবাই	-11.3988
▁ওঠৰ	-11.3992
▁চহী	-11.3994
▁তেওলোকে	-11.3996
▁চাকৰিত	-11.3998
▁পঢ়ে	-11.3998
ূষ	-11.4
কাৰক	-11.4001
জত	-11.4002
▁উদ্যানখন	-11.4003
▁অভিগম	-11.4004
▁বাংলাদেশত	-11.4004
[9]	-11.4004
৫২	-11.4007
▁দলেই	-11.4009
▁লেখাটো	-11.4012
ক্ষম	-11.4021
ধাৰা	-11.4022
▁আপোনা	-11.4022
▁গ্ৰা	-11.4023
১০০	-11.4024
▁শৰণ	-11.4024
▁মনোভাব	-11.4029
▁লণ্ডনত	-11.4029
▁আঢ়ৈ	-11.4031
▁জাগীৰোড	-11.4031
▁শিপিনী	-11.4031
▁স্বৰ্গদেও	-11.4031
▁অপৰিসীম	-11.4031
▁পেগু	-11.4032
▁কৰোঁহঁক	-11.4032
▁ডক্টৰ	-11.4032
▁পাণ্ডে	-11.4033
▁লৰচৰ	-11.4033
▁বাগিছা	-11.4033
গৰি	-11.4034
▁দামী	-11.4036
▁সম্মান	-11.4037
▁হস্ত	-11.4039
▁সংকটত	-11.4041
শ্ৰেষ্ঠ	-11.4042
▁আনা	-11.4042
▁নামাজ	-11.4045
৮৮	-11.4048
▁৭৪	-11.4048
AS	-11.4049
▁স্বভাৱৰ	-11.4051
▁বোৰৰ	-11.4054
য্য	-11.4054
▁শিকিছিল	-11.4055
ষ্টিক	-11.4055
িনা	-11.4057
▁নিদ্ৰা	-11.4061
▁নাগৰিকক	-11.4063
▁মইও	-11.4063
▁চাংমা	-11.4064
▁সাধনাৰ	-11.4067
মাহৰ	-11.407
wa	-11.407
▁সময়ছোৱা	-11.4072
▁40	-11.4074
▁আলীয়ে	-11.4077
▁ছফ্টৱেৰ	-11.4078
▁প্ৰাইভেট	-11.4078
▁কোৱাণ্টাম	-11.4078
▁অৱসান	-11.4078
▁সমাবেশ	-11.4078
▁অলেখ	-11.4078
▁পুৰোহিতে	-11.4078
▁পদযাত্ৰা	-11.4079
▁ঝ	-11.4081
▁কেডাৰ	-11.4084
oo	-11.4084
▁কিছুসময়	-11.4084
▁সমৰ	-11.4084
▁পশ্চিমবংগ	-11.4086
নিৰ্দেশনা	-11.4087
লিছ	-11.4088
▁লোকসেৱা	-11.4089
RO	-11.4091
▁দিহিং	-11.4092
▁অগ্ৰগতিৰ	-11.4092
▁ক্ৰা	-11.4096
বৰ্ষৰ	-11.4098
▁বড়োৱে	-11.4099
▁বৃ	-11.4099
▁সূত্ৰত	-11.4105
▁যিসকলৰ	-11.4106
ধীন	-11.4107
ice	-11.4107
নিষ্ঠ	-11.4109
▁বিজ্ঞপ্তি	-11.4114
▁চুমা	-11.4118
ানি	-11.4119
ty	-11.4119
টেল	-11.412
▁কপিল	-11.4121
▁অহ	-11.4123
▁আমন্ত্ৰিত	-11.4125
▁ছিংগাপুৰ	-11.4125
▁প্ৰণাম	-11.4125
▁অভিনীত	-11.4125
ুৰু	-11.4126
▁ৰিপোৰ্ট	-11.4127
০৮	-11.4127
▁থাকিল৷	-11.4128
▁ৰুব	-11.4129
▁তেৰ	-11.4129
▁প্ৰগ্ৰাম	-11.4131
▁থাক	-11.4132
দত	-11.4132
▁বৃহস্পতি	-11.4133
tor	-11.4134
▁ছেট	-11.4135
▁বলিউডৰ	-11.4136
▁তাৎপৰ্য	-11.4136
▁ৰামা	-11.4137
ডাম	-11.4138
▁with	-11.4138
▁আপডেইট	-11.4139
চিন্তা	-11.4141
িদ	-11.4141
▁ইৰান	-11.4143
বছৰৰ	-11.4143
৮৪	-11.4143
▁প্ৰমুখ্যে	-11.4144
▁বন্ধুৱে	-11.4152
▁প্ৰতিযোগী	-11.4154
ৰাটোৰ	-11.4154
ছত	-11.4155
দৰে	-11.4157
▁বিষয়বস্তুৰ	-11.416
▁মেলিছিল	-11.416
▁এনেই	-11.4161
▁নীৰৱ	-11.4161
▁সাংবাদিকতাৰ	-11.4163
নিয়	-11.4164
রু	-11.4165
▁ৰচনাৰ	-11.4166
চিয়ে	-11.4166
▁হাৰ্ট	-11.4168
ভাত	-11.4169
সুৰা	-11.4171
▁কাৰ্টুন	-11.4172
▁গোৰ্খা	-11.4173
▁পঞ্জিকা	-11.4173
▁বলাৎকাৰ	-11.4173
▁প্ৰশাসনক	-11.4173
▁ব্ৰজেন	-11.4174
▁১৯৫৮	-11.4174
line	-11.4175
▁প্রভাৱ	-11.4175
▁ৰেখাৰ	-11.4177
▁যোৰ	-11.418
▁সাধ্য	-11.418
আম	-11.418
▁১৯১৮	-11.4181
▁গড়ে	-11.4181
শব্দ	-11.4181
▁এচৌ	-11.4182
▁জনাইছোঁ	-11.4182
▁গিৰি	-11.4183
▁ইউনাইটেড	-11.4184
▁দেখিছোঁ	-11.4184
▁মণিৰাম	-11.4188
▁দৈত্য	-11.4188
▁ঠিয়	-11.4191
▁At	-11.4191
দেও	-11.4193
ছবি	-11.4194
▁দিলেই	-11.4195
▁জাগৰণ	-11.4195
ভিয়া	-11.4196
▁গন্ধ	-11.4197
▁শীতৰ	-11.4197
▁পৰিয়ালটোৱে	-11.4198
▁বেগেৰে	-11.4198
▁ভিছা	-11.4201
▁ক্ৰিকেটৰ	-11.4201
ায়ণ	-11.4201
নৱ	-11.4202
▁স্বাস্থ্যকেন্দ্	-11.4202
▁সময়বোৰ	-11.4207
▁পিটি	-11.4211
▁প্ৰব্ৰজনকাৰী	-11.4212
▁এট	-11.4216
▁হিল	-11.4217
▁এতিয়াৰে	-11.4219
▁কৌতুক	-11.4221
▁জনবসতি	-11.4221
▁নিৰ্বিশেষে	-11.4221
▁প্রস্তাৱ	-11.4221
▁খাতিৰত	-11.4221
▁কটকটীয়া	-11.4221
▁ডাঙি	-11.4222
▁তালিকাভুক্ত	-11.4222
▁প্ৰকৃতাৰ্থ	-11.4223
▁তাৰবাবে	-11.4227
▁চেপ্তেম্বৰ	-11.4227
াক্ষ	-11.4227
▁উজু	-11.4229
gi	-11.4229
▁মণ্ডপ	-11.4234
কৌশল	-11.4235
▁সেইবিলাক	-11.4235
ফেব্ৰুৱাৰী	-11.4235
সম্পাদক	-11.4235
▁বহিঃ	-11.4236
av	-11.4238
এইটো	-11.424
▁খেতিত	-11.4243
ন্তৰ	-11.4244
▁হাট	-11.4245
▁প্ৰতিষ্ঠাৰ	-11.4245
▁প্ৰভাত	-11.4246
▁মেধা	-11.4247
▁প্ৰত্যেকেই	-11.4247
▁দোলা	-11.425
▁ষ্টেচনৰ	-11.4251
যিহোৱাই	-11.4253
মানুহৰ	-11.4255
▁নেতাক	-11.4257
▁এউলাৰ	-11.4269
▁সুঁৱৰি	-11.4269
▁পুৰষ্কাৰ	-11.4269
▁পৃষ্ঠপোষকতা	-11.4269
▁মিৰ্জা	-11.4269
▁সবলীকৰণ	-11.4269
▁দ্ৰুতগতি	-11.427
▁ক্ষণ	-11.427
▁কাউৰী	-11.4272
পিছ	-11.4272
▁বলিষ্ঠ	-11.4272
▁(%	-11.4273
প্রধানমন্ত্রীয়ে	-11.4273
▁শ্বি	-11.4274
▁এহাল	-11.4275
▁মুল্য	-11.4275
তেনে	-11.4276
▁ৰাজ্যসমূহৰ	-11.4276
ঁত	-11.4278
ফাইল	-11.428
▁বৰ্মণ	-11.4282
▁বিবৃতিত	-11.4284
ure	-11.4284
▁নিদিয়াৰ	-11.4285
▁শঙ্কৰদেৱ	-11.4286
েয়াৰ	-11.4288
▁অলিম্পিকত	-11.4293
▁বিবিধ	-11.4293
সন	-11.4296
▁কিম্বা	-11.4297
▁নম্ৰতা	-11.4298
▁ৰাইফল	-11.4298
▁অংশগ্ৰহণকাৰী	-11.43
▁দেশবাসীৰ	-11.4301
▁কৰ্মকৰ্তা	-11.4302
▁ৰিক্সা	-11.4304
বিষ	-11.4305
▁ঠাইখিনি	-11.4307
▁মৰ্	-11.4307
▁ভাৰ্	-11.4308
৬৩	-11.4309
ৰেন্দ্র	-11.4311
▁মূলক	-11.4311
▁খঙ	-11.4312
▁কেইবাগৰাকী	-11.4312
▁লোকজন	-11.4312
▁গাবলৈ	-11.4316
▁দুজনে	-11.4317
▁কাৰাবাস	-11.4317
▁প্ৰগতিশীল	-11.4319
▁গৌৰৱান্বিত	-11.4319
দম	-11.4321
▁শান্তিপূৰ্ণ	-11.4323
▁বেত	-11.4323
▁স্থিত	-11.4325
▁চকুৱে	-11.4325
▁ভাইৰাছে	-11.4327
সহায়	-11.4327
খাই	-11.4329
▁ধাতুৰ	-11.4331
সদৃশ	-11.4333
সুন্দৰ	-11.4334
িঙত	-11.4334
▁ওৱা	-11.4335
▁হাবিৰ	-11.4335
▁হস্পিটেল	-11.4337
tal	-11.4339
বুলি	-11.4339
সো	-11.4339
▁হাউলী	-11.4341
▁কনক	-11.4343
▁সমালোচকৰ	-11.4345
ওৱা	-11.4347
▁কাৰাগাৰৰ	-11.435
▁অন্ন	-11.435
টিকেল	-11.4352
▁বিৱৰণী	-11.4355
দ্ব	-11.4358
▁দূৰলৈ	-11.4358
▁জন্মা	-11.4358
▁শুনক	-11.436
মিল	-11.4362
▁নহল	-11.4362
▁১৫০০	-11.4363
▁আইতাক	-11.4363
▁হয়নে	-11.4364
▁অপ্ৰয়োজনীয়	-11.4366
▁অসামৰ্থবান	-11.4366
▁সংগ্রহ	-11.4366
▁লাখুটি	-11.4366
▁ভৱিষ্যতবক্তা	-11.4366
▁কার্যসূচী	-11.4366
▁শিক্ষণ	-11.4366
▁সমুদায়	-11.4366
▁নিৰূপিত	-11.4367
▁উকলি	-11.4367
▁জাৰ	-11.4367
▁মাতে	-11.4368
▁ৰিপৰ্ট	-11.4369
ষণ	-11.4369
▁লোকজনক	-11.437
▁বিলাসী	-11.4372
েশ্বন	-11.4373
▁বৰ্ড	-11.4373
ভিয়েট	-11.4374
▁কুট	-11.4374
▁কাৰ্যক্ষম	-11.4375
▁বাণ	-11.4375
▁মহানগৰৰ	-11.4378
sion	-11.4379
▁প্ৰযুক্তিগত	-11.4379
▁আয়ে	-11.438
▁কৰ্তৃপক্ষক	-11.4389
ধূ	-11.4391
▁ট্ৰেক	-11.4395
▁জাহাজখন	-11.4395
▁অফিচৰ	-11.4395
MA	-11.4396
▁পাকিস্তানে	-11.4397
▁ৰাষ্ট্রীয়	-11.4398
▁বিজ্ঞানীয়ে	-11.4398
▁আয়ু	-11.4398
ug	-11.4398
ক্সি	-11.4399
শান্তি	-11.4401
মতা	-11.4402
▁নাৰীয়ে	-11.4402
▁কাছ	-11.4402
▁পঠাব	-11.4403
▁যোগেৰে	-11.4404
▁মাতিলে	-11.4407
▁ইহ	-11.4411
বন্ধন	-11.4412
▁লৰ্ড	-11.4413
▁মৰিল	-11.4413
িষ্ঠ	-11.4413
▁একাওন্ট	-11.4414
▁প্ৰভৃতি	-11.4414
▁শ্ৰাদ্ধ	-11.4414
▁সৰিয়হ	-11.4414
%1$	-11.4414
▁ছেইণ্ট	-11.4415
▁প্ৰতিভাৱান	-11.4416
▁১৯৬৮	-11.4416
ৰণি	-11.4418
▁চিত্ৰকলা	-11.4418
▁পৰ্টেল	-11.4418
▁১৯২১	-11.4418
,’’-	-11.4419
▁আৱেগিক	-11.4421
▁সংস্কৃতিক	-11.4424
ডোখৰ	-11.4424
red	-11.4425
▁আঁতৰোৱা	-11.4427
▁পৰীক্ষাৰ্থী	-11.443
▁কেইবাগৰাকীও	-11.443
▁সংহত	-11.443
▁খাদী	-11.4431
▁নহৰু	-11.4431
▁ভূখণ্ড	-11.4431
▁টিকটক	-11.4432
▁অপকাৰ	-11.4432
গৌ	-11.4433
▁ছাত্ৰই	-11.4437
▁একদম	-11.4438
▁বৈচিত্ৰ্য	-11.4439
▁খুৱ	-11.444
▁বিশেষভাবে	-11.444
▁তত্ত্বাৱধানত	-11.4446
ৰঞ্জন	-11.4447
পূজা	-11.4448
নায়ক	-11.4448
▁চিৰি	-11.4449
od	-11.4451
▁আনখন	-11.4452
▁দিনৰে	-11.4452
▁আহমেদাবাদ	-11.4454
্টাৰ	-11.4457
▁পবিত্র	-11.4463
▁লক্ষীমপুৰ	-11.4463
▁লুৰিণজ্যোতি	-11.4464
▁ক্ষান্ত	-11.4464
▁জনী	-11.4464
নচ	-11.4467
▁ইউজাৰ	-11.4472
স্হ	-11.4473
▁বিধ্বস্ত	-11.4475
▁বেগৰ	-11.4476
▁আলাপ	-11.4477
ধে	-11.4479
▁New	-11.4486
▁উৰণ	-11.4487
হিন্দু	-11.4489
▁নকৈ	-11.449
▁মনোৰম	-11.449
▁ভাষিক	-11.4491
▁অৰু	-11.4493
▁জুখি	-11.4494
▁প্রযুক্তি	-11.4494
▁গুৰুৰ	-11.4495
▁ফুৰিবলৈ	-11.4496
▁শব্দবোৰ	-11.4496
▁অষ্ট	-11.4496
▁বস্তা	-11.4496
▁পী	-11.4496
ছাত্ৰীসকলক	-11.4497
▁হেড	-11.4497
▁কামকাজ	-11.4499
▁গুড়ি	-11.45
▁আকাশবাণী	-11.4501
ধাৰণ	-11.4501
▁সন্দেহৰ	-11.4501
▁চোৰৰ	-11.4504
কেইজন	-11.4506
▁ভাট	-11.4507
▁উচ্চতাৰ	-11.4511
▁মানুহজনক	-11.4511
ইয়াত	-11.4512
▁মৰিয়নি	-11.4513
▁চিয়োন	-11.4513
▁show	-11.4513
▁শৱ	-11.4514
জন্তুৰ	-11.4516
▁দিনবোৰত	-11.4518
▁কৰ্তৃপক্ষ	-11.452
ৱাড়া	-11.452
ore	-11.4521
▁ভূমিহীন	-11.4523
▁৭১	-11.4523
▁প্ৰচাৰক	-11.4525
শূন্য	-11.4526
▁মাল্টি	-11.4527
NT	-11.4528
জুলাই	-11.4528
▁বিন্দুৰ	-11.4529
▁মিঠাই	-11.453
▁28	-11.453
▁ডিব্ৰুগড়ত	-11.4531
▁জামাত	-11.4531
▁pro	-11.4532
০১	-11.4533
মৰি	-11.4534
▁শক্তিৰে	-11.4534
▁সন্মানৰ	-11.4535
▁চৌহদ	-11.4537
কাৰি	-11.4537
নাৰী	-11.4538
▁শিশুৱে	-11.4541
▁National	-11.4543
▁তাৎপৰ্যপূৰ্ণ	-11.4546
▁পাৰিব৷	-11.4548
▁Indian	-11.4549
▁কাজল	-11.4549
▁গুণে	-11.4549
▁এজ	-11.4551
▁দ্বীপৰ	-11.4551
জিয়া	-11.4553
▁ছেপ্তেম্বৰত	-11.4555
▁টিকা	-11.4557
▁ৰাষ্ট্র	-11.4557
▁বিদ্যালয়খন	-11.4558
▁চেনী	-11.4558
▁জ্যোতিষ	-11.4559
▁তিন	-11.456
▁অম	-11.456
▁সংখ্যাও	-11.4561
▁পৰিণতিত	-11.4561
▁ইংলণ্ড	-11.4562
▁ঘেৰাও	-11.4562
▁বাপ্তিষ্মা	-11.4562
▁অভ্যন্তৰীণ	-11.4562
▁কৈশোৰ	-11.4562
▁ক্ষীণ	-11.4562
গ্ৰি	-11.4563
▁ধ্ৰুৱক	-11.4563
▁একেইদৰে	-11.4563
ৰ্ধ্ব	-11.4563
▁ৰিক্ত	-11.4564
▁বর্ষ	-11.4564
ভেদ	-11.4566
▁No	-11.4568
শাৰী	-11.457
▁জনায়৷	-11.4573
▁নতুনত্ব	-11.4574
৭১	-11.4574
ber	-11.4575
ণ্য	-11.4576
▁মঞ্জুৰ	-11.4578
▁মিজো	-11.4578
▁চৌদিশে	-11.4578
▁সোঁৱৰাই	-11.458
▁ৰচি	-11.458
হাৰা	-11.458
ঈশ্বৰৰ	-11.4582
▁এওঁৰ	-11.4584
▁বিচাৰৰ	-11.4585
▁২০২০ৰ	-11.4587
ৰক্ষী	-11.4593
▁পৰিমানৰ	-11.4595
▁ফলি	-11.4595
▁নাটকীয়	-11.4597
▁মঞ্জু	-11.4598
ডালৰ	-11.4598
কিয়া	-11.4602
▁বিমল	-11.4603
▁স্বায়ত্ব	-11.4603
▁বিতং	-11.4605
ফিক	-11.4605
▁গুণটো	-11.4605
▁জাহাজৰ	-11.4608
ট্ৰে	-11.4609
▁শোধনাগাৰ	-11.4612
▁জাগ্ৰত	-11.4612
▁কেনেবাকৈ	-11.4612
▁পুৰস্কৃত	-11.4612
▁চৈধ্য	-11.4612
▁বাৰম্বাৰ	-11.4612
▁ঠেং	-11.4612
▁ডিমৌ	-11.4614
▁চাবোন	-11.4614
▁১৯৩৬	-11.4614
▁খুৰা	-11.4614
▁ঢে	-11.4615
▁ভালেখিনি	-11.4616
▁প্ৰত্যাশিত	-11.4617
▁সাজে	-11.4617
▁প্ৰব্ৰজ	-11.4619
▁জগন্নাথ	-11.4619
▁সৈন্যসকল	-11.4619
▁আমগুৰি	-11.462
▁মানসিকতাৰ	-11.4621
▁জাতিটোৰ	-11.4621
▁মহাজন	-11.4622
৯৫	-11.4623
end	-11.4623
▁অট	-11.4624
উচ্চ	-11.4625
▁অসমবাসীৰ	-11.4626
▁সুনাম	-11.4628
▁ডলাৰৰ	-11.4629
▁সংহতিসমূহ	-11.463
ফিউ	-11.4633
সহকাৰে	-11.4633
▁ছাত্ৰীৰ	-11.4636
▁সামগ্ৰীসমূহ	-11.4636
প্ট	-11.4638
২০০	-11.4642
▁সমস্যাসমূহ	-11.4643
▁নগৰলৈ	-11.4643
▁ৰমেন	-11.4644
▁খুৱাব	-11.4651
▁পাছৰে	-11.4652
▁প্ৰেমে	-11.4653
▁আগবঢ়ালে	-11.4654
▁মণ্ডলে	-11.4655
কিয়	-11.4655
▁নাৰীক	-11.4656
▁মনু	-11.4657
▁মানৱজাতিৰ	-11.4657
খানা	-11.466
▁স্ট্ৰিং	-11.4662
▁পদে	-11.4662
▁জনাম	-11.4662
▁শিকলি	-11.4662
▁প্লেন	-11.4663
▁লহকৰ	-11.4663
▁শিয়াল	-11.4665
▁বাৰ্ষিকী	-11.4666
াফ	-11.4667
অতি	-11.4669
প্রাপ্ত	-11.467
বহু	-11.4671
▁প্ৰকল্পটোৰ	-11.4672
▁প্ৰান্তিক	-11.4672
▁বিচাৰিছো	-11.4674
▁হেৰুৱাইছে	-11.4676
কংগ্ৰেছ	-11.4681
▁ইউনিয়নৰ	-11.4685
▁অসাৰ	-11.4686
▁ভৰত	-11.4687
▁অহাত	-11.4691
▁আঁহ	-11.4691
▁আফ	-11.4695
▁দুৰ্যোগৰ	-11.4697
ন্দে	-11.4698
পতীয়া	-11.4698
und	-11.4698
▁ভগাই	-11.4701
চবুক	-11.4703
▁ৰতন	-11.4704
▁হুছেইনৰ	-11.4704
▁পাৰ্টিয়ে	-11.4705
গেন	-11.4705
▁অপৰিহাৰ্য	-11.4708
▁ডট	-11.4711
▁বাপু	-11.4711
▁ককাক	-11.4712
▁উদযাপিত	-11.4712
▁মেনেজমেণ্ট	-11.4712
▁ভূগোল	-11.4713
▁সুক্ষ্ম	-11.4713
▁দৃষ্টিকোণ	-11.4714
▁চৰি	-11.4714
▁দুৰত্ব	-11.4715
▁ডিঙিৰ	-11.4716
▁দেশবাসীক	-11.4718
▁অস্কাৰ	-11.4718
▁সমিতিখন	-11.4719
কট	-11.4719
▁নাশ	-11.472
▁ৰহা	-11.4723
▁তাত্ত্বিক	-11.4724
▁ইটালী	-11.4727
▁চিকিত্সা	-11.4727
▁হালধি	-11.4727
▁আলীৰ	-11.4727
▁দেৱীক	-11.4728
▁বিষ্ণুৰ	-11.4728
জনগোষ্ঠীৰ	-11.4728
▁লংকা	-11.4729
▁অটো	-11.4729
son	-11.4731
ৰাজ্যৰ	-11.4731
যেতিয়া	-11.4732
▁স্ন	-11.4736
শ্ৰুত	-11.4737
▁সোপা	-11.4738
▁বিলাপ	-11.4738
▁ফাল	-11.4739
▁টোল	-11.4739
▁খেলুৱৈয়ে	-11.474
তিয়া	-11.4744
▁লুটি	-11.4744
ear	-11.4746
..!	-11.4749
▁মন্দ	-11.4755
বিজ্ঞানী	-11.476
▁প্ৰতিও	-11.476
▁মহি	-11.4762
▁প্রক্রিয়া	-11.4763
▁বাংগালুৰু	-11.4763
▁মৌখিক	-11.4763
▁পত্নি	-11.4763
▁খাতুন	-11.4763
▁শৃংগ	-11.4763
▁আগ্ৰাসন	-11.4763
▁যজ্ঞবেদী	-11.4763
▁স্পৰ্শকাতৰ	-11.4763
▁অকণ	-11.4763
▁মহাকাব্য	-11.4763
▁পিষ্টল	-11.4763
▁মনা	-11.4764
▁এপটো	-11.4765
▁প্ৰকট	-11.4765
▁শিকাইছিল	-11.4766
লিংগ	-11.4767
▁সুকুমাৰ	-11.4768
▁দালাল	-11.477
▁ক্ষতিৰ	-11.4775
িৰে	-11.4776
▁উৰুকা	-11.478
▁তাৰমানে	-11.478
▁শীতকালত	-11.4782
▁উত্পাদন	-11.4783
▁নাগপুৰ	-11.4784
▁ভঙ্গ	-11.4786
পাদ	-11.4789
▁এন্	-11.479
চাইটি	-11.4793
দৰ্শক	-11.4795
ash	-11.4795
▁বিকল্পৰ	-11.4795
▁নিৰ্দেশত	-11.4797
▁লুকু	-11.48
▁ছাব	-11.48
▁উত	-11.4801
▁অভিলাষ	-11.4802
▁ৰখাই	-11.4805
▁শতাংশই	-11.4806
ox	-11.4806
▁ৰেলৰ	-11.4809
লাইট	-11.4809
▁তীৰ	-11.481
ref	-11.4813
▁গুলীত	-11.4813
▁এভাৰেষ্ট	-11.4813
▁নৃশংস	-11.4813
▁বৰ্ণাঢ্য	-11.4813
▁সাৰ্বজনীন	-11.4813
ঁহা	-11.4813
▁গীতসমূহ	-11.4814
ত্ৰা	-11.4815
▁তোৰণ	-11.4816
▁বিলোপ	-11.4816
জীৱনৰ	-11.4819
▁বেলেগে	-11.4819
▁জগাই	-11.482
জীৰ	-11.482
থন	-11.4821
▁তৎপৰ	-11.4822
▁পুন	-11.4824
▁সমাজলৈ	-11.4828
▁কয়৷	-11.4829
▁দাবীৰে	-11.483
▁সত্ৰত	-11.4832
মাক	-11.4834
▁গল্পৰ	-11.4837
AK	-11.484
▁ফাউণ্ডেচন	-11.4842
▁সজ	-11.4848
ৰোধ	-11.485
কোন	-11.485
▁আলফাই	-11.485
▁আচৰণৰ	-11.485
্দ্ধ	-11.4853
খনো	-11.4855
ঞ	-11.4858
▁বিহাৰত	-11.4858
res	-11.4858
▁পৃষ্ঠৰ	-11.4859
▁দোৱা	-11.4859
▁শব্দই	-11.4862
gov	-11.4862
▁মহৰ	-11.4863
▁প্ৰত্যাখ্যান	-11.4864
▁ত্ৰিভুজ	-11.4865
▁বৰুআ	-11.4865
▁নজৰুল	-11.4865
▁দুৰ্ব্বল	-11.4865
▁পঠিয়ায়	-11.4866
▁বিলাকৰ	-11.4867
▁গাতে	-11.4867
▁পৰিসীমা	-11.4867
▁তুৰ্কী	-11.4867
▁জনস্বাস্থ্য	-11.487
▁পাতক	-11.487
বোৰলৈ	-11.4871
CC	-11.4875
▁ফ্লেট	-11.4876
▁ডায়	-11.4878
▁চেম্পিয়নশ্বিপ	-11.488
▁নায়িকা	-11.488
দেৱীৰ	-11.4881
▁গ্ৰন্থখনত	-11.4882
▁ফিলিপ	-11.4882
▁সাফল্যৰ	-11.4882
▁যাব৷	-11.4884
▁প্ৰবাদ	-11.4884
▁মণ্ডলীত	-11.4885
ইং	-11.4885
▁মীনা	-11.4888
▁কৌ	-11.4889
▁অক্ষ	-11.4889
▁ডুবি	-11.4892
সংযোগ	-11.4892
▁ঘটনাস্থলী	-11.4893
▁অব্ৰাহামৰ	-11.4893
▁সন	-11.4894
tri	-11.4894
▁তিলক	-11.4896
▁ওৰে	-11.4897
▁যম	-11.4897
▁কেইজনক	-11.4898
▁মুখাৰ্জী	-11.49
▁পৰিমান	-11.4903
▁শত্ৰুবোৰ	-11.4907
▁যাত্ৰাত	-11.4908
▁সম্পূৰ্ণভাৱে	-11.491
▁লেখনি	-11.491
▁নির্বাচন	-11.4911
▁জলপান	-11.4913
▁জনালো	-11.4914
▁সমস্যাটোৰ	-11.4915
▁মুন	-11.4915
▁সহানুভূতি	-11.4915
▁চুড়ান্ত	-11.4916
▁প্রশংসা	-11.4916
▁যৰ্দ্দন	-11.4916
▁সহজলভ্য	-11.4916
▁সুকলমে	-11.4916
▁কান্দোন	-11.4916
▁দিব্যাংগ	-11.4916
▁দেৱব্ৰত	-11.4916
▁বহিষ্কাৰ	-11.4917
▁১৯৫৯	-11.4918
▁সমা	-11.4919
▁নিহিত	-11.4921
ix	-11.4921
▁বান্ধৱী	-11.4921
AD	-11.4922
▁নিৰ্যাতনৰ	-11.4922
▁[[	-11.4923
▁খুউ	-11.4923
▁গাঁওখনৰ	-11.4923
▁চিঙি	-11.4923
▁স্বাস্থ্যকৰ্মী	-11.4924
ome	-11.4928
▁চনৰপৰা	-11.4929
▁তোলাত	-11.493
▁নিগনি	-11.493
▁বনাব	-11.4932
▁তাঁত	-11.4933
▁দেৱতাসকল	-11.4937
গৰ্ভ	-11.4937
▁টাকৈ	-11.4938
▁সিপাৰে	-11.4938
▁Ga	-11.4939
২০১১	-11.494
▁জীৱনকালত	-11.494
▁একেদৰেই	-11.494
▁নোহ	-11.4942
▁বিমানখন	-11.4942
▁হৈছেগৈ	-11.4943
পাৰে	-11.4946
▁আৰ্হিত	-11.4946
▁গুজৰাটী	-11.4947
▁বিপক্ষ	-11.4953
শিল্প	-11.4953
▁ডব্লিউ	-11.4953
▁মহিলাসকলক	-11.4954
▁data	-11.4955
▁ওলোটাই	-11.4955
▁গল্পটো	-11.4955
▁নিদিবা	-11.4956
▁মিচি	-11.4957
কাশ্মীৰৰ	-11.4958
▁সঞ্চাৰ	-11.4961
যোগী	-11.4962
▁৬৩	-11.4963
ms	-11.4963
▁চিন্তাত	-11.4965
▁যুৱকজনক	-11.4966
▁অধ্যাপিকা	-11.4967
▁অপহৃত	-11.4967
▁ঈশ্ৱৰ	-11.4967
▁উন্নয়ণ	-11.4967
▁গুলপীয়া	-11.4967
▁তদানীন্ত	-11.4967
▁দৃষ্টিগোচৰ	-11.4967
▁স্বাভাবিক	-11.4967
▁সেইসময়ৰ	-11.4968
▁অংশগ্রহণ	-11.4968
▁প্রৱেশ	-11.4968
▁বিধায়িকা	-11.4969
▁পত্ৰত	-11.4969
খনলৈ	-11.4971
▁মেগ	-11.4971
▁ঘিলা	-11.4972
ই৷	-11.4972
ীভূত	-11.4972
াইজ	-11.4975
বালি	-11.4975
▁জেঠ	-11.4976
use	-11.4976
▁তাঁতী	-11.498
▁শিকাই	-11.4982
কানি	-11.4984
বেশ	-11.4985
▁ফুৰিছিল	-11.4987
▁বচাবলৈ	-11.4988
াচাৰ্য	-11.4989
ৱলী	-11.4992
▁সৌজন্যত	-11.4992
▁আফগানিস্তান	-11.4993
ফটা	-11.4993
▁সুবিধাজনক	-11.4995
▁মেধিৰ	-11.4997
▁মাতিছিল	-11.4998
▁এইবেলি	-11.4999
▁অন্তৰালত	-11.4999
▁কথা৷	-11.4999
ke	-11.4999
▁আগতেও	-11.5002
▁জুনৰ	-11.5003
পাণ	-11.5005
▁ভালুক	-11.5006
জনীক	-11.5008
we	-11.5008
▁১ম	-11.5011
▁1.0	-11.5013
▁চালিত	-11.5013
ধৰ্ষ	-11.5013
িয়ন	-11.5014
▁ইলেক্ট্ৰনিক	-11.5014
▁ক্ষন্তেক	-11.5015
▁নিৰাপত্তাৰক্ষী	-11.5017
প্ৰভুৱে	-11.5019
▁উদ্ধোধন	-11.5019
▁সম্পাদিকা	-11.5019
▁সেনাধ্যক্ষ	-11.5019
▁হাৰাশাস্তি	-11.5019
▁হেলিকপ্টাৰ	-11.5019
▁সেমেকা	-11.5019
▁ৰাক্ষস	-11.5019
▁কাৰাদণ্ড	-11.5019
▁বোম্বে	-11.5019
▁পাউণ্ড	-11.5021
▁নিৰ্ভৰযোগ্য	-11.5022
▁আলোচনাচক্ৰ	-11.5023
ালা	-11.5024
▁বীৰেন্দ্ৰ	-11.5025
বাগ	-11.5025
▁বিলখন	-11.5025
▁ফন্ট	-11.5025
▁উৎকৰ্ষ	-11.5026
▁মনমোহন	-11.5026
▁ঈদ	-11.5026
▁শিশুটিক	-11.5027
▁১২৫	-11.5028
▁ৰূপহী	-11.503
▁সৰা	-11.5031
▁ঠাইখনৰ	-11.5031
▁জিকা	-11.5031
▁লৈছে৷	-11.5035
▁পঞ্জাৱ	-11.5035
▁সম্প্ৰীতি	-11.5035
▁ইজ	-11.5038
▁কেছ	-11.5039
▁বিচাৰিবলৈ	-11.5039
$	-11.504
yn	-11.5041
▁কচু	-11.5041
মহীয়া	-11.5042
▁প্রাণ	-11.5046
▁সন্তানে	-11.5046
▁কাৰ্য্যালয়ৰ	-11.5048
▁উচিত৷	-11.5048
দক্ষিণ	-11.505
▁135	-11.505
▁যাবা	-11.5051
▁অভয়াৰণ্যৰ	-11.5051
▁পিটাৰ	-11.5053
▁অবিনাশ	-11.5056
ংকু	-11.5056
▁সম্পাদকীয়	-11.5059
▁বিশ্বযুদ্ধ	-11.5059
▁অন্ধ্ৰপ্ৰদেশৰ	-11.506
ID	-11.506
▁ৰূপক	-11.5062
▁কুলি	-11.5063
▁কালতে	-11.5063
▁সংস্কাৰৰ	-11.5064
▁বালিৰ	-11.5065
▁শাসনকালত	-11.5066
শৈলী	-11.5066
▁27	-11.5066
▁বিজ্ঞানসন্মত	-11.5066
▁সততা	-11.5067
যিহোৱাৰ	-11.5068
▁ছিট	-11.5069
▁আৰোহণ	-11.5071
▁পৌৰহিত্যত	-11.5071
▁বলৱৎ	-11.5071
▁সংগৃহীত	-11.5071
▁ক্ষুব্ধ	-11.5071
▁ৰয়ছম	-11.5071
▁180	-11.5071
▁এডৱাৰ্ড	-11.5071
▁ব্যয়বহুল	-11.5071
▁দিনটোক	-11.5072
▁দৃশ্যগ্ৰহণ	-11.5072
▁দূৰত্বৰ	-11.5073
▁চুক্তিবদ্ধ	-11.5074
▁বিকৃত	-11.5074
তালি	-11.5074
▁মাষ্টৰ	-11.5074
▁পৰিচিতি	-11.5075
▁শশী	-11.5075
▁আগমনৰ	-11.5075
্লা	-11.5077
▁not	-11.5079
ত্মক	-11.5079
▁মধ্যপ্ৰদেশৰ	-11.5082
▁চিমেণ্ট	-11.5084
tro	-11.5086
▁উইন্ডোৰ	-11.5087
▁মঙহ	-11.5087
▁উন্মোচনী	-11.5089
▁আহোঁ	-11.5091
▁নেমু	-11.5092
▁সুৰকাৰ	-11.5093
িটী	-11.5094
▁Vi	-11.5095
ভাষ	-11.5095
▁প্লাগ	-11.5097
▁আখ	-11.5097
cy	-11.5097
দাং	-11.5098
▁সমৃদ্ধি	-11.5098
▁ইস্ৰায়েলী	-11.5099
▁সেইটোৱেই	-11.5099
▁দুটাই	-11.5102
▁অনুষ্ঠানটোৰ	-11.5102
▁ঘাইপথত	-11.5102
▁Pr	-11.5104
▁দম্পতী	-11.5105
▁মহাসাগৰৰ	-11.5107
▁কন্	-11.511
▁নোলোৱা	-11.511
ধ্য	-11.5111
▁বুৰা	-11.5113
▁শতকৰ	-11.5116
▁ভালেই	-11.5116
▁বিস্ফোৰণত	-11.5117
▁পাইছে৷	-11.5118
ৰাজনে	-11.5119
যাপন	-11.5119
হাল	-11.5122
▁স্বাভিমান	-11.5123
▁চিগাৰেট	-11.5123
▁অচিনাক্ত	-11.5123
▁প্ৰতিবেশী	-11.5124
,000	-11.5124
▁চিৰস্থায়ী	-11.5124
▁মোহাৰি	-11.5124
▁পূৰ্বেও	-11.5124
▁আশাৰে	-11.5124
▁শ্বেৰমান	-11.5125
▁পাতিছে	-11.5125
▁১৯৩৯	-11.5126
পৰীয়া	-11.5128
▁গলি	-11.5131
▁লৈছোঁ	-11.5132
▁ভূপেনদা	-11.5132
▁সম্ভৱত	-11.5135
বেন	-11.5136
▁পাবলগীয়া	-11.5136
▁ঘড়ী	-11.5138
▁অনাময়	-11.5139
▁বিদ্যালয়খনৰ	-11.5139
▁পোনা	-11.514
▁Ca	-11.5141
▁শিখা	-11.5143
নিয়ান	-11.5144
৪১	-11.5147
▁স্ম	-11.5147
▁বিমানৰ	-11.5147
▁সুষম	-11.5148
য়েদি	-11.515
▁প্ৰাসংগিক	-11.515
▁যদিওবা	-11.5151
[2]।	-11.5155
পুৰী	-11.5155
▁কৰাতকৈ	-11.516
▁গানৰ	-11.516
▁অনুসন্ধানৰ	-11.516
▁সকলোখিনি	-11.5162
▁ভট্টাচাৰ্যৰ	-11.5162
▁চিকিৎসালয়খন	-11.5162
▁তত্বাৱধানত	-11.5163
▁প্ৰতিযোগিতাখন	-11.5164
▁মালি	-11.5164
জগতৰ	-11.5165
চিয়ান	-11.5168
▁লক্ষী	-11.5169
টোহে	-11.517
▁শেষলৈকে	-11.517
মাতৃয়ে	-11.5171
▁বমি	-11.5171
▁গুৰিত	-11.5173
▁ব্ৰত	-11.5173
ous	-11.5176
▁যোৰা	-11.5176
▁February	-11.5176
▁Template	-11.5176
▁ইফ্ৰয়িম	-11.5176
▁উপমহাদেশ	-11.5176
▁থমকি	-11.5176
▁তুচ্ছ	-11.5177
▁স্বা	-11.5177
▁শিৱাজী	-11.5177
▁বাতৰিকাকত	-11.5178
▁অনুৰ্ধ	-11.5178
▁ৰীতা	-11.5179
▁১৯২৮	-11.518
▁সুৰংগ	-11.518
▁আগস্ত	-11.518
▁দিওঁতা	-11.5181
▁গাঁৱে	-11.5183
▁কেৰ	-11.5183
ফিচ	-11.5183
▁ফুৰিছে	-11.5184
▁বাছৰ	-11.5185
▁জন্মদিনৰ	-11.5186
▁উল্লাস	-11.5186
▁31	-11.5187
ory	-11.5187
▁ৱৰ্ক	-11.5192
াণ্ট	-11.5194
▁সতৰ্কতা	-11.5194
▁সাক্ষীসকলৰ	-11.5196
▁যিদিনা	-11.5196
ামা	-11.5196
▁জয়ন্তীয়া	-11.5197
ুৱাই	-11.5198
▁যুক্তৰাজ্য	-11.5199
▁শ্ৰীলংকাৰ	-11.52
▁৬৮	-11.52
আহোম	-11.5201
▁লুকা	-11.5205
▁খ্ৰীষ্টাব্দ	-11.5205
▁নাইট	-11.5207
বাজ	-11.5211
সাত	-11.5211
▁পম	-11.5215
জিক	-11.5215
▁মাহলৈ	-11.522
▁প্ৰতিযোগিতাখনত	-11.5221
▁বহুতৰ	-11.5221
▁ইচ্ছাৰ	-11.5222
▁তিনিবছৰ	-11.5223
ভয়	-11.5224
▁চিকিত্	-11.5225
▁ফুৰিব	-11.5225
ৱাৰা	-11.5228
▁প্ৰত্য	-11.5229
▁খুঁটি	-11.5229
▁ডাইৰেকটৰি	-11.5229
▁বিটিএডি	-11.5229
▁শাৰিৰীক	-11.5229
▁সোৱণশিৰি	-11.5229
▁শ্বুটিং	-11.5229
▁পোচাক	-11.5229
▁সাতোটা	-11.5229
▁বৃন্দাবন	-11.5229
▁উৰুৱাই	-11.5229
▁যথাক্ৰমে	-11.5229
▁প্ৰতিবেদক	-11.5229
ভূজ	-11.5231
▁আকাংক্ষা	-11.5231
▁১৯৩১	-11.5231
বগৈ	-11.5232
▁বাটেদি	-11.5233
▁দেশবাসী	-11.5235
▁হাতীয়ে	-11.5235
▁লেবেল	-11.5236
▁গোবৰ	-11.5237
▁স্কেল	-11.5238
ন্তে	-11.5238
▁লোট	-11.5238
▁অপাৰেচন	-11.5239
▁মাতৃক	-11.5241
▁ভো	-11.5242
ভক্ত	-11.5243
▁৬৯	-11.5243
▁চেৰ	-11.5244
▁ব্যৱহাৰকাৰীয়ে	-11.5245
▁সৰ্প	-11.5246
▁দম	-11.5246
ron	-11.5247
▁যতন	-11.5249
▁As	-11.5251
▁স্নান	-11.5252
▁(1	-11.5252
▁কেইজনৰ	-11.5252
িবলৈ	-11.5252
▁মাইক	-11.5253
বাৰ্তা	-11.5254
▁গাহৰিৰ	-11.5254
▁আপোনালৈ	-11.5254
ৰাষ্ট্ৰ	-11.5255
▁ওমান	-11.5258
form	-11.5259
▁জুলাইৰ	-11.5262
▁পাটনা	-11.5263
লজী	-11.5265
▁চাইকেলখন	-11.5265
▁পূৰ্বৰে	-11.5265
▁কষ্টৰ	-11.5267
ja	-11.5269
▁লোককে	-11.527
▁di	-11.5271
▁স্মৰণীয়	-11.5271
▁আমা	-11.5272
মেট	-11.5274
▁কমাৰ	-11.5278
ture	-11.5278
▁আলোচনীখন	-11.5278
▁কৰাবলৈ	-11.5279
পুৰম	-11.528
▁Bi	-11.528
▁বুধবাৰ	-11.5282
▁বিপিএফৰ	-11.5282
▁ছিক্কিম	-11.5282
▁আবিষ্কাৰ	-11.5282
▁গুপ্তশব্দ	-11.5282
▁আৱিস্কাৰ	-11.5283
SE	-11.5284
▁চেঁচা	-11.5285
াইল	-11.5285
▁৫০০০	-11.5287
▁সন্ত্ৰাসবাদীৰ	-11.5288
▁হিয়া	-11.5289
▁ৱেল	-11.529
▁ৰজাসকলৰ	-11.5291
▁গ্ৰামাঞ্চল	-11.5292
▁হিৰ	-11.5293
▁উপেন	-11.5294
▁পেপাৰ	-11.5294
▁লঘু	-11.5294
▁ললিত	-11.5296
▁বন্দনা	-11.5299
জিৰ	-11.5301
▁দলসমূহে	-11.5301
▁কৰায়ত্ত	-11.5302
▁কৃষিভূমি	-11.5302
দ্বাৰ	-11.5303
▁Com	-11.5304
▁কৌশলগত	-11.5304
কৃতি	-11.5305
▁জেলত	-11.5306
▁পৃথিবীত	-11.5307
▁বেংকত	-11.5307
▁নথিখন	-11.5307
টছ	-11.5307
”-	-11.5308
আউট	-11.5308
▁ৰাছিয়ান	-11.5308
হত্যা	-11.531
বিধি	-11.5312
▁ফুলে	-11.5313
▁কোম্পানীটোৱে	-11.5313
▁সমাধা	-11.5314
▁Sh	-11.5314
মুখৰ	-11.5314
▁লেবীয়া	-11.5317
▁যশ	-11.5319
▁উইল	-11.5319
▁হেৰা	-11.532
▁যদু	-11.5321
▁ব্ৰাজিল	-11.5323
ct	-11.5324
▁নন	-11.5324
▁আঁৰৰ	-11.5325
▁চিলাই	-11.5327
▁অস্তিত্বৰ	-11.5331
▁নিবিড়	-11.5331
▁মহাভাৰতৰ	-11.5331
▁হকী	-11.5332
▁ৰহস্যজনক	-11.5335
▁স্পষ্টভাৱে	-11.5335
▁৬টা	-11.5335
▁ৰংপুৰ	-11.5335
▁45	-11.5335
▁অজুহাত	-11.5336
▁প্ৰডাকচন	-11.5336
▁ভ্ৰাতৃ	-11.5336
▁উৎখাত	-11.5336
আণৱিক	-11.5336
▁পশ্চিমবঙ্গ	-11.5336
▁উপনিষদ	-11.5336
▁স্ৰষ্টা	-11.5336
▁চিট	-11.5337
▁বেঞ্চ	-11.5337
▁বান্ধোন	-11.5337
ib	-11.5337
▁লাহ	-11.5339
ণত	-11.5339
▁৮৩	-11.534
▁স্কট	-11.534
▁স্বাস্থ্যসেৱা	-11.5342
▁সুচল	-11.5343
।[2][3]	-11.5344
।[18]	-11.5344
▁নোপোৱাৰ	-11.5345
▁পূৰ্ব্ব	-11.5347
▁অব্ৰাম	-11.5347
▁সন্দেহজনক	-11.5347
দেউতাক	-11.5347
▁ওচৰে	-11.5349
▁কোৰোনাত	-11.5351
চান	-11.5353
▁নখ	-11.5353
▁দুয়োজনে	-11.5353
▁সোনা	-11.5354
▁লুকুৱা	-11.5356
▁কমন	-11.5356
▁জানিলে	-11.5356
আল	-11.5357
▁বৰ্ষা	-11.5357
▁মেখেলা	-11.5358
▁মহিলাগৰাকী	-11.5363
▁৬৭	-11.5364
▁চৰিত	-11.5372
▁হৰ্ষ	-11.5373
▁এইটোও	-11.5373
▁গমন	-11.5377
{{	-11.5378
▁শান্তিৰে	-11.5382
▁ফলশ্ৰুতিত	-11.5382
▁নৈতিকতা	-11.5382
▁গঁড়ৰ	-11.5384
।[19]	-11.5386
▁কনফাৰেন্স	-11.5387
▁উৰ্ধ	-11.5387
▁কাৰ্ল	-11.5389
▁Author	-11.5389
▁জঁপিয়াই	-11.5389
▁থিতাপি	-11.5389
▁পংকজ	-11.5389
▁ফৰীচী	-11.5389
▁নিৰীহ	-11.5389
▁নিগেটিভ	-11.5389
▁পেছাদাৰী	-11.5389
▁ডিভিজন	-11.539
▁মেধাৱী	-11.539
▁ইমৰাণ	-11.539
▁কলচীয়া	-11.539
▁কানাডা	-11.5391
▁জোঁৰ	-11.5391
▁১৯২৯	-11.5393
▁ধৰ্মী	-11.5393
▁মাৰ্গ	-11.5395
-“	-11.5395
▁আহিছিল৷	-11.5395
▁আঙুলিৰ	-11.5396
▁নিপুণ	-11.5397
▁স্বাৰ্থৰ	-11.5397
গাল	-11.5398
▁খনিকৰ	-11.54
বোৱা	-11.54
nd	-11.5401
পুন	-11.5402
জিলা	-11.5402
▁বৃহত	-11.5404
tin	-11.5405
▁চকীত	-11.5405
▁কেইদিন	-11.5406
▁উলিওৱাৰ	-11.5406
▁সোঁহাত	-11.5406
ফ্ৰা	-11.5407
▁যুটীয়াভাৱে	-11.5407
▁অধ্যায়ৰ	-11.5409
চুৱা	-11.5411
▁লাহেকৈ	-11.5412
ত্যাগ	-11.5413
ফিল	-11.5413
▁এখনো	-11.5414
ser	-11.5415
▁Po	-11.5415
▁জানুৱাৰিত	-11.5417
▁কৰ্মীসকলে	-11.5417
▁মাহতে	-11.5418
মাংস	-11.5418
▁কুণ্ড	-11.5421
▁আৰ্থিকভাৱে	-11.5422
▁ব্যক্তিসকল	-11.5427
▁শুনাৰ	-11.5428
েবল	-11.5429
▁পালক	-11.5429
▁দিলেও	-11.5435
▁দেখিলেই	-11.5437
জিট	-11.5438
▁ৰুটি	-11.5438
ষ্ঠাখন	-11.5438
ৰিয়াৰ	-11.5439
▁যাদুকৰ	-11.544
▁বিক্ৰি	-11.5443
▁আবৰ্জনা	-11.5443
▁বিসৰ্জন	-11.5443
▁একেসময়তে	-11.5443
▁ছহিদ	-11.5444
▁খটা	-11.5446
মাইল	-11.5447
▁ৰাজেন্দ্ৰ	-11.5449
▁নাছাৰ	-11.5449
▁শোভা	-11.545
▁সাজিলে	-11.545
▁name	-11.5455
▁কালে	-11.5455
এছএ	-11.5457
লছ	-11.5458
বাল	-11.5458
▁গাইড	-11.5461
▁যোনা	-11.5462
▁ভ্ৰমণলৈ	-11.5464
▁কৰিলোঁ৷	-11.5464
▁ভণ্ড	-11.5464
▁শিবিৰৰ	-11.5465
▁দিল	-11.5469
▁ভাঁজ	-11.547
▁উত্তৰটো	-11.5472
বও	-11.5473
▁৯৫	-11.5473
▁হাৰমাইনি	-11.5473
▁বনুৱা	-11.5474
'''	-11.5474
▁শতাব্দী	-11.5476
▁চামুচ	-11.5477
▁চৰকাৰখনৰ	-11.5477
▁বেনাৰত	-11.5478
নাদ	-11.548
▁বৰ্হি	-11.5481
▁ফেৰ	-11.5481
▁বিলুপ্ত	-11.5482
▁আসক্ত	-11.5485
▁জটিলতা	-11.5491
বাট	-11.5492
ছোৱালীয়ে	-11.5492
▁সঞ্চালকালয়	-11.5493
▁ওপৰেৰে	-11.5494
BA	-11.5495
স্কাৰ	-11.5497
▁পাঠ্যক্ৰমত	-11.5497
uantity	-11.5498
▁লক্ষ্ণৌ	-11.5498
▁খুঁটা	-11.5498
▁ফাঁচি	-11.5498
▁সংখ্যাগৰিষ্ঠতা	-11.5498
▁কংগনা	-11.5498
▁অতুলনীয়	-11.5499
▁চূণ	-11.5501
▁"""%	-11.5501
▁ৰায়দান	-11.5501
ক্ৰিয়া	-11.5503
সোণ	-11.5503
▁প্ৰবাহিত	-11.5503
▁কাঁহ	-11.5503
▁বিৰাজমান	-11.5504
▁লৈয়ে	-11.5505
▁মহাসভা	-11.5505
▁অৰ্থাত	-11.5505
উৰ	-11.5507
▁উদঙাই	-11.5508
▁নাহৰ	-11.5509
▁120	-11.5509
।[16]	-11.5511
৯১	-11.5512
চ্যুত	-11.5512
ক্ষ্য	-11.5513
ial	-11.5513
▁আকাল	-11.5515
▁ৰেণু	-11.5515
াভি	-11.5516
ভক্তি	-11.552
▁চাউলৰ	-11.5521
▁শ্ৰদ্ধাৰ	-11.5521
ষ্য	-11.5522
ৰাষ্ট্ৰপতি	-11.5524
▁অভিনেতাৰ	-11.5524
▁বগাই	-11.5526
তথ্য	-11.5526
▁খবৰে	-11.5527
পাঁচ	-11.5529
▁শনিবাৰ	-11.553
IR	-11.5531
▁আফ্ৰিকাত	-11.5531
সৰু	-11.5533
▁ভেল	-11.5534
মাত্র	-11.5535
▁("	-11.5536
cal	-11.5538
▁চেন্নাইৰ	-11.5542
▁ৰাজ্যই	-11.5543
শান্ত	-11.5544
লব্ধ	-11.5545
ীসকলে	-11.555
▁নাস্তিক	-11.5552
▁অংশীদাৰিত্ব	-11.5553
▁সুৰাপান	-11.5553
▁চামিল	-11.5555
্নি	-11.5557
▁ৰাজেশ	-11.5558
▁পাত্ৰত	-11.5558
▁যোগাইছে	-11.5559
▁দশ	-11.5559
▁ঘোষনা	-11.556
▁টিপ	-11.556
▁বিহীন	-11.5561
নীত	-11.5562
▁মুহূৰ্ততে	-11.5563
▁শাসনভাৰ	-11.5565
▁ৰাহি	-11.5565
▁অনুপস্থিত	-11.5566
▁কৃতজ্ঞ	-11.5569
▁ধাৰ্মিকতা	-11.557
▁সাৱধানে	-11.557
সকললৈ	-11.5571
▁বড়া	-11.5571
▁চেনেলৰ	-11.5572
▁ট্ৰি	-11.5573
▁আনন্দৰাম	-11.5578
▁পলমকৈ	-11.5579
▁ভাদ	-11.5581
▁কৈছিলোঁ	-11.5582
▁ইলা	-11.5585
▁ৱেবচাইটত	-11.5585
▁স্বায়ত্তশাস	-11.5585
▁মাষ্টাৰ	-11.5587
বেলা	-11.559
ফিয়া	-11.559
▁যাও	-11.5591
ষ্টৰ	-11.5592
▁দায়	-11.5593
বিৰ	-11.5594
বেছি	-11.5594
▁মোৱাব	-11.5596
তেওঁলোকে	-11.5596
▁বতাহত	-11.5598
▁সাতখন	-11.5599
▁কংগ্রেছ	-11.5599
▁মিত্ৰজোঁট	-11.56
impu	-11.5601
▁দেওবাৰ	-11.5603
▁আকস্মিক	-11.5603
ডিজেলৰ	-11.5603
▁November	-11.5607
▁অভয়াপুৰী	-11.5607
▁জিন্দাবাদ	-11.5607
▁বিধ্বংসী	-11.5607
▁বিৰূদ্ধে	-11.5607
▁নিস্তাৰ	-11.5608
▁ব্ৰাউন	-11.5608
▁উলহ	-11.5608
▁মুকেশ	-11.5608
▁গ্রন্থ	-11.5608
▁পুঁজিপতি	-11.5609
▁জংচন	-11.561
▁মুখমণ্ডল	-11.561
▁নৃত্যশিল্পী	-11.561
▁মীৰা	-11.561
▁বনবিভাগ	-11.561
▁এঠাইত	-11.561
▁পত্ৰখন	-11.5612
ps	-11.5612
চেম	-11.5615
কাষ	-11.5615
▁ধৰনৰ	-11.5616
_{	-11.5616
াপুৰ	-11.5616
▁গুলি	-11.5619
ময়ী	-11.5619
▁শৈল	-11.5623
▁তলা	-11.5623
▁নামো	-11.5624
▁তন্ত্ৰৰ	-11.5625
▁গোপনীয়তা	-11.5626
্তী	-11.5627
বাদক	-11.5628
▁Act	-11.5632
▁ইউৰোপত	-11.5632
শ্বি	-11.5636
সাংস্কৃতিক	-11.5637
▁বেশ্যা	-11.5637
▁কৰ্মত	-11.5637
▁পিতলৰ	-11.5637
কেইখনৰ	-11.5639
েন্দ্ৰনাথ	-11.564
▁খুলিবলৈ	-11.5641
▁ব্যৰ্থতা	-11.5642
ze	-11.5644
▁নিলগত	-11.5648
▁শাসনত	-11.565
▁ডাক্তৰে	-11.5652
▁কেক	-11.5652
▁কৰ্মৰাজি	-11.5654
▁জাকৰ	-11.5654
▁জনকৈ	-11.5655
▁Ka	-11.5657
▁দেখো	-11.5658
▁হাস্পতালৰ	-11.566
▁নেপথ্য	-11.5663
▁বেটছমেন	-11.5663
▁বোম্বাই	-11.5663
▁অনবদ্য	-11.5663
▁হোচেয়া	-11.5663
▁কেবাখনো	-11.5663
▁ত্ৰিভূজ	-11.5663
▁হেমচন্দ্ৰ	-11.5663
▁বিঘ্ন	-11.5664
▁ভালেসংখ্যক	-11.5664
▁ভক্ষণ	-11.5665
নাশক	-11.5666
▁বিচনাত	-11.5666
▁চিভিল	-11.5666
▁উৰণীয়া	-11.5667
▁বাহাই	-11.5667
▁সম্ভাৰ	-11.5669
▁বক্সিং	-11.5669
▁অৰ্হতাৰ	-11.5669
নামৰ	-11.567
বৰুৱা	-11.5672
▁[2]	-11.5672
▁কেব	-11.5674
▁দুদিনমান	-11.5675
▁ভোটাৰৰ	-11.5676
ঠাই	-11.5676
▁লিংগৰ	-11.5676
▁অভিনেত্ৰীৰ	-11.5678
▁নৱেম্বৰঃ	-11.568
▁চৌহদৰ	-11.5681
▁বিজ্ঞাপনৰ	-11.5683
▁নিয়ন্ত্ৰণত	-11.5683
▁পাঠশালা	-11.5685
▁আস	-11.5687
স্মিতা	-11.5689
▁ব্যয়ৰ	-11.5689
িয়েন	-11.5689
পোৰ্ট	-11.569
▁নিশ্চিতি	-11.5691
IP	-11.5691
গুলি	-11.5691
▁ঘাঁ	-11.5693
আকাশ	-11.5693
▁ভৱ	-11.5693
▁সন্মুখ	-11.5695
▁হৰিণ	-11.5695
▁সৱ	-11.5695
▁বিনিয়োগকাৰী	-11.5697
▁:-	-11.5698
▁চাইছিল	-11.5698
▁দুপৰীয়াৰ	-11.57
ছিয়ে	-11.57
▁কৰবাত	-11.5702
▁বাসভৱনত	-11.5702
▁কবিয়ে	-11.5703
▁আবি	-11.5704
▁নাচৰ	-11.5705
▁অচল	-11.5706
▁ইণ্টাৰ	-11.5708
ight	-11.5708
▁১১৯	-11.5711
ল্য	-11.5712
গৃহত	-11.5716
▁অগ্নিকাণ্ডত	-11.5716
▁প্ৰশংসিত	-11.5718
▁মুকুন্দ	-11.5718
▁ট্ৰায়েল	-11.5718
▁অফিচিয়েল	-11.5718
▁মীখা	-11.5719
▁কনকলতা	-11.5719
▁যাতনা	-11.5719
▁ৰাষ্ট্রপতি	-11.5719
▁দুসপ্তাহ	-11.5719
▁যাত্ৰীবাহী	-11.5719
▁অসৎ	-11.572
▁পেটেণ্ট	-11.572
▁১৯৩৭	-11.5721
▁লয়৷	-11.5721
ৰঙী	-11.5724
▁দ্ৰ	-11.5724
▁নিৰ্মাণকাৰ্য	-11.5725
লয়ৰ	-11.5725
ঈশ্বৰ	-11.5726
▁কীৰ্তন	-11.5726
সংঘ	-11.5728
▁বিশ্বাসত	-11.5729
▁ভবেন্দ্ৰ	-11.573
▁বাইবেলখন	-11.573
▁গোসাঁই	-11.5733
িজম	-11.5733
ীয়াকৈ	-11.5734
▁স্বদেশ	-11.5738
▁সম্মুখত	-11.5738
▁জপ	-11.5739
য়ত	-11.5743
বাসীক	-11.5746
▁চহৰখনত	-11.5746
▁কোহলী	-11.5747
▁মাতেৰে	-11.5749
▁পদাৰ্থবিজ্ঞান	-11.5749
▁কাশ্মীৰত	-11.5749
যােগ	-11.575
▁জেললৈ	-11.5752
▁৮০০	-11.5753
▁প্ৰজন্মই	-11.5758
▁হিট	-11.576
▁হৈছিলো	-11.5761
▁পূৰ্ণতাবাদ	-11.5762
▁কাৰবাৰ	-11.5763
▁সন্মুখতে	-11.5764
▁হাবিত	-11.5765
▁৮৬	-11.5774
▁খুজিলে	-11.5774
▁টুৰ্ণামেণ্ট	-11.5774
▁দ্বন্দ্ব	-11.5774
▁ধঁপাত	-11.5774
▁অণুবীক্ষণ	-11.5774
▁সূচায়	-11.5774
▁বাৰ্লিন	-11.5775
▁মাহটো	-11.5775
▁স্ক্ৰ	-11.5775
▁কটায়	-11.5775
▁কুখ্যাত	-11.5775
▁কাৰন	-11.5775
▁পিছফালৰ	-11.5775
▁প্রমাণ	-11.5775
▁সৰ্বকালৰ	-11.5776
▁কবলত	-11.5776
▁এমুঠি	-11.5777
▁উপস্থিতিৰ	-11.5779
▁বুথ	-11.5779
ছান	-11.5779
▁চাৰিআলিৰ	-11.5782
▁শ্ৰমিকক	-11.5783
▁চালকজন	-11.5784
▁ইণ্টাৰনেটত	-11.5786
▁পদূলি	-11.5787
াৰাম	-11.5789
▁ইণ্ডো	-11.5789
▁হিংসাৰ	-11.5792
ঞা	-11.5793
▁[3]	-11.5793
▁কুইন	-11.5794
হঁতক	-11.5795
▁৭৭	-11.5797
সন্মত	-11.5799
▁সত্যতাৰ	-11.5799
ft	-11.58
▁পোহৰত	-11.5801
▁দুৰ্গম	-11.5801
▁পপ	-11.5801
▁জানেনে	-11.5802
▁বিকল	-11.5802
ুষিত	-11.5802
▁খোদ	-11.5803
▁১৩০	-11.5803
লৌ	-11.5804
▁নৰিয়া	-11.5805
▁চিলি	-11.5806
ক্ৰে	-11.5806
▁ধাৰ্ম্মিক	-11.5807
▁মানাহ	-11.5807
▁28.	-11.5807
lar	-11.5808
লেখক	-11.5808
▁বিপ্লৱী	-11.5808
▁কন্যাক	-11.5808
▁বিষৰ	-11.5808
▁ৰাতিটো	-11.581
pp	-11.5813
▁শীতকাল	-11.5813
বলৈও	-11.5813
নাট্য	-11.5814
▁শুনে	-11.5814
দত্ত	-11.5815
▁কাটিব	-11.5816
▁মিট	-11.5818
▁আখৰে	-11.5819
▁লোকসভাত	-11.5819
▁নির্দেশ	-11.582
▁ক্লিনিক	-11.5821
▁দুভাগ	-11.5823
▁আনিম	-11.5824
ব্ৰত	-11.5826
▁হাস্পতাল	-11.5827
▁1.1	-11.5829
▁মূৰ্খ	-11.583
▁ময়ূৰ	-11.583
▁জপিয়াই	-11.5831
▁কথাহে	-11.5831
▁৭৩	-11.5831
▁বৰ্ণালী	-11.5832
▁মুম্বাইলৈ	-11.5834
ts	-11.5835
▁Se	-11.5835
▁আতংকিত	-11.5836
▁গাঞ্জা	-11.5837
▁ইছৰো	-11.5838
▁পথাৰখন	-11.5838
▁আছুৱে	-11.5838
ছাইটি	-11.5841
▁গুড	-11.5844
▁আয়ত্ত	-11.5845
▁দিশবোৰ	-11.5845
▁বাঢ়িল	-11.5848
মূৰ্তি	-11.5851
▁পৃথিৱীলৈ	-11.5851
▁পৰমেশ্বৰ	-11.5852
▁এণ্টি	-11.5854
দাল	-11.5856
▁কৈছিলো	-11.5858
▁ইস্ৰায়েলসকল	-11.5858
▁ক্ষেত্ৰলৈ	-11.586
▁শে	-11.586
স্থানত	-11.586
মনৰ	-11.5863
▁ব্ৰিটিছে	-11.5863
▁বিদ্যাৰ	-11.5863
▁কাৰ্যকালত	-11.5864
▁ৰুছ	-11.5865
িংটন	-11.5865
▁প্ৰত্যাহ্বানৰ	-11.5867
▁অবৈধভাৱে	-11.5869
▁শাস্তিৰ	-11.5872
বৰ্তন	-11.5874
▁মুঠেই	-11.5875
ুদ	-11.5875
▁বক্ৰ	-11.5879
▁বেগী	-11.588
▁গোপী	-11.5884
▁সংমণ্ডলৰ	-11.5885
িপুণ	-11.5886
ৰান	-11.5886
▁বিফলতা	-11.5886
▁নিলম্বন	-11.5887
▁ৰায়চৌধুৰী	-11.5887
▁ছায়েন্স	-11.5887
▁পলাতক	-11.5887
▁ট্ৰেফিক	-11.5887
▁বিদ্যাপীঠ	-11.5887
▁টেবলেট	-11.5887
▁বহিৰাগত	-11.5887
▁পুহি	-11.5887
▁অপব্যৱহাৰ	-11.5888
▁প্ৰিন্স	-11.5888
▁১৯৪৪	-11.5889
▁Man	-11.5889
▁ষ্টেচনত	-11.5889
▁বাকি	-11.5889
▁শুভাৰম্ভণি	-11.589
▁হোষ্টেলৰ	-11.5893
াপ্পা	-11.5893
▁২০২২	-11.5894
চিলা	-11.5896
▁পূর্বে	-11.5896
লিচ	-11.5897
▁৫টা	-11.5898
▁মহাদেশৰ	-11.5898
▁ফাইলটো	-11.5899
▁সেইদেখি	-11.5899
▁নৰা	-11.5899
▁দায়িত্বভাৰ	-11.5899
▁ৰাভাই	-11.5903
▁কেজৰিৱাল	-11.5903
▁ফটোবোৰ	-11.5906
for	-11.5907
kar	-11.5908
▁লেবীয়াসকল	-11.5911
ঙ্	-11.5912
▁চিধা	-11.5923
▁y	-11.5926
vo	-11.5929
▁অস্থিৰতা	-11.593
▁শীৰ্ষত	-11.5931
আঃ	-11.5934
চিচ	-11.5937
ুছ	-11.5941
▁পদসমূহ	-11.5941
▁ভাষণৰ	-11.5943
▁শিখৰ	-11.5943
▁GTK	-11.5944
▁অধ্যাপনা	-11.5944
▁অবচালোম	-11.5944
▁পোহনীয়া	-11.5944
▁প্ৰতিদ্বন্দ্বী	-11.5944
▁মনোনিৱেশ	-11.5944
▁যাতায়াত	-11.5944
▁প্ৰসূতি	-11.5944
▁শ্বিলং	-11.5944
▁চানেকি	-11.5944
▁শ্ৰেণীকোঠা	-11.5944
▁90	-11.5944
চিল	-11.5944
▁আমোচ	-11.5946
▁সুস্মিতা	-11.5946
▁পাঠকক	-11.5947
▁Le	-11.5948
▁শগুণ	-11.5949
▁গাৰ্ল	-11.5949
▁ফাক	-11.5953
▁গান্ধীজী	-11.5953
ase	-11.5953
▁প্ৰচে	-11.5954
▁দেখোঁ	-11.5955
স্থলীত	-11.5959
▁বিজ্ঞানীৰ	-11.5959
থ্ৰ	-11.596
▁Manj	-11.596
▁গায়িকা	-11.5961
▁বিয়াত	-11.5961
▁দ্বীপত	-11.5963
সংস্কৃত	-11.5965
▁জোপা	-11.5966
▁সংমণ্ডল	-11.5968
সমূহো	-11.5969
In	-11.5971
▁আৰ্হিক	-11.5972
▁পঠা	-11.5973
▁চালনা	-11.5976
বৈজ্ঞানিক	-11.5976
পীঠ	-11.5976
পত্নী	-11.5977
▁জগতখনত	-11.5977
▁ঘটনাবোৰ	-11.5977
▁দৰ্জা	-11.5979
▁দর্শন	-11.5979
ভিল	-11.5981
▁অমান্ত	-11.5982
▁চুলিৰ	-11.5982
মাৰা	-11.5983
▁চেম্পিয়নশ্বিপত	-11.5984
▁অপ্ৰ	-11.5987
▁সদনত	-11.5987
▁মধ্যপ্ৰদেশ	-11.599
▁দাই	-11.5999
▁আখৰা	-11.6
▁কেইমাহমান	-11.6001
▁কেলেংকাৰি	-11.6001
▁আলাইহি	-11.6001
▁অৱজ্ঞা	-11.6001
▁উৎপীড়ন	-11.6001
▁আমোলা	-11.6001
▁জিলাখন	-11.6001
▁ওলোমাই	-11.6002
▁অলৌকিক	-11.6003
▁আজৰি	-11.6004
▁অনান্য	-11.6004
▁উপাসনাৰ	-11.6004
▁অনৈতিক	-11.6005
▁আয়ুৰ্বেদিক	-11.6005
সিক	-11.6006
▁প্ৰমাণীকৰণ	-11.6007
▁Mar	-11.6009
▁সৃষ্টিকাৰী	-11.6009
নেছ	-11.6009
পিং	-11.6012
পুত	-11.6012
IL	-11.6013
▁অসমীয়াত	-11.6014
▁চিম	-11.6016
▁গাৰ্গে	-11.6017
▁বতাহৰ	-11.6019
▁এণ্ট	-11.602
াঙ্ক	-11.6027
▁পোষ্টাৰ	-11.6032
▁অনুস্থান	-11.6033
ইতিহাস	-11.6034
িও	-11.6035
▁ছোৱালীজনীক	-11.6037
yan	-11.6041
▁উটুৱা	-11.6042
▁চম	-11.6042
▁এইধৰণৰ	-11.6044
প্ৰদেশ	-11.6044
্যতা	-11.6046
▁অন্তৰৰ	-11.6049
▁ধৰণেৰে	-11.6052
▁অয়	-11.6052
▁থব	-11.6053
▁Language	-11.6058
▁মথাউৰি	-11.6058
▁মীমাংসা	-11.6058
▁সান্ত্বনা	-11.6058
▁[...]	-11.6058
▁সকীয়াই	-11.6058
han	-11.6058
▁ক্ৰেডিট	-11.6058
▁অভিপ্ৰায়	-11.6059
▁অৱকাশ	-11.6059
▁সচিবালয়	-11.606
▁পাছদিনা	-11.606
▁আৰম্ভণিত	-11.606
▁বোকাজান	-11.606
▁চিপিআই	-11.606
▁সূৰ্য্যৰ	-11.606
ধৰ্মৰ	-11.606
▁সম্বাদ	-11.6062
▁অমঙ্গল	-11.6062
▁পাহৰা	-11.6062
▁টিকাকৰণ	-11.6063
▁ফলমূল	-11.6064
▁শিক্ষাগ্ৰহণ	-11.6065
মৌ	-11.6065
▁পেচা	-11.6066
▁শব্দটোৱে	-11.6066
▁পৰিলোঁ	-11.6066
▁পৱন	-11.6066
▁প্ৰাণৰ	-11.6067
▁নকৰাকৈয়ে	-11.6068
ৰাবোৰে	-11.607
▁সিঙক	-11.6072
▁নামিব	-11.6073
▁ভগ্ন	-11.6073
াণ	-11.6073
▁উপচি	-11.6074
▁কোৱাৰ্টাৰ	-11.6074
▁গৰ্ব	-11.6075
▁পৃষ্ঠপোষকতাত	-11.6076
▁কীৰ্তি	-11.6076
ata	-11.6076
▁পৃষ্ঠাটো	-11.6077
▁এইকেইটা	-11.6081
পনা	-11.6081
▁কথাতে	-11.6082
▁মাধ	-11.6082
মছ	-11.6082
তোমালোক	-11.6083
াৰ্ক	-11.6083
▁ব্ৰেক	-11.6084
ite	-11.6085
▁ক্লান্ত	-11.6086
▁প্ৰতিষ্ঠাতা	-11.6086
▁চুটিগল্প	-11.6086
▁বাল্য	-11.6087
▁ৰামৰ	-11.6087
▁লোকেল	-11.6087
▁ছিন্ন	-11.6089
▁কেলেংকাৰীৰ	-11.6092
বাণিজ্য	-11.6092
lin	-11.6094
ita	-11.6095
▁৯৭	-11.6098
ng	-11.6099
chi	-11.6099
▁অসমৰ্থ	-11.6101
্না	-11.6102
▁যাওতে	-11.6102
▁বিপথ	-11.6103
ছনে	-11.6104
▁ব্যৱহাৰযোগ্য	-11.6105
চকু	-11.6105
▁সংক্ৰান্তি	-11.6107
▁আপোচ	-11.6108
▁ওচৰৰে	-11.6109
▁আহোতে	-11.611
▁তেঁওক	-11.6111
পাঠ	-11.6111
▁দীনেশ	-11.6111
▁হৈছিলোঁ	-11.6113
▁যাতায়তৰ	-11.6114
▁৯১	-11.6115
▁উদ্বুদ্ধ	-11.6116
▁যক্ষ্মা	-11.6116
▁শৌচাগাৰ	-11.6116
▁জিম্মাত	-11.6116
▁নিষ্পত্তি	-11.6116
▁দেখ	-11.6116
▁বিন্ধা	-11.6116
▁দিব্যজ্যোতি	-11.6117
▁গিৰিয়েক	-11.6117
▁শুভবাৰ্তা	-11.6117
▁ধনশিৰি	-11.6117
▁স্হান	-11.6117
▁বিৱৰ্তন	-11.6117
▁নিকৃষ্ট	-11.6117
▁গাঁৱ	-11.6117
▁ফ্ৰী	-11.6118
▁শুক্ৰ	-11.6121
▁একেধৰণৰ	-11.6121
▁প্ৰহ্লাদ	-11.6122
▁এমাহৰ	-11.6123
▁সাহাৰ্য্য	-11.6123
▁বৰপাত্ৰ	-11.6124
পইচা	-11.6124
▁গিলি	-11.6125
▁ক্ষিপ্ৰ	-11.6125
িক্স	-11.6129
▁কঢ়া	-11.613
▁আতংকৰ	-11.6131
▁লগিন	-11.6131
▁চিত্ৰকৰ	-11.6132
শ্বা	-11.6136
▁৮১	-11.6136
াণু	-11.6136
▁চহা	-11.6136
▁অৰ্থাত্	-11.6136
▁জহ	-11.6137
▁কমাণ্ড	-11.6137
▁আনন্দত	-11.6141
cha	-11.6141
▁কান্ধ	-11.6142
▁জীয়াৰী	-11.6143
▁সেইসমূহ	-11.6144
িশ	-11.6145
▁ভূমিকম্পৰ	-11.6148
[...]
